{"<s>":0,"<pad>":1,"</s>":2,"<unk>":3,"<mask>":4,"!":5,"\"":6,"#":7,"$":8,"%":9,"&":10,"'":11,"(":12,")":13,"*":14,"+":15,",":16,"-":17,".":18,"/":19,"0":20,"1":21,"2":22,"3":23,"4":24,"5":25,"6":26,"7":27,"8":28,"9":29,":":30,";":31,"<":32,"=":33,">":34,"?":35,"@":36,"A":37,"B":38,"C":39,"D":40,"E":41,"F":42,"G":43,"H":44,"I":45,"J":46,"K":47,"L":48,"M":49,"N":50,"O":51,"P":52,"Q":53,"R":54,"S":55,"T":56,"U":57,"V":58,"W":59,"X":60,"Y":61,"Z":62,"[":63,"\\":64,"]":65,"^":66,"_":67,"`":68,"a":69,"b":70,"c":71,"d":72,"e":73,"f":74,"g":75,"h":76,"i":77,"j":78,"k":79,"l":80,"m":81,"n":82,"o":83,"p":84,"q":85,"r":86,"s":87,"t":88,"u":89,"v":90,"w":91,"x":92,"y":93,"z":94,"{":95,"|":96,"}":97,"~":98,"":99,"":100,"¡":101,"¢":102,"£":103,"¤":104,"¥":105,"¦":106,"§":107,"¨":108,"©":109,"ª":110,"«":111,"¬":112,"®":113,"¯":114,"°":115,"±":116,"²":117,"³":118,"´":119,"µ":120,"¶":121,"·":122,"¸":123,"¹":124,"º":125,"»":126,"¼":127,"½":128,"¾":129,"¿":130,"À":131,"Á":132,"Â":133,"Ã":134,"Ä":135,"Å":136,"Æ":137,"Ç":138,"È":139,"É":140,"Ê":141,"Ë":142,"Ì":143,"Í":144,"Î":145,"Ï":146,"Ð":147,"Ñ":148,"Ò":149,"Ó":150,"Ô":151,"Õ":152,"Ö":153,"×":154,"Ø":155,"Ù":156,"Ú":157,"Û":158,"Ü":159,"Ý":160,"Þ":161,"ß":162,"à":163,"á":164,"â":165,"ã":166,"ä":167,"å":168,"æ":169,"ç":170,"è":171,"é":172,"ê":173,"ë":174,"ì":175,"í":176,"î":177,"ï":178,"ð":179,"ñ":180,"ò":181,"ó":182,"ô":183,"õ":184,"ö":185,"÷":186,"ø":187,"ù":188,"ú":189,"û":190,"ü":191,"ý":192,"þ":193,"ÿ":194,"Ā":195,"ā":196,"Ă":197,"ă":198,"Ą":199,"ą":200,"Ć":201,"ć":202,"Ĉ":203,"ĉ":204,"Ċ":205,"ċ":206,"Č":207,"č":208,"Ď":209,"ď":210,"Đ":211,"đ":212,"Ē":213,"ē":214,"Ĕ":215,"ĕ":216,"Ė":217,"ė":218,"Ę":219,"ę":220,"Ě":221,"ě":222,"Ĝ":223,"ĝ":224,"Ğ":225,"ğ":226,"Ġ":227,"ġ":228,"Ģ":229,"ģ":230,"Ĥ":231,"ĥ":232,"Ħ":233,"ħ":234,"Ĩ":235,"ĩ":236,"Ī":237,"ī":238,"Ĭ":239,"ĭ":240,"Į":241,"į":242,"İ":243,"ı":244,"Ĳ":245,"ĳ":246,"Ĵ":247,"ĵ":248,"Ķ":249,"ķ":250,"ĸ":251,"Ĺ":252,"ĺ":253,"Ļ":254,"ļ":255,"Ľ":256,"ľ":257,"Ŀ":258,"ŀ":259,"Ł":260,"ł":261,"Ń":262,"ń":263,"Ň":264,"ň":265,"ř":266,"ś":267,"Ÿ":268,"ƒ":269,"ǿ":270,"π":271,"а":272,"б":273,"з":274,"и":275,"ப":276,"௚":277,"—":278,"‘":279,"’":280,"‚":281,"“":282,"”":283,"„":284,"†":285,"•":286,"⁁":287,"€":288,"℁":289,"™":290,"∁":291,"■":292,"□":293,"▲":294,"►":295,"▼":296,"◦":297,"★":298,"☆":299,"♥":300,"♦":301,"✓":302,"❖":303,"en":304,"er":305,"an":306,"de":307,"in":308,"et":309,"el":310,"st":311,"ij":312,"or":313,"aa":314,"on":315,"ie":316,"ch":317,"ge":318,"van":319,"at":320,"al":321,"00":322,"it":323,"is":324,"oor":325,"ver":326,"ing":327,"te":328,"ar":329,"een":330,"aar":331,"op":332,"re":333,"der":334,"den":335,"het":336,"le":337,"ro":338,"ur":339,"om":340,"be":341,"aan":342,"gen":343,"he":344,"voor":345,"cht":346,"oe":347,"ol":348,"am":349,"we":350,"il":351,"ken":352,"ot":353,"met":354,"\"\"":355,"ijk":356,"50":357,"ig":358,"ra":359,"se":360,"sch":361,"__":362,"and":363,"uit":364,"ze":365,"ou":366,"oo":367,"ijn":368,"id":369,"De":370,"20":371,"un":372,"me":373,"dat":374,"sp":375,"ag":376,"ele":377,"rij":378,"10":379,"as":380,"19":381,"aat":382,"ers":383,"iet":384,".\"":385,"ent":386,"di":387,"kt":388,"uw":389,"ste":390,"je":391,"ven":392,".,":393,"30":394,"uur":395,"wer":396,"zijn":397,"ru":398,"die":399,"ft":400,"us":401,"eer":402,"ter":403,"ik":404,"og":405,"ER":406,"EN":407,"over":408,"ad":409,"sl":410,"del":411,"ve":412,"af":413,"ap":414,"of":415,"ul":416,"bij":417,"ant":418,"In":419,"ri":420,"ak":421,"onder":422,"niet":423,"sen":424,"11":425,"ond":426,"wor":427,"ster":428,"ct":429,"ingen":430,"12":431,"aal":432,"ut":433,"15":434,"ne":435,"gel":436,"18":437,"pl":438,"atie":439,"ke":440,"len":441,"40":442,"men":443,"ma":444,"zi":445,"als":446,"dag":447,"bl":448,"ten":449,"es":450,"ic":451,"ier":452,"ont":453,"door":454,"mo":455,"elijk":456,"16":457,"000":458,"17":459,"13":460,"land":461,"05":462,"ber":463,"nen":464,"eft":465,"AN":466,"90":467,"pro":468,"im":469,"art":470,"ker":471,"14":472,"oen":473,"gr":474,"waar":475,"ort":476,"eld":477,"25":478,"tot":479,"dt":480,"Het":481,"gro":482,"acht":483,"isch":484,"kom":485,"vol":486,"wee":487,"22":488,"ui":489,"80":490,"____":491,"ook":492,"per":493,"dan":494,"jaar":495,"ger":496,"man":497,"bo":498,"raa":499,"zen":500,"na":501,"um":502,"..":503,"Ne":504,"heeft":505,"ko":506,"zo":507,"ben":508,"nie":509,"45":510,"ige":511,"naar":512,"23":513,"vo":514,"rie":515,"IN":516,"mer":517,"60":518,"70":519,"geb":520,"maar":521,"worden":522,"elef":523,"ei":524,"all":525,"St":526,"pen":527,"heb":528,"wij":529,"nog":530,"oon":531,"kl":532,"heid":533,"str":534,"ST":535,"dam":536,"Al":537,"hou":538,"ang":539,"ion":540,"ies":541,"was":542,"EL":543,"AR":544,"bel":545,"eren":546,"kun":547,",-":548,"sten":549,"os":550,"meer":551,"em":552,"wel":553,"min":554,"werk":555,"24":556,"da":557,"^^":558,"hij":559,"ed":560,"hu":561,"ac":562,"ische":563,"stel":564,"li":565,"oed":566,"06":567,"gev":568,"bed":569,"ander":570,"moet":571,"ex":572,"ok":573,"open":574,"ale":575,"weg":576,"to":577,"tij":578,"Van":579,"OO":580,"au":581,"ind":582,"com":583,"ir":584,"oek":585,"35":586,"bet":587,"29":588,"21":589,"88":590,"ater":591,"lu":592,"ek":593,"res":594,"75":595,"Neder":596,"aren":597,"wordt":598,"ouw":599,"kan":600,"lijk":601,"hebben":602,"zel":603,"gem":604,"ran":605,"zich":606,"con":607,"gens":608,"89":609,"aut":610,"cent":611,"ron":612,"huis":613,"ci":614,"26":615,"85":616,"wil":617,"ab":618,"itie":619,"ast":620,"gt":621,"pr":622,"ee":623,"Tel":624,"alle":625,"daar":626,"tegen":627,"ON":628,"ien":629,"Nederland":630,"oord":631,"Telef":632,"vrij":633,"plaat":634,"mee":635,"aten":636,".\"\"":637,"rouw":638,"ser":639,"toe":640,"100":641,"han":642,"rijs":643,"nu":644,"92":645,"do":646,"km":647,"ff":648,"Sch":649,").":650,"91":651,"lo":652,"Op":653,"34":654,"ep":655,"dien":656,"tre":657,"geen":658,"ho":659,"IE":660,"orm":661,"020":662,"av":663,"86":664,"twee":665,"spe":666,"95":667,"ctie":668,"27":669,"ite":670,"87":671,"tel":672,"deze":673,"CH":674,"veel":675,"Sp":676,"du":677,"DE":678,"hoo":679,"amen":680,"gd":681,"ine":682,"jes":683,"ist":684,"33":685,"04":686,"racht":687,"En":688,"Voor":689,"mm":690,"kam":691,"Een":692,"komen":693,"950":694,"no":695,"dig":696,"**":697,"ia":698,"dr":699,"lie":700,"ister":701,"fl":702,"gele":703,"IJ":704,"zelf":705,"ië":706,"500":707,"elen":708,"win":709,"dit":710,"ons":711,"--":712,"delijk":713,"mog":714,"Am":715,"staat":716,"zal":717,"kw":718,"eg":719,"Ver":720,"fd":721,"kle":722,"uwe":723,"iek":724,"co":725,"320":726,"org":727,"OR":728,"bur":729,"had":730,"werd":731,"DA":732,"aag":733,"mil":734,"goed":735,"93":736,"ren":737,"tra":738,"ass":739,"ings":740,"onze":741,"zet":742,"pers":743,"cl":744,"nieuw":745,"aak":746,"bj":747,"ost":748,"ade":749,"won":750,"age":751,"gaan":752,"94":753,"uk":754,"28":755,"tijd":756,"66":757,"AL":758,"hal":759,"RO":760,"AP":761,"Bel":762,"koop":763,"bedrij":764,"plaats":765,"),":766,"her":767,"wat":768,"We":769,"deel":770,"ard":771,"hun":772,"ation":773,"55":774,"99":775,"echt":776,"Te":777,"Dat":778,"uren":779,"Be":780,"mid":781,"erd":782,"zien":783,".-":784,"par":785,"fe":786,"RA":787,"innen":788,"icht":789,"schap":790,"kunnen":791,"An":792,"staan":793,"get":794,"ders":795,"weer":796,"iteit":797,"ank":798,"haar":799,"straat":800,"uiten":801,"ING":802,"iss":803,"37":804,"sn":805,"oren":806,"ip":807,"vin":808,"moe":809,"kr":810,"kel":811,"84":812,"zou":813,"Ge":814,"36":815,"int":816,"ert":817,"02":818,"44":819,"LE":820,"zit":821,"Bo":822,"Nie":823,"lan":824,"-'":825,"zw":826,"tal":827,"AT":828,"RE":829,"ussen":830,"eigen":831,"nieuwe":832,"zij":833,"la":834,"val":835,"pol":836,"IS":837,"maan":838,"Mar":839,"beg":840,"Vol":841,"fin":842,"su":843,"recht":844,"83":845,"auto":846,"urs":847,"ord":848,"elijke":849,"geven":850,"ga":851,"ef":852,".:":853,"sel":854,"onden":855,"stand":856,"ust":857,"aanse":858,"part":859,"baar":860,"32":861,"od":862,"ide":863,"Ik":864,"bouw":865,"zoek":866,"gar":867,"ged":868,"inter":869,"mar":870,"vrouw":871,"laat":872,"Maar":873,"ble":874,"sport":875,"inder":876,"kend":877,"Aut":878,"vel":879,"07":880,"aam":881,"prijs":882,"ce":883,"ple":884,"aakt":885,"65":886,"houden":887,"ug":888,"end":889,"47":890,"bedrijf":891,"blij":892,"za":893,"ood":894,"off":895,"eerste":896,"ax":897,"ment":898,"MA":899,"eel":900,"kant":901,"vr":902,"ult":903,"wit":904,"ling":905,"IT":906,"iding":907,"telef":908,"dus":909,"________":910,"hoe":911,"act":912,"Met":913,"gest":914,"Gron":915,"77":916,"On":917,"sle":918,"burg":919,"UR":920,"grote":921,"ai":922,"hem":923,"gram":924,"groot":925,"keer":926,"Ro":927,"ding":928,"TO":929,"gl":930,"Hij":931,"heel":932,"lang":933,"stra":934,"Amer":935,"andere":936,"wet":937,"Ch":938,"ks":939,"milj":940,"96":941,"cont":942,"io":943,"Br":944,"iden":945,"ll":946,"erv":947,"gaat":948,"750":949,"eeuw":950,"pe":951,"jon":952,"Jo":953,"mensen":954,"are":955,"mogelijk":956,"AM":957,"handel":958,"APK":959,"kken":960,"Fran":961,"oten":962,"gesch":963,"vert":964,"agen":965,"Er":966,"moeten":967,"tussen":968,"\"\",":969,"Nieuw":970,"46":971,"binnen":972,"gemeen":973,"31":974,"doen":975,"achter":976,"■■":977,"stuur":978,"verw":979,"iel":980,"ii":981,"SS":982,"bu":983,"form":984,"maken":985,"97":986,"BO":987,"drs":988,"rec":989,"zoe":990,"des":991,"leven":992,"krij":993,"va":994,"lig":995,"pm":996,"voer":997,"38":998,"vis":999,"serie":1000,"Ook":1001,"woon":1002,"eu":1003,"AG":1004,"avond":1005,"DER":1006,"pu":1007,"strij":1008,"sterdam":1009,"raag":1010,"richt":1011,"Daar":1012,"AU":1013,"heden":1014,"zon":1015,"ari":1016,"besch":1017,"ck":1018,"net":1019,"The":1020,"Amerik":1021,"politie":1022,"Amsterdam":1023,"DEN":1024,"ruim":1025,"drie":1026,"slag":1027,"mijn":1028,"ool":1029,"even":1030,"zonder":1031,"week":1032,"gister":1033,"zeer":1034,".\"\"\"":1035,"OL":1036,"chte":1037,"urop":1038,"09":1039,"eens":1040,"LP":1041,"oll":1042,"atuur":1043,"Gro":1044,"sc":1045,"spre":1046,"Inl":1047,"GL":1048,"98":1049,"vier":1050,"ET":1051,"ds":1052,"ins":1053,"alleen":1054,"...":1055,"az":1056,"nam":1057,"hel":1058,"vl":1059,"vak":1060,"ha":1061,"woord":1062,"ss":1063,"fil":1064,"nw":1065,"omen":1066,"vor":1067,"leg":1068,"200":1069,"Re":1070,"rum":1071,"oede":1072,"Groningen":1073,"bew":1074,"hoofd":1075,"hoog":1076,"045":1077,"els":1078,"the":1079,"Ar":1080,"Le":1081,"ging":1082,"ens":1083,"ijf":1084,"licht":1085,"Duit":1086,"LPG":1087,"enk":1088,"elk":1089,"uin":1090,"aties":1091,"dens":1092,"39":1093,"IL":1094,"cr":1095,"bal":1096,"Europ":1097,"snel":1098,"Jan":1099,"Heer":1100,"gebru":1101,"___":1102,"hand":1103,"bus":1104,"buiten":1105,"én":1106,"42":1107,"stig":1108,"82":1109,"delen":1110,"antie":1111,"br":1112,"bro":1113,"VER":1114,"Bij":1115,"moo":1116,"oeg":1117,"stad":1118,"dagen":1119,"anis":1120,"67":1121,"ara":1122,"pun":1123,"aterdag":1124,"ES":1125,"nr":1126,"03":1127,"nis":1128,"gez":1129,"43":1130,"ca":1131,"samen":1132,"les":1133,"komt":1134,"Als":1135,"versch":1136,"miljoen":1137,"ink":1138,"bie":1139,"010":1140,"uz":1141,"mag":1142,"terug":1143,"dienst":1144,"Leeuw":1145,"ni":1146,"ta":1147,"aard":1148,"orp":1149,"uid":1150,"opt":1151,"Wij":1152,"alen":1153,"ay":1154,"./":1155,"gramma":1156,"ullen":1157,"vers":1158,"TE":1159,"49":1160,"ts":1161,"pre":1162,"cc":1163,"bla":1164,"mot":1165,"Na":1166,"He":1167,"arm":1168,"leiding":1169,"verl":1170,"bru":1171,"Aan":1172,"zeker":1173,"ov":1174,"spel":1175,"Wil":1176,"bank":1177,"SP":1178,"08":1179,"HE":1180,"gelijk":1181,"aast":1182,"king":1183,"kamer":1184,"oem":1185,"kon":1186,"maal":1187,"mede":1188,"air":1189,"oto":1190,"aas":1191,"dui":1192,"cpm":1193,"zicht":1194,"GE":1195,"olle":1196,"Nederlandse":1197,"bre":1198,"iets":1199,"erde":1200,"hier":1201,"Me":1202,"UW":1203,"TT":1204,"fun":1205,"aart":1206,"mis":1207,"erk":1208,"dio":1209,"bb":1210,"organis":1211,"geld":1212,"VAN":1213,"jan":1214,"AND":1215,"pel":1216,"goede":1217,"48":1218,"so":1219,"orgen":1220,"kinder":1221,"Die":1222,"sche":1223,"wereld":1224,"Ber":1225,"okt":1226,"nation":1227,"nemen":1228,"rood":1229,"HO":1230,"film":1231,"volgens":1232,"BB":1233,"250":1234,"aad":1235,"eds":1236,"II":1237,"qu":1238,"port":1239,"pi":1240,"één":1241,"81":1242,"!!":1243,"toen":1244,"stre":1245,"zaterdag":1246,"01":1247,"besl":1248,"waren":1249,"kre":1250,"Leeuwar":1251,"Ze":1252,"sy":1253,"extra":1254,"aris":1255,"ief":1256,"ME":1257,"fo":1258,"formatie":1259,"oud":1260,"stelling":1261,"sland":1262,"ragen":1263,"iv":1264,"partij":1265,"SE":1266,"pres":1267,"ruk":1268,"nem":1269,"bi":1270,"inde":1271,"jaren":1272,"hele":1273,"bak":1274,"kop":1275,"BE":1276,"kelijk":1277,"To":1278,"if":1279,"regel":1280,"amp":1281,"urn":1282,"pri":1283,"Rot":1284,"gisteren":1285,"atis":1286,"volgen":1287,"komst":1288,"dige":1289,"oog":1290,"lub":1291,"dere":1292,"omdat":1293,"ids":1294,"beeld":1295,"kort":1296,"Uit":1297,"trek":1298,"aantal":1299,"oort":1300,"verd":1301,"glas":1302,"52":1303,"ere":1304,"eerd":1305,"ach":1306,"aring":1307,"procent":1308,"64":1309,"werken":1310,"ann":1311,"blauw":1312,"63":1313,"mat":1314,"jr":1315,"zig":1316,"Amerikaanse":1317,"OS":1318,"strijd":1319,"Post":1320,"Opel":1321,"roe":1322,"kerk":1323,"toch":1324,"gul":1325,"GR":1326,"eert":1327,"boek":1328,"ess":1329,"lucht":1330,"ton":1331,"keu":1332,"ti":1333,"heer":1334,"68":1335,"leden":1336,"vre":1337,"mei":1338,"Auto":1339,"79":1340,"41":1341,"1990":1342,"slecht":1343,"minister":1344,"metall":1345,"maat":1346,"ban":1347,"speel":1348,"NE":1349,"programma":1350,"Ford":1351,",-.":1352,"laten":1353,"zorg":1354,"entie":1355,"laatste":1356,"VW":1357,"veren":1358,"gebie":1359,"uni":1360,"53":1361,"gew":1362,"tem":1363,"rond":1364,"zullen":1365,"gesl":1366,"stuk":1367,"apr":1368,"BM":1369,"vanaf":1370,"CHT":1371,"1e":1372,"bad":1373,"AB":1374,"wed":1375,"comm":1376,"stu":1377,"lij":1378,"ans":1379,"meis":1380,"bele":1381,"middel":1382,"ern":1383,"OOR":1384,"Pro":1385,"rijzen":1386,"div":1387,"raak":1388,"rol":1389,"boven":1390,"berg":1391,"AD":1392,"markt":1393,"69":1394,"speci":1395,"IC":1396,"ket":1397,"SCH":1398,"aliteit":1399,"fr":1400,"iging":1401,"El":1402,"Nieuws":1403,"Den":1404,"62":1405,"ill":1406,",\"\"":1407,"ina":1408,"grond":1409,"Leeuwarden":1410,"haal":1411,"how":1412,"terdam":1413,"xe":1414,"groep":1415,"jul":1416,".'":1417,"willen":1418,"akt":1419,"water":1420,"ssen":1421,"57":1422,"raad":1423,"Zo":1424,"aldus":1425,"huur":1426,"Lu":1427,"ry":1428,"OP":1429,"Rotterdam":1430,"Com":1431,"aire":1432,"ERS":1433,"echter":1434,"54":1435,"pt":1436,"kunt":1437,"dire":1438,"zaken":1439,"produ":1440,"kende":1441,"che":1442,"etc":1443,"EK":1444,"inst":1445,"ijd":1446,"059":1447,"gere":1448,"sk":1449,"AK":1450,"Dies":1451,"sex":1452,"1991":1453,"oos":1454,"centrum":1455,"Se":1456,"hol":1457,"bren":1458,"jar":1459,"teur":1460,"034":1461,"56":1462,"aange":1463,"Zuid":1464,"Diesel":1465,"UN":1466,"genomen":1467,"kent":1468,"ende":1469,"tijdens":1470,"plan":1471,"',":1472,"verb":1473,"beste":1474,"tien":1475,"amer":1476,"deling":1477,"enkele":1478,"Je":1479,"ich":1480,"51":1481,"stellen":1482,"oot":1483,"tt":1484,"ondag":1485,"Hol":1486,"ore":1487,"olf":1488,"HA":1489,"pak":1490,"Mer":1491,"geval":1492,"Volgens":1493,"sta":1494,"ikt":1495,"120":1496,"ong":1497,"weten":1498,"amb":1499,"pas":1500,"anc":1501,"59":1502,"nd":1503,"gulden":1504,"gelegen":1505,"brie":1506,"voet":1507,"ner":1508,"zwart":1509,"kwam":1510,"73":1511,"inge":1512,"Gr":1513,"iz":1514,"rel":1515,"pos":1516,"ler":1517,"ate":1518,"Ren":1519,"eter":1520,"hui":1521,"ice":1522,"72":1523,"vrijdag":1524,"AC":1525,"gemaakt":1526,"ure":1527,"jo":1528,"78":1529,"74":1530,"anders":1531,"hen":1532,"AUTO":1533,"RU":1534,"bare":1535,"steeds":1536,"ontw":1537,"GT":1538,"deren":1539,"61":1540,"achten":1541,"grijs":1542,"Om":1543,"hi":1544,"alles":1545,"gebruik":1546,"blijven":1547,"lijke":1548,"enz":1549,"58":1550,"yn":1551,"Frie":1552,"vinden":1553,"Dit":1554,"belan":1555,"its":1556,"proble":1557,"tweede":1558,"AS":1559,"zie":1560,"BMW":1561,"vraag":1562,"conc":1563,"informatie":1564,"Is":1565,"autom":1566,"bere":1567,"gebied":1568,"zegt":1569,"RI":1570,"amil":1571,"300":1572,"person":1573,"vri":1574,"vast":1575,"anten":1576,"ba":1577,"nt":1578,"kinderen":1579,"mij":1580,"vé":1581,"Di":1582,"aap":1583,"mon":1584,"raagd":1585,"Her":1586,"wijs":1587,"natuur":1588,"Kl":1589,"vorm":1590,"centr":1591,"onds":1592,"lem":1593,"ENT":1594,"mcl":1595,"schade":1596,"Ad":1597,"vent":1598,"Noord":1599,"bekend":1600,"illen":1601,"otel":1602,"eig":1603,"volle":1604,"050":1605,"keur":1606,"eind":1607,"lei":1608,"schrij":1609,"CL":1610,"oens":1611,".)":1612,"klas":1613,"zoals":1614,"minder":1615,"reg":1616,"top":1617,"DI":1618,"ooit":1619,"Au":1620,"^^^^":1621,"bestuur":1622,"gang":1623,"gelopen":1624,"wen":1625,"76":1626,"Cor":1627,"actie":1628,"zaak":1629,"vangen":1630,"ty":1631,"\"\"\"\"":1632,"zoeken":1633,"delijke":1634,"werden":1635,"vijf":1636,"let":1637,"log":1638,"Adam":1639,"kn":1640,"prijzen":1641,"STER":1642,"Over":1643,"via":1644,"dis":1645,"ka":1646,"VE":1647,"1992":1648,"verk":1649,"inds":1650,"WE":1651,"maandag":1652,"grijk":1653,"krijgen":1654,"DAM":1655,"car":1656,"ANT":1657,"150":1658,"tje":1659,"gra":1660,"zei":1661,"publ":1662,"num":1663,"und":1664,"tr":1665,"lief":1666,"half":1667,"——":1668,"BV":1669,"club":1670,"kantoor":1671,"vindt":1672,"onderzoek":1673,"oude":1674,"school":1675,"veld":1676,"igheid":1677,"verkoop":1678,"olen":1679,"uitge":1680,"vens":1681,"woor":1682,"900":1683,"vrouwen":1684,"Ste":1685,"RIJ":1686,"Oo":1687,"US":1688,"gemeente":1689,"Tur":1690,"Ger":1691,"hul":1692,"loop":1693,"018":1694,"aug":1695,"Lim":1696,"Door":1697,"Inter":1698,"altijd":1699,"ame":1700,"\"\".":1701,"cre":1702,"tech":1703,"MM":1704,"lijn":1705,"Europe":1706,"058":1707,"HU":1708,"ident":1709,"jarige":1710,"out":1711,"jj":1712,"spra":1713,"Engel":1714,"rift":1715,"Hoo":1716,"est":1717,"reis":1718,"aaf":1719,"mr":1720,"elkaar":1721,"Par":1722,"ontwik":1723,"conom":1724,"ob":1725,"werkt":1726,"Car":1727,"Har":1728,"mak":1729,"ow":1730,"ruimte":1731,"Pr":1732,"Deze":1733,"zoekt":1734,"Sport":1735,"si":1736,"isten":1737,"teken":1738,"rijk":1739,"Vr":1740,"veen":1741,"reger":1742,"kosten":1743,"ting":1744,"igen":1745,"ument":1746,"bure":1747,"los":1748,"uziek":1749,"Ko":1750,"zeg":1751,"spro":1752,"ruil":1753,"Ma":1754,"71":1755,"ijs":1756,"uss":1757,"for":1758,"Bl":1759,"baan":1760,"Su":1761,"zondag":1762,"CO":1763,"maakt":1764,"punt":1765,"Ned":1766,"kennis":1767,"voort":1768,"verder":1769,"fa":1770,"Zw":1771,"vooral":1772,"zwaar":1773,"visie":1774,"paar":1775,"beur":1776,"erg":1777,"lingen":1778,"gesteld":1779,"belangrijk":1780,"bas":1781,"onderdag":1782,"ieke":1783,"gebouw":1784,"nodig":1785,"340":1786,"Zij":1787,"keuken":1788,"••":1789,"tuin":1790,"Li":1791,"stij":1792,"LO":1793,"produkt":1794,"verz":1795,"LA":1796,"tig":1797,"leeft":1798,"serv":1799,"Ter":1800,"rag":1801,"VO":1802,"thuis":1803,"bar":1804,"motor":1805,"gegeven":1806,"kracht":1807,"app":1808,"verse":1809,"Heerlen":1810,"eerde":1811,"want":1812,"tro":1813,"room":1814,"igde":1815,"verwacht":1816,"colle":1817,"maak":1818,"fi":1819,"woning":1820,"aravan":1821,"zitter":1822,"mooi":1823,"lever":1824,"KE":1825,"fax":1826,"mand":1827,"inig":1828,"druk":1829,"elekt":1830,"sh":1831,"ject":1832,"schui":1833,"daag":1834,"ys":1835,"Ra":1836,"orte":1837,"luxe":1838,"som":1839,"zend":1840,"ijna":1841,"023":1842,"positie":1843,"gevraagd":1844,"wijk":1845,"model":1846,"ieder":1847,"ën":1848,"oel":1849,"101":1850,"ager":1851,"ooi":1852,"enige":1853,"Ex":1854,"aler":1855,"West":1856,"mp":1857,"Nu":1858,"blad":1859,"gratis":1860,"fen":1861,"gehouden":1862,"Wat":1863,"geleden":1864,"ps":1865,"Cent":1866,"cor":1867,"har":1868,"niets":1869,"zer":1870,"1989":1871,"itt":1872,"slechts":1873,"itu":1874,"nemers":1875,"winkel":1876,"MB":1877,"zaam":1878,"ly":1879,"juni":1880,"schapp":1881,"Man":1882,"weet":1883,"zak":1884,"mooie":1885,"JE":1886,"SV":1887,"landse":1888,"vallen":1889,"lid":1890,"houd":1891,"wa":1892,"vele":1893,"190":1894,"langs":1895,"ieu":1896,"doel":1897,"vang":1898,"verkl":1899,"veil":1900,"maanden":1901,"zil":1902,"waarin":1903,"rek":1904,"Limburg":1905,"INGEN":1906,"chten":1907,"TW":1908,"ieren":1909,"LAND":1910,"sub":1911,"ving":1912,"mi":1913,"1993":1914,",»":1915,"post":1916,"weken":1917,"Bre":1918,"lopen":1919,"adres":1920,"Ant":1921,"Twee":1922,"maand":1923,"raagt":1924,"dy":1925,"MO":1926,"hulp":1927,"Inr":1928,"elijks":1929,"029":1930,"bureau":1931,"Co":1932,"vlie":1933,"vaar":1934,"huizen":1935,"anci":1936,"koers":1937,"hy":1938,"afgelopen":1939,"Kerk":1940,"ning":1941,"'.":1942,"organisatie":1943,"Pa":1944,"oensdag":1945,"ORT":1946,"beter":1947,"direc":1948,"Or":1949,"po":1950,"wedstrijd":1951,"voorzitter":1952,"don":1953,"wie":1954,"nieuws":1955,"werking":1956,"bedrijven":1957,"ichting":1958,"rokken":1959,"clus":1960,"donderdag":1961,"staande":1962,"nationale":1963,"tele":1964,"bijna":1965,"belang":1966,"telefoon":1967,"RT":1968,"Bra":1969,"groen":1970,"fer":1971,"Ru":1972,"ervaring":1973,"zes":1974,"NOS":1975,"contact":1976,"AAR":1977,"weinig":1978,"350":1979,"rust":1980,"Europa":1981,"Fi":1982,"Bos":1983,"bep":1984,"morgen":1985,"voorbeeld":1986,"130":1987,"acc":1988,"nummer":1989,"ung":1990,"meisjes":1991,"insdag":1992,"meter":1993,"ime":1994,"zelfs":1995,"amilie":1996,"''":1997,"ein":1998,"oper":1999,"cret":2000,"2e":2001,"april":2002,"Duitsland":2003,"Belg":2004,"klasse":2005,"ica":2006,"Onder":2007,"volg":2008,"eerst":2009,"Tele":2010,"beh":2011,"opleiding":2012,"hn":2013,"hadden":2014,"aars":2015,"Golf":2016,"UM":2017,"sep":2018,"slaap":2019,"Min":2020,"geving":2021,"bekr":2022,"Isra":2023,"Hoe":2024,"comp":2025,"appar":2026,"Duitse":2027,"stem":2028,"vragen":2029,"landen":2030,"nacht":2031,"ian":2032,"jonge":2033,"steun":2034,"Mo":2035,"La":2036,"ja":2037,"liet":2038,"inger":2039,"Bar":2040,"alis":2041,"nl":2042,"ID":2043,"econom":2044,"1988":2045,"Haag":2046,"ijkt":2047,"zelfde":2048,"ontwikkel":2049,"middag":2050,"Autom":2051,"vestig":2052,"punten":2053,"SM":2054,"330":2055,"Dr":2056,"th":2057,"regering":2058,"400":2059,"\\\\":2060,"name":2061,"wijl":2062,"-,":2063,"mom":2064,"vader":2065,"rein":2066,"bert":2067,"ële":2068,"naam":2069,"aller":2070,"bericht":2071,"use":2072,"dak":2073,"jui":2074,"gedaan":2075,"blijft":2076,"ator":2077,"show":2078,"halen":2079,"hil":2080,"Ho":2081,"kap":2082,"leeftijd":2083,"Volvo":2084,"iteiten":2085,"Postbus":2086,"pioen":2087,"Hu":2088,"kte":2089,"022":2090,"duidelijk":2091,"kwaliteit":2092,"NL":2093,"nooit":2094,"bezoek":2095,"voel":2096,"dec":2097,"spraak":2098,"sol":2099,"uari":2100,"ld":2101,"krijgt":2102,"ws":2103,"ffe":2104,"Oost":2105,"juli":2106,"070":2107,"Land":2108,"klein":2109,"basis":2110,"ël":2111,"anden":2112,"gesloten":2113,"foto":2114,"reken":2115,"icit":2116,"derde":2117,"ets":2118,"mel":2119,"zetten":2120,"Af":2121,"Spe":2122,"meest":2123,"persoon":2124,"uiter":2125,"commiss":2126,"best":2127,"esse":2128,"Esc":2129,"igd":2130,"ht":2131,"Ital":2132,"woensdag":2133,"KER":2134,"president":2135,"IM":2136,"later":2137,"volgende":2138,"Dan":2139,"vaart":2140,"kleine":2141,"cedes":2142,"brengen":2143,"atief":2144,"Hel":2145,"zin":2146,"seiz":2147,"moest":2148,"Telefoon":2149,"Kon":2150,"rachten":2151,"geheel":2152,"Uw":2153,"fan":2154,"geeft":2155,"ijken":2156,"Wer":2157,"ick":2158,"uil":2159,"1000":2160,"rug":2161,"KO":2162,"weest":2163,"lin":2164,"heen":2165,"TEL":2166,"naast":2167,"hog":2168,"Han":2169,"Cit":2170,"EG":2171,"ota":2172,"muziek":2173,"bin":2174,"maart":2175,"brand":2176,"leer":2177,"privé":2178,"dinsdag":2179,"Mercedes":2180,"prof":2181,"0215":2182,"plaatsen":2183,"TS":2184,"velgen":2185,"mal":2186,"geweest":2187,"TER":2188,"ijnen":2189,"voorzien":2190,"kampioen":2191,"ober":2192,"hard":2193,"105":2194,"schrift":2195,"red":2196,"ramen":2197,"zee":2198,"sf":2199,"reden":2200,"sing":2201,"ium":2202,"doet":2203,"Afl":2204,"boe":2205,"323":2206,"houdt":2207,"sinds":2208,"advert":2209,"Del":2210,"1987":2211,"Escort":2212,"west":2213,"diesel":2214,"BER":2215,"rist":2216,"MAN":2217,"moment":2218,"ante":2219,"meester":2220,"AF":2221,"januari":2222,"-\"":2223,"hr":2224,"kleur":2225,"110":2226,"pk":2227,"ciale":2228,"ogen":2229,"TV":2230,"dorp":2231,"macht":2232,"arbe":2233,"kans":2234,"....":2235,"KEN":2236,"up":2237,"moeder":2238,"CAR":2239,"ree":2240,"graaf":2241,"Mid":2242,"kil":2243,"Ben":2244,"Haar":2245,"rap":2246,"verschillen":2247,"-^":2248,"seizoen":2249,"111":2250,"compl":2251,"BTW":2252,"honder":2253,"financ":2254,"ruis":2255,"IP":2256,"ao":2257,"azine":2258,"102":2259,"Kade":2260,"ris":2261,"cel":2262,"train":2263,"^^^":2264,"hof":2265,"GEN":2266,"urnaal":2267,"gebracht":2268,"groei":2269,"mers":2270,"scher":2271,"spelen":2272,"boden":2273,"team":2274,"opge":2275,"dubb":2276,"Rena":2277,"zouden":2278,"Veen":2279,"zitten":2280,"Ou":2281,"kunst":2282,"zeggen":2283,"Per":2284,"mogen":2285,"ligt":2286,"vij":2287,"stap":2288,"KA":2289,"Israël":2290,"elke":2291,"chter":2292,"103":2293,"grootste":2294,"problemen":2295,"Sl":2296,"leid":2297,"Tot":2298,"vorig":2299,"\"■":2300,"Veren":2301,"eest":2302,"Kadett":2303,"sa":2304,"garantie":2305,"mnd":2306,"bete":2307,"Renault":2308,"voetbal":2309,"NV":2310,"vakantie":2311,"aling":2312,"oktober":2313,"\"„":2314,"diverse":2315,"Cur":2316,"Ha":2317,"hotel":2318,"UIT":2319,"kwart":2320,"reda":2321,"metallic":2322,"VV":2323,"MAR":2324,"ering":2325,"dg":2326,"brief":2327,"Vraag":2328,"verzeker":2329,"techn":2330,"Utre":2331,"-\"\"":2332,"Cl":2333,"125":2334,"hon":2335,"gels":2336,"begin":2337,"diep":2338,"ollar":2339,"hoven":2340,"sj":2341,"pot":2342,"oorlog":2343,"Europese":2344,"ages":2345,"1994":2346,"mans":2347,"kker":2348,"eiden":2349,"cv":2350,"winst":2351,"eil":2352,"Hen":2353,"600":2354,"beschik":2355,"geot":2356,"_____":2357,"Jap":2358,"directeur":2359,"Gel":2360,"Utrecht":2361,"older":2362,"kreeg":2363,"ries":2364,"Peu":2365,"ijen":2366,"tember":2367,"tv":2368,"dre":2369,"rio":2370,"ieve":2371,"Dag":2372,"CE":2373,"Pl":2374,"vriend":2375,"gespre":2376,"elektr":2377,"orig":2378,"ico":2379,"beleid":2380,",-;":2381,"personeel":2382,"neem":2383,"sto":2384,"vi":2385,"mond":2386,"duur":2387,"eerder":2388,"gelegenheid":2389,"uro":2390,"tw":2391,"ack":2392,"wj":2393,"halve":2394,"fab":2395,"mannen":2396,"Pri":2397,"Rom":2398,"gekomen":2399,"veau":2400,"aand":2401,"All":2402,"aald":2403,"kamers":2404,"ene":2405,"Vrij":2406,"NIE":2407,"025":2408,"FC":2409,"cie":2410,"radio":2411,"krant":2412,"uten":2413,"Peugeot":2414,"017":2415,"dering":2416,"vat":2417,"\"•":2418,"iers":2419,"wol":2420,"middels":2421,"meld":2422,"perio":2423,"sluiten":2424,"afdeling":2425,"Alle":2426,".»":2427,"ny":2428,"DAG":2429,"cond":2430,"antwoor":2431,"sal":2432,"***":2433,"september":2434,"Foto":2435,"Prijs":2436,"Jon":2437,"enten":2438,"kamp":2439,"Pol":2440,"kers":2441,"Men":2442,"SL":2443,"Turbo":2444,"UT":2445,"Vl":2446,"OE":2447,"waarde":2448,"Gar":2449,"dollar":2450,"fc":2451,"slot":2452,"ploeg":2453,"ember":2454,"issan":2455,"meu":2456,"toil":2457,"205":2458,"VOOR":2459,"lieve":2460,"AV":2461,"104":2462,"belast":2463,"jet":2464,"IES":2465,"wezen":2466,"nel":2467,"opend":2468,"digen":2469,"oemde":2470,"secret":2471,"resp":2472,"leu":2473,"prem":2474,"geh":2475,"Th":2476,"direct":2477,"gebeur":2478,"gewoon":2479,"mach":2480,"dou":2481,"vaak":2482,"cces":2483,"bieden":2484,"dia":2485,"Wie":2486,"::":2487,"heids":2488,"wi":2489,"oemen":2490,"olog":2491,"1986":2492,"STE":2493,"groe":2494,"Serv":2495,"805":2496,"rechter":2497,"Fiat":2498,"Maz":2499,"ama":2500,"mber":2501,"Nederlands":2502,"komende":2503,"offic":2504,"oep":2505,"ziet":2506,"Con":2507,"wagen":2508,"provin":2509,"iez":2510,"voerd":2511,"terwijl":2512,"laag":2513,"lement":2514,"urant":2515,"geveer":2516,"december":2517,"GA":2518,"pra":2519,"buur":2520,"vd":2521,"gas":2522,"ctor":2523,"Friesland":2524,"ips":2525,"rom":2526,"gezet":2527,"Noor":2528,"rit":2529,"Sc":2530,"________________":2531,"Fl":2532,"nove":2533,"ffen":2534,"325":2535,"moeil":2536,"abin":2537,"toekomst":2538,"kregen":2539,"bwj":2540,"zat":2541,"ustus":2542,"mens":2543,"Nissan":2544,"Mon":2545,"geren":2546,"Boven":2547,"Maast":2548,"Kamer":2549,"vlucht":2550,"MER":2551,"publiek":2552,"result":2553,"war":2554,"hart":2555,"fs":2556,"project":2557,"rik":2558,"maakte":2559,"vond":2560,"dood":2561,"IA":2562,"betre":2563,"stond":2564,"verander":2565,"aanwe":2566,"TA":2567,"familie":2568,"lit":2569,"geluk":2570,"ept":2571,"9l":2572,"fel":2573,"roeg":2574,"bond":2575,"by":2576,"ille":2577,"onne":2578,"bent":2579,"Wel":2580,"zieken":2581,"Open":2582,"Maastricht":2583,"rouwen":2584,"onda":2585,"LEN":2586,"meisje":2587,"SPE":2588,"vertel":2589,"soort":2590,"functie":2591,"augustus":2592,"VEN":2593,"dingen":2594,"alist":2595,"Ke":2596,"GRA":2597,"mmmm":2598,"moeilijk":2599,"Heeren":2600,"pap":2601,"tran":2602,"blijkt":2603,"succes":2604,"Niet":2605,"030":2606,"schoon":2607,"gg":2608,"hoek":2609,"Wit":2610,"ette":2611,"zom":2612,"schijn":2613,"vandaag":2614,"niveau":2615,"ete":2616,"haven":2617,"Mazda":2618,"Station":2619,"slagen":2620,"ters":2621,"schau":2622,"rest":2623,"beide":2624,".).":2625,"wilde":2626,"verkeer":2627,"bod":2628,"LI":2629,"cm":2630,"mass":2631,"Mart":2632,"eo":2633,"start":2634,"stru":2635,"uig":2636,"denken":2637,"syste":2638,"werkers":2639,"allen":2640,"hout":2641,"mini":2642,"gegaan":2643,"Du":2644,"spie":2645,"arte":2646,"erend":2647,"wem":2648,"service":2649,"periode":2650,"ieten":2651,"dra":2652,"november":2653,"vraagt":2654,"yen":2655,"atieve":2656,"Hans":2657,"Nieuwe":2658,"aken":2659,"Mak":2660,"kaart":2661,"verlen":2662,"PAR":2663,"rei":2664,"pa":2665,"stri":2666,"curs":2667,"vorige":2668,"ollicit":2669,").\"":2670,"Zijn":2671,"schuifd":2672,"Bed":2673,"wegen":2674,"ziek":2675,"sterk":2676,"\"(":2677,"pass":2678,"maatschapp":2679,"Waar":2680,"hoogte":2681,"natuurlijk":2682,"stuurbekr":2683,"proc":2684,"SU":2685,"hoge":2686,"rs":2687,"verschillende":2688,"vanuit":2689,"toilet":2690,"straf":2691,"zilver":2692,"ongeveer":2693,"AAN":2694,"horen":2695,"airco":2696,"reven":2697,"iën":2698,"nood":2699,"John":2700,"dames":2701,"Hoofd":2702,"Sov":2703,"140":2704,"uigen":2705,"gevallen":2706,"DO":2707,"gezel":2708,"pat":2709,"magazine":2710,"IJK":2711,"dealer":2712,"itel":2713,"gek":2714,"gezien":2715,"orn":2716,"schil":2717,"begon":2718,"voldoen":2719,"que":2720,"schappen":2721,"richting":2722,"korte":2723,"graag":2724,"||":2725,"ugd":2726,"fra":2727,"anen":2728,"STRA":2729,"lange":2730,"Un":2731,"zocht":2732,"HB":2733,"rade":2734,"milieu":2735,"stof":2736,"Sex":2737,"tjes":2738,"huid":2739,"verband":2740,"lijkt":2741,"RTL":2742,"Nij":2743,"*^":2744,"geï":2745,"Staten":2746,"voerder":2747,"spr":2748,"leider":2749,"bez":2750,"eis":2751,"Meer":2752,"totaal":2753,"nes":2754,"Fin":2755,"standig":2756,")\"":2757,"vies":2758,"So":2759,"ue":2760,"Piet":2761,"wo":2762,"Mil":2763,"gevr":2764,"450":2765,"****":2766,"mming":2767,"Citro":2768,"106":2769,"Bro":2770,"VS":2771,"IER":2772,"Rijk":2773,"Heerenveen":2774,"HAAG":2775,"ZE":2776,"aarde":2777,"TEN":2778,"beurs":2779,"800":2780,"Honda":2781,"rente":2782,"Jong":2783,"milit":2784,"Phil":2785,"band":2786,"overleg":2787,"EX":2788,"ras":2789,"honderd":2790,"info":2791,"ANP":2792,"miljard":2793,"gede":2794,"richten":2795,"New":2796,"ull":2797,"fonds":2798,"Journaal":2799,"B9":2800,"NO":2801,"SC":2802,"Paul":2803,"garage":2804,"ÊÊ":2805,"versn":2806,"ocht":2807,"aalde":2808,"situ":2809,"oof":2810,"one":2811,"gun":2812,"onderwijs":2813,"oma":2814,"040":2815,"ction":2816,"240":2817,"toer":2818,"'\"\"":2819,"uitvoer":2820,"manier":2821,"ret":2822,"din":2823,"commissie":2824,"Pvd":2825,"Willem":2826,"daad":2827,"As":2828,"bbel":2829,"Info":2830,"issen":2831,"115":2832,"Wor":2833,"Bur":2834,"oppen":2835,"anneer":2836,"mogelijkheden":2837,"STERDAM":2838,"afel":2839,"midden":2840,"spoed":2841,"ute":2842,"TR":2843,"bruari":2844,"Bru":2845,"verantwoor":2846,"broek":2847,"PvdA":2848,"liggen":2849,"wacht":2850,"behandel":2851,"werkzaam":2852,"626":2853,"Radio":2854,"OOP":2855,"laan":2856,"Can":2857,"KL":2858,"Do":2859,"Mit":2860,"financi":2861,"ieel":2862,"partijen":2863,"Audi":2864,"ruime":2865,"zing":2866,"ase":2867,"AMSTERDAM":2868,"lag":2869,"Holland":2870,"Of":2871,"Si":2872,"erie":2873,"GEL":2874,"Berg":2875,"bereid":2876,"mit":2877,"menten":2878,"2000":2879,"BK":2880,"Win":2881,"uel":2882,"bung":2883,"februari":2884,"merk":2885,"verslag":2886,"andid":2887,"responden":2888,"280":2889,"zeven":2890,"heren":2891,"biedt":2892,"neemt":2893,"gewon":2894,"ng":2895,"inmiddels":2896,"nauw":2897,"streek":2898,"deur":2899,"PE":2900,"Franse":2901,"lok":2902,"cten":2903,"camp":2904,"wijze":2905,"bijzonder":2906,"zwem":2907,"olie":2908,"bezig":2909,"bestaat":2910,"aanwezig":2911,"trekken":2912,"sproken":2913,"Eer":2914,"excl":2915,"Peter":2916,"Eind":2917,"Val":2918,"bor":2919,"dank":2920,"verde":2921,"waarbij":2922,"comple":2923,"opd":2924,"160":2925,"igens":2926,"CD":2927,"bestaan":2928,"rac":2929,"kost":2930,"bos":2931,"wan":2932,"rak":2933,"politieke":2934,"imaal":2935,"DEL":2936,"Japan":2937,"9O":2938,"boot":2939,"2x":2940,"wiss":2941,"indust":2942,"BR":2943,"Em":2944,"eten":2945,"teerd":2946,"helemaal":2947,"Toy":2948,"gebruikt":2949,"voeren":2950,"helft":2951,"handen":2952,"Jac":2953,"vaste":2954,"gemen":2955,"station":2956,"ktie":2957,"LEE":2958,"*\"\"":2959,"ric":2960,"NA":2961,"Mi":2962,"afge":2963,"krijk":2964,"ada":2965,"redactie":2966,"verkiez":2967,"Vries":2968,"geworden":2969,"ace":2970,"prakt":2971,"ific":2972,"ronde":2973,"moder":2974,"park":2975,"strijden":2976,"\"\"\"":2977,"At":2978,"nwe":2979,"mann":2980,"Ind":2981,"max":2982,"dem":2983,"dipl":2984,"bon":2985,"Kle":2986,"vest":2987,"VR":2988,"werker":2989,"Bon":2990,"hang":2991,"teren":2992,"kijken":2993,"Aru":2994,"zowel":2995,"ud":2996,"IG":2997,"Kom":2998,"CDA":2999,"isse":3000,"kabin":3001,".-.":3002,"etje":3003,"alarm":3004,"acties":3005,"PA":3006,"iger":3007,"-.":3008,"230":3009,"Drachten":3010,"pag":3011,"uitv":3012,"Ooster":3013,"sluit":3014,"valt":3015,"verdien":3016,"studen":3017,"vlak":3018,"______":3019,"kont":3020,"ouders":3021,"1985":3022,"ZEN":3023,"bat":3024,"Lin":3025,"Geen":3026,"juist":3027,"Pers":3028,"cument":3029,"type":3030,"Hoog":3031,"B7":3032,"Fe":3033,"tegenwoord":3034,"Col":3035,"700":3036,"berei":3037,"geopend":3038,"sfeer":3039,"jeugd":3040,"allemaal":3041,"waarden":3042,"WER":3043,"gelegd":3044,"Reg":3045,"oup":3046,"vijft":3047,"Dam":3048,"Ten":3049,"onde":3050,"einde":3051,"Frans":3052,"opnieuw":3053,"Verenigde":3054,"HH":3055,"Tevens":3056,"Dijk":3057,"stelde":3058,"eet":3059,"Vis":3060,"OU":3061,"mater":3062,"merken":3063,"rekening":3064,"uele":3065,"DR":3066,"Groot":3067,"VN":3068,"Tweede":3069,"oemd":3070,"ssel":3071,"Vo":3072,"nov":3073,"NIEUW":3074,"vie":3075,"woners":3076,"Bovendien":3077,"Kar":3078,"ije":3079,"gevaar":3080,"\"'":3081,"Mich":3082,"kens":3083,"107":3084,"WK":3085,"Part":3086,"vrien":3087,"old":3088,"ln":3089,"waarvan":3090,"Sy":3091,"EM":3092,"Toen":3093,",,":3094,"Ka":3095,"wind":3096,"winnen":3097,"Hier":3098,"ONINGEN":3099,"useum":3100,"bellen":3101,"Pres":3102,"respondent":3103,"Ab":3104,"Qu":3105,"feest":3106,"Brit":3107,"ges":3108,"kie":3109,"namen":3110,"negen":3111,"IK":3112,"Toyota":3113,"Lo":3114,"Gen":3115,"zenden":3116,"akker":3117,"gesprek":3118,"iedereen":3119,"Sovjet":3120,"parlement":3121,"België":3122,"Autobedrijf":3123,"Ja":3124,"Fax":3125,"genoeg":3126,"niek":3127,"minuten":3128,"treden":3129,"180":3130,"cult":3131,"verga":3132,"omgeving":3133,"prima":3134,"lex":3135,"uitgeb":3136,"IR":3137,"advertentie":3138,"feit":3139,"'/":3140,"Want":3141,"puter":3142,"CA":3143,"terrein":3144,"bleek":3145,"Sh":3146,"pracht":3147,"'^":3148,"ION":3149,"Sne":3150,"draa":3151,"roepen":3152,"220":3153,"boer":3154,"caravan":3155,"schien":3156,"belasting":3157,"iemand":3158,"geze":3159,"keuze":3160,"dom":3161,"time":3162,"beper":3163,"'\"":3164,"Bus":3165,"God":3166,"oorde":3167,"LEM":3168,"betrokken":3169,"Johan":3170,"Citroen":3171,"huidige":3172,"col":3173,"omzet":3174,"STAD":3175,"BEL":3176,"kind":3177,"lijden":3178,"WB":3179,"ign":3180,"bewol":3181,"denk":3182,");":3183,"Hom":3184,"PER":3185,"ondernem":3186,"banden":3187,"eling":3188,"spron":3189,"ise":3190,"namelijk":3191,"Fr":3192,"ekt":3193,"clusief":3194,"sollicit":3195,"Ol":3196,"cijf":3197,"internationale":3198,"113":3199,"son":3200,"LEEUW":3201,"Wal":3202,"betalen":3203,"Pet":3204,"uldig":3205,"HUIS":3206,"gelijke":3207,"zui":3208,"kol":3209,"Club":3210,"vrije":3211,"aagd":3212,"kleuren":3213,"slacht":3214,"aandacht":3215,"vide":3216,"SGR":3217,"vlo":3218,"contro":3219,"Haarlem":3220,"gezond":3221,"termijn":3222,"arbeids":3223,"zeil":3224,"bijvoorbeeld":3225,"cir":3226,"405":3227,"aai":3228,"douche":3229,"cties":3230,"ARDEN":3231,"ustitie":3232,"teerde":3233,"vroe":3234,"lekker":3235,"135":3236,"plannen":3237,"116":3238,"FR":3239,"Sim":3240,"Buiten":3241,"vereniging":3242,"tek":3243,"ziekte":3244,"TD":3245,"ram":3246,"maatregel":3247,"kabinet":3248,"ministerie":3249,"Grote":3250,"overheid":3251,"kwamen":3252,"probleem":3253,"terecht":3254,"our":3255,"óó":3256,"regen":3257,"stellingen":3258,"artik":3259,"kat":3260,"ight":3261,"Oran":3262,"Lan":3263,"Pat":3264,"effe":3265,"Handel":3266,"kilom":3267,"malige":3268,"meen":3269,"titel":3270,"opties":3271,"ph":3272,"elden":3273,"kandid":3274,"316":3275,"span":3276,"super":3277,"dro":3278,"stoff":3279,"dijk":3280,"cu":3281,"OON":3282,"EF":3283,"wintig":3284,"Vand":3285,"Super":3286,"gemene":3287,"bedrag":3288,"voorraad":3289,"meeste":3290,"gener":3291,"ontwikkeling":3292,"uut":3293,"Sal":3294,"systeem":3295,"personen":3296,"BA":3297,"Alleen":3298,"orde":3299,"gaf":3300,"KOOP":3301,"Engelse":3302,"disc":3303,"ash":3304,"fort":3305,"dek":3306,"//":3307,"deed":3308,"apen":3309,"dgn":3310,"114":3311,"situatie":3312,"spelers":3313,"OT":3314,"0250":3315,"CT":3316,"):":3317,"170":3318,"activ":3319,"ieden":3320,"Vi":3321,"iti":3322,"werp":3323,"go":3324,"roep":3325,"WIL":3326,"leggen":3327,"welke":3328,"neer":3329,"scheid":3330,"ork":3331,"GRONINGEN":3332,"cons":3333,"Tra":3334,"IJN":3335,"gi":3336,"ENS":3337,"afhan":3338,"resta":3339,"oplos":3340,"tent":3341,"bedrijfs":3342,"■■■■":3343,"illa":3344,"\"\".\"":3345,"klaar":3346,"Sa":3347,"boom":3348,"BU":3349,"overeen":3350,"install":3351,"dicht":3352,"'-":3353,"Stu":3354,"begele":3355,"erden":3356,"ane":3357,"gevoel":3358,"una":3359,"109":3360,"uld":3361,"ministr":3362,"hl":3363,"riek":3364,"Frankrijk":3365,"elf":3366,"hoop":3367,"Sitt":3368,"jongens":3369,"GOL":3370,"Nederl":3371,"daarom":3372,"Euro":3373,"unt":3374,"*.":3375,"Stad":3376,"verantwoordelijk":3377,"HI":3378,"uitste":3379,"overleden":3380,"zomer":3381,"woordvoerder":3382,"Gem":3383,"Bi":3384,"atische":3385,"inruil":3386,"ernooi":3387,"arch":3388,"woningen":3389,"akk":3390,"financiële":3391,"osl":3392,"por":3393,"contra":3394,"stelt":3395,"ring":3396,"Tij":3397,"gevangen":3398,"Ven":3399,"secretaris":3400,"bevol":3401,"kocht":3402,"speciale":3403,"entatie":3404,"voldoende":3405,"zoveel":3406,"Rijks":3407,"cat":3408,"ishi":3409,"'■":3410,"035":3411,"md":3412,"GP":3413,"televisie":3414,"stat":3415,"Der":3416,"JO":3417,"RK":3418,"Uni":3419,"gever":3420,"antwoord":3421,"gezegd":3422,"kg":3423,"taal":3424,"Bank":3425,"ƒl":3426,"pop":3427,"voc":3428,"Wol":3429,"trekh":3430,"GER":3431,"stereo":3432,"speelfilm":3433,"lijst":3434,"GLX":3435,"politiek":3436,"onderdelen":3437,"buro":3438,"Gor":3439,"HEER":3440,"Ker":3441,"vroeg":3442,"oorden":3443,"werpen":3444,"Boer":3445,"medewerkers":3446,"leger":3447,"leder":3448,"amro":3449,"cur":3450,"economische":3451,"-*":3452,"119":3453,"iële":3454,"lop":3455,".;":3456,"B6":3457,"Mat":3458,"schouw":3459,"provincie":3460,"advis":3461,"aft":3462,"108":3463,"spreken":3464,"eindelijk":3465,"CON":3466,"heek":3467,"bekende":3468,"wagens":3469,"Mitsub":3470,"Don":3471,"sma":3472,"wegens":3473,"aus":3474,"meubel":3475,"lam":3476,"Mag":3477,"124":3478,"gevolg":3479,"zu":3480,"kter":3481,"ontvangen":3482,"mocr":3483,"IV":3484,"kten":3485,"ouder":3486,"bezit":3487,"plecht":3488,"ham":3489,"AA":3490,"ika":3491,"Binnen":3492,"keren":3493,"ald":3494,"collega":3495,"gericht":3496,"wensen":3497,"beheer":3498,"bil":3499,"BED":3500,"arts":3501,"Port":3502,"175":3503,"advies":3504,"offer":3505,"kleding":3506,"kontakt":3507,"BL":3508,"nadat":3509,"Henk":3510,"Oranje":3511,"Assen":3512,"Oosten":3513,"Ur":3514,"anda":3515,"cte":3516,"lui":3517,"046":3518,"pan":3519,"bewolkt":3520,"buitenland":3521,"groter":3522,"elde":3523,"genoot":3524,"last":3525,"enties":3526,"Stichting":3527,"Gra":3528,"HAR":3529,"schip":3530,"loopt":3531,"Aruba":3532,"schilder":3533,"live":3534,"ners":3535,"toon":3536,"iedere":3537,"dezelfde":3538,"eigenlijk":3539,"cass":3540,"houding":3541,"hor":3542,"No":3543,"daarbij":3544,"225":3545,"Verder":3546,"117":3547,"plus":3548,"145":3549,"Dire":3550,"PRO":3551,"stemming":3552,"samenwerking":3553,"middelen":3554,"gevers":3555,"idee":3556,"past":3557,"itter":3558,"steren":3559,"Afr":3560,"Mitsubishi":3561,"Suz":3562,"Koop":3563,"LEEUWARDEN":3564,"lichtingen":3565,"verlies":3566,"gemeester":3567,"vt":3568,"produktie":3569,"korting":3570,"SO":3571,"KT":3572,"overigens":3573,"isme":3574,"ita":3575,"112":3576,"tu":3577,"gre":3578,"plaatsvinden":3579,"zag":3580,"083":3581,"Sur":3582,"haald":3583,"verv":3584,"eisen":3585,"materi":3586,"wonen":3587,"Hil":3588,"lich":3589,"enen":3590,"studie":3591,"betreft":3592,"centrale":3593,"URDER":3594,"echte":3595,"geschikt":3596,"boeken":3597,"abn":3598,"OND":3599,"waarop":3600,"kilometer":3601,"ABS":3602,"leuke":3603,"vervoer":3604,"grens":3605,"wege":3606,"Pas":3607,"DL":3608,"Arn":3609,"gevonden":3610,"Kro":3611,"blik":3612,"Veel":3613,"Water":3614,"las":3615,"leveren":3616,"oegen":3617,"324":3618,"Alfa":3619,"plicht":3620,"alow":3621,"Russ":3622,"Hotel":3623,"ona":3624,"commun":3625,"BI":3626,"rt":3627,"Christ":3628,"speelt":3629,"1500":3630,"ouden":3631,"Cab":3632,"premier":3633,"buurt":3634,"kopen":3635,"ming":3636,"zaal":3637,"aangeboden":3638,"anderen":3639,"hat":3640,"stal":3641,"finale":3642,"veert":3643,"Va":3644,"Sier":3645,"GOLF":3646,"Sedan":3647,"Kam":3648,"aandelen":3649,"aanv":3650,"jong":3651,"END":3652,"donker":3653,"SPEURDER":3654,"daarmee":3655,"vormen":3656,"test":3657,"ochtend":3658,"1984":3659,"wedstrijden":3660,"iaanse":3661,"box":3662,"Kerkrade":3663,"rijden":3664,"industrie":3665,"260":3666,"bewijs":3667,"resultaat":3668,"eist":3669,"Kinder":3670,"probe":3671,"lot":3672,"aanbie":3673,"burger":3674,"matig":3675,"ZO":3676,"norm":3677,"ici":3678,"document":3679,"sluitend":3680,"JJ":3681,"verhaal":3682,"CENT":3683,"JAN":3684,"lock":3685,"begint":3686,"bescher":3687,"ziekenhuis":3688,"ente":3689,"besluit":3690,"krijg":3691,"reizen":3692,"/'":3693,"VEL":3694,"nn":3695,"ABN":3696,"Heu":3697,"overzicht":3698,"gement":3699,"afé":3700,"*'":3701,"staats":3702,"gemak":3703,"kennen":3704,"bron":3705,"Tran":3706,"tar":3707,"ions":3708,"gehe":3709,"Ed":3710,"relatie":3711,"sociale":3712,"controle":3713,"Top":3714,"besloten":3715,"afspraak":3716,"iiii":3717,"Wester":3718,"Som":3719,"euw":3720,"Bouw":3721,"COR":3722,"chem":3723,"Ap":3724,"1600":3725,"voorwaarden":3726,"ino":3727,"onie":3728,"Mos":3729,"123":3730,"werkzaamheden":3731,"Sittard":3732,"EEN":3733,"Bet":3734,"vliegt":3735,"kelijke":3736,"PO":3737,"ines":3738,"houder":3739,"uitgebre":3740,"onderhandel":3741,"internation":3742,"PS":3743,"nabij":3744,"CC":3745,"pakket":3746,"Pe":3747,"rand":3748,"\"\"'":3749,"dagelijks":3750,"bijeen":3751,"ml":3752,"127":3753,".^":3754,"inkl":3755,"Bu":3756,"sje":3757,"fiet":3758,"!!!":3759,"uki":3760,"vou":3761,"Onze":3762,"liter":3763,"hom":3764,"rip":3765,"bleef":3766,"Drent":3767,"126":3768,"ueel":3769,"schijnlijk":3770,"fran":3771,"sprake":3772,"Po":3773,"oorten":3774,"ball":3775,"aans":3776,"oleren":3777,"getint":3778,"administr":3779,"wachten":3780,"Mot":3781,"Huis":3782,"iks":3783,"\"\"^":3784,"twintig":3785,"sych":3786,"Ken":3787,"kwal":3788,"ns":3789,"Wim":3790,"VC":3791,"tafel":3792,"miss":3793,"Raad":3794,"behoe":3795,"Span":3796,"URG":3797,"winnaar":3798,"houders":3799,"meren":3800,"ini":3801,"_______":3802,"anks":3803,"regio":3804,"Ju":3805,"ARA":3806,"OOO":3807,"Tages":3808,"delingen":3809,"INE":3810,"pagina":3811,"iken":3812,"INK":3813,"soms":3814,"Oly":3815,"199":3816,"rustig":3817,"beschouw":3818,"~~":3819,"istische":3820,"betaling":3821,"mor":3822,"not":3823,"wiel":3824,"verra":3825,"ATER":3826,"geref":3827,"duizend":3828,"winter":3829,"leuk":3830,"woorden":3831,"hoger":3832,"chen":3833,"betekent":3834,"Eindhoven":3835,"voed":3836,"cil":3837,"nat":3838,"zorgen":3839,"geweld":3840,"urende":3841,"obl":3842,"bot":3843,"Zaken":3844,"Centr":3845,"geldt":3846,"gave":3847,"CR":3848,"teel":3849,"wanneer":3850,"volledig":3851,"afstand":3852,"Rus":3853,"TRO":3854,"sters":3855,"óór":3856,"dubbel":3857,"Weer":3858,"plein":3859,"Groep":3860,"dient":3861,"Sun":3862,"beetje":3863,"buitenlandse":3864,"liefst":3865,"computer":3866,"cijfers":3867,"dic":3868,"aarten":3869,"ors":3870,"perfe":3871,"rechts":3872,"stral":3873,"Tagesschau":3874,"Fil":3875,"waardoor":3876,"BS":3877,"opdracht":3878,"var":3879,"spraken":3880,"event":3881,"LU":3882,"pand":3883,"heet":3884,"wijzen":3885,"belangrijke":3886,"spann":3887,"Toch":3888,"cap":3889,"dragen":3890,"155":3891,"Brun":3892,"gehad":3893,"mod":3894,"pet":3895,"iler":3896,"oupé":3897,"hete":3898,"Fund":3899,"tevens":3900,"ün":3901,"stichting":3902,"combin":3903,"hoor":3904,"Zie":3905,"MET":3906,"Vandaag":3907,"belangstelling":3908,"hebt":3909,"dieren":3910,"commer":3911,"210":3912,"jongeren":3913,"spannen":3914,"aalf":3915,"ned":3916,"ieven":3917,"doe":3918,"ère":3919,"apart":3920,"Friese":3921,"leiden":3922,"Bol":3923,"THE":3924,"liefde":3925,",'":3926,"fest":3927,"orgd":3928,"gast":3929,"dier":3930,"beweg":3931,"Hy":3932,"326":3933,"voorkomen":3934,"geno":3935,"rem":3936,"wal":3937,"Sneek":3938,"concert":3939,"cab":3940,"akkoord":3941,"compleet":3942,"stukken":3943,"FF":3944,"Amerika":3945,"onen":3946,"stil":3947,"rapport":3948,"maatregelen":3949,"denkt":3950,"322":3951,"brug":3952,"corp":3953,"Centrum":3954,"sier":3955,"329":3956,"koff":3957,"Ara":3958,"slaan":3959,"Stand":3960,"Bedrij":3961,"137":3962,"Ros":3963,"Cap":3964,"kig":3965,"vergr":3966,"verkiezingen":3967,"ƒ6":3968,"Drie":3969,"rubrie":3970,"IO":3971,"Aj":3972,"Suzuki":3973,"207":3974,"geïn":3975,"iering":3976,"ƒ5":3977,"WW":3978,"bouwen":3979,"iddel":3980,"tijden":3981,"trio":3982,"Hou":3983,"Sierra":3984,"daarna":3985,"condoleren":3986,"bungalow":3987,"\"\"*":3988,"telefon":3989,"Gele":3990,"koppel":3991,"Mal":3992,"DU":3993,"opp":3994,"blok":3995,"ionele":3996,"schat":3997,"WA":3998,"lage":3999,"vertegenwoord":4000,"zodat":4001,"LS":4002,"Zeer":4003,"maatschappij":4004,"HET":4005,"129":4006,"waarmee":4007,"igt":4008,"voorstel":4009,"Britse":4010,"werknemers":4011,"groepen":4012,"my":4013,"kou":4014,"_i":4015,"activiteiten":4016,"wn":4017,"Gratis":4018,"ano":4019,"Oude":4020,"fiets":4021,"sele":4022,"vlg":4023,"BEDRIJ":4024,"versiteit":4025,"loon":4026,"kijk":4027,"ain":4028,"0340":4029,"1200":4030,"DES":4031,"verlie":4032,"bereik":4033,"Fam":4034,"ider":4035,"ana":4036,"beginnen":4037,"hoogste":4038,"vuur":4039,"lees":4040,"Unie":4041,"weeke":4042,"Kr":4043,"Nation":4044,"War":4045,"directie":4046,"FO":4047,"daarvan":4048,"voormalige":4049,"nauwelijks":4050,"Maas":4051,"ieur":4052,"Mijn":4053,"stige":4054,"fraa":4055,"Laat":4056,"ANWB":4057,"LT":4058,"goe":4059,"Vel":4060,"dur":4061,"orie":4062,"star":4063,"pens":4064,"levens":4065,"matie":4066,"vaardig":4067,"Let":4068,"produkten":4069,"veiligheid":4070,"ire":4071,"Nog":4072,"Philips":4073,"ses":4074,"studenten":4075,"Tijdens":4076,"geschreven":4077,"gpm":4078,"toernooi":4079,"oven":4080,"beek":4081,"algemeen":4082,"----":4083,"San":4084,"Bou":4085,"SER":4086,"zn":4087,"STA":4088,"oenen":4089,"HER":4090,"enthou":4091,"Frank":4092,"Ton":4093,"begra":4094,"wist":4095,"medewerker":4096,"tl":4097,"hoofdst":4098,"isc":4099,"uitvoering":4100,"ju":4101,"mogelijkheid":4102,"diensten":4103,"Bal":4104,"ius":4105,"Inruil":4106,"ervan":4107,"jur":4108,"ijer":4109,"jou":4110,"tens":4111,"leren":4112,"vergadering":4113,"eigenaar":4114,"oost":4115,"bby":4116,"Natuur":4117,"VEEN":4118,"118":4119,"ress":4120,"Da":4121,"Ba":4122,"033":4123,"NU":4124,"Ti":4125,"195":4126,"uitbre":4127,"vac":4128,"betaal":4129,"Italië":4130,"vóór":4131,"Bosch":4132,"immer":4133,"ontstaan":4134,"Pale":4135,"zame":4136,"ARD":4137,"133":4138,"achtig":4139,"KADE":4140,"kond":4141,"conf":4142,"divisie":4143,"elingen":4144,"Rep":4145,"vreem":4146,"gy":4147,"bevolking":4148,"overlijden":4149,"schrijven":4150,"yl":4151,"4x":4152,"weekend":4153,"soci":4154,"restaurant":4155,"aandeel":4156,"gingen":4157,"Mr":4158,"beelden":4159,"Informatie":4160,"verhuur":4161,"verzorg":4162,"ike":4163,"roy":4164,"acao":4165,"Amro":4166,"langer":4167,"brengt":4168,"PU":4169,"vertrek":4170,"_l":4171,"vind":4172,"aanw":4173,"CI":4174,"gene":4175,"afhankelijk":4176,"zichzelf":4177,"Olymp":4178,"praktijk":4179,"Cal":4180,"sid":4181,"ijden":4182,"herv":4183,"opper":4184,"trainer":4185,"edy":4186,"ival":4187,"speeld":4188,"herin":4189,"ör":4190,"moord":4191,"beroep":4192,"gekregen":4193,"FA":4194,"Martin":4195,"coach":4196,"gebruikte":4197,"ales":4198,"kingen":4199,"It":4200,"Che":4201,"dik":4202,"dienen":4203,"misschien":4204,"geschieden":4205,"vloer":4206,"Groen":4207,"veroor":4208,"erende":4209,"Kun":4210,"volgend":4211,"Vak":4212,"128":4213,"telijke":4214,"itiek":4215,"apparatuur":4216,"urt":4217,"function":4218,"fenis":4219,"Jer":4220,"konden":4221,"psych":4222,"ye":4223,"alisten":4224,"med":4225,"138":4226,"121":4227,"moderne":4228,"elle":4229,"ZW":4230,"geest":4231,"compet":4232,"Grie":4233,"direkt":4234,"Sche":4235,"VOL":4236,"werkelijk":4237,"igh":4238,"Char":4239,"Ham":4240,"assen":4241,"Cont":4242,"twaalf":4243,"SSEN":4244,"meteen":4245,"Rij":4246,"oom":4247,"zoon":4248,"iness":4249,"Weg":4250,"_r":4251,"modellen":4252,"2500":4253,"inci":4254,"perf":4255,"organisaties":4256,"SA":4257,"Live":4258,"beschikbaar":4259,"BAN":4260,"schuw":4261,"650":4262,"Holl":4263,"ls":4264,"Hoek":4265,"1983":4266,"\"\"-\"\"":4267,"pleeg":4268,"850":4269,"üs":4270,"urr":4271,"yk":4272,"gaande":4273,"gebouwd":4274,"Rob":4275,"automaat":4276,"press":4277,"Por":4278,"daarvoor":4279,"165":4280,"waarschijnlijk":4281,"Kok":4282,"spec":4283,"ZU":4284,"ƒ4":4285,"agement":4286,"dcc":4287,"schuifdak":4288,"bloed":4289,"Curacao":4290,"vloed":4291,"Zondag":4292,"schuif":4293,",--":4294,"onbewolkt":4295,"\"\"-":4296,"scholen":4297,"afscheid":4298,"speciaal":4299,"eiland":4300,"ichte":4301,"KADETT":4302,"orme":4303,"zwarte":4304,"Duits":4305,"kro":4306,"Tr":4307,"wijn":4308,"inve":4309,"164":4310,"éé":4311,"ande":4312,"diploma":4313,"prec":4314,"voorkeur":4315,"nieuwstaat":4316,"kum":4317,"BEDRIJF":4318,"hield":4319,"^-":4320,"onderh":4321,"mmm":4322,"day":4323,"044":4324,"bovendien":4325,"speelde":4326,"Mad":4327,"tekst":4328,"Groninger":4329,"weekeinde":4330,"lichte":4331,"185":4332,"Ak":4333,"bepaalde":4334,"Goed":4335,"vn":4336,"HOO":4337,"oepen":4338,"KLM":4339,"gedeel":4340,"Dav":4341,"partic":4342,"Rei":4343,"sprong":4344,"ish":4345,"ount":4346,"LX":4347,"ance":4348,"correspondent":4349,"onderhoud":4350,"mus":4351,"praten":4352,"REN":4353,"vlieg":4354,"helpen":4355,"tegenover":4356,"World":4357,"Kat":4358,"apparte":4359,"mb":4360,"eide":4361,"Austral":4362,"witte":4363,"begonnen":4364,"URS":4365,"stoelen":4366,"badk":4367,"NEDER":4368,"gent":4369,"ESC":4370,"EU":4371,"ergie":4372,"Bor":4373,"KR":4374,"kozen":4375,"polit":4376,"ANVR":4377,"anger":4378,"ONDER":4379,"275":4380,"zware":4381,"vervolgens":4382,"sne":4383,"banken":4384,"*-":4385,"gende":4386,"iere":4387,"360":4388,"°°":4389,"discuss":4390,"Net":4391,"omenteel":4392,"088":4393,"broch":4394,"plaatst":4395,"reek":4396,"llll":4397,"SI":4398,"inr":4399,"waard":4400,"slaapkamers":4401,"oplossing":4402,"zolder":4403,"Daarom":4404,"ambten":4405,"stein":4406,"burgemeester":4407,"voelen":4408,"trouw":4409,"Midden":4410,"Hui":4411,"warm":4412,"Go":4413,"Wereld":4414,"cert":4415,"071":4416,"Privé":4417,"440":4418,"derij":4419,"present":4420,"voorlop":4421,"optreden":4422,"Zee":4423,"gemiddel":4424,"Emmen":4425,"VI":4426,"Luxe":4427,"leed":4428,"School":4429,"bracht":4430,"pakt":4431,"TI":4432,"jaarlijk":4433,"strand":4434,"VA":4435,"banen":4436,"aab":4437,"Joeg":4438,"Russische":4439,"270":4440,"ondanks":4441,"economie":4442,"Fa":4443,"put":4444,"concurr":4445,"INA":4446,"RECHT":4447,"Palest":4448,"NS":4449,"proces":4450,"KS":4451,"Hal":4452,"Caravan":4453,"spiegels":4454,"geschiedenis":4455,"plot":4456,"Ster":4457,"och":4458,"geloof":4459,"repar":4460,"waarna":4461,"genoemde":4462,"ormeer":4463,"imum":4464,"Mul":4465,"PR":4466,"jl":4467,"iem":4468,"Kn":4469,"016":4470,"bewoners":4471,"san":4472,"verzoek":4473,"subsid":4474,"museum":4475,"ervaren":4476,"hoofdstad":4477,"ssum":4478,"vierde":4479,"PSV":4480,"ki":4481,"orium":4482,"viel":4483,"hist":4484,"ESCORT":4485,"oes":4486,"stam":4487,"toege":4488,"nemer":4489,"daagse":4490,"SEX":4491,"ƒ3":4492,"Joegosl":4493,"kundige":4494,"democr":4495,"steen":4496,"video":4497,"Zaterdag":4498,"gisteravond":4499,"Tro":4500,"stuks":4501,"Zwolle":4502,"voordeel":4503,"zier":4504,"Mus":4505,"welkom":4506,"klass":4507,"kaarten":4508,"BURG":4509,"verleden":4510,"agne":4511,"Ajax":4512,"Pan":4513,"bestaande":4514,"wijt":4515,"ferentie":4516,"134":4517,"cursus":4518,"Tech":4519,"adem":4520,"slo":4521,"spo":4522,"NEDERLAND":4523,"spectie":4524,"146":4525,"passen":4526,"hot":4527,"ijke":4528,"vreden":4529,"Jos":4530,"IET":4531,"fens":4532,"sturen":4533,"Irak":4534,"Alles":4535,"Sn":4536,"DM":4537,"Res":4538,"ji":4539,"kest":4540,"reeds":4541,"ski":4542,".),":4543,"Minister":4544,"vrijwel":4545,"Afrika":4546,"Internation":4547,"Schip":4548,"absol":4549,"salaris":4550,"Dou":4551,"uitker":4552,"vestigd":4553,"122":4554,"085":4555,"bun":4556,"boekjes":4557,"overwin":4558,"KRO":4559,"sollicitatie":4560,"425":4561,"begrafenis":4562,"fabriek":4563,"stoffen":4564,"moesten":4565,"verkopen":4566,"delige":4567,"585":4568,"lands":4569,"competitie":4570,"dertig":4571,"neder":4572,"uiteindelijk":4573,"Amsterdamse":4574,"Toe":4575,"beren":4576,"stro":4577,"ique":4578,"Heute":4579,"GTi":4580,"stac":4581,"Pal":4582,"drug":4583,"Tour":4584,"journ":4585,"aats":4586,"rr":4587,"besliss":4588,"054":4589,"Presentatie":4590,"aantrek":4591,"bezet":4592,"HOR":4593,"FI":4594,"yd":4595,"igingen":4596,"soorten":4597,"JA":4598,"Gemeen":4599,"oreca":4600,"schot":4601,"lichting":4602,"Hof":4603,"ours":4604,"Vooral":4605,"justitie":4606,"oer":4607,"regeling":4608,"onderneming":4609,"Speur":4610,"aanzien":4611,"Hun":4612,"JES":4613,"wei":4614,"pakken":4615,"740":4616,"doven":4617,"utie":4618,"gebe":4619,"mate":4620,"antrac":4621,"huw":4622,"Arnhem":4623,"Automaat":4624,"oefen":4625,"Hi":4626,"avonds":4627,"qui":4628,"ude":4629,"raaf":4630,"SEN":4631,"ley":4632,"bedoel":4633,"sm":4634,"belangrijkste":4635,"vog":4636,"badkamer":4637,"speler":4638,"villa":4639,"tocht":4640,"gebieden":4641,"dor":4642,"ware":4643,"struct":4644,"Boys":4645,"VIS":4646,"contract":4647,"TTER":4648,"MP":4649,"niemand":4650,"Sam":4651,"digd":4652,"koper":4653,"ars":4654,"SPORT":4655,"ATIE":4656,"Brunssum":4657,"matorium":4658,"liep":4659,"HOL":4660,"proef":4661,"jij":4662,"157":4663,"gemeenten":4664,"indruk":4665,"072":4666,"136":4667,"290":4668,"klin":4669,"sector":4670,"Ce":4671,"dochter":4672,"1100":4673,"bruik":4674,"eker":4675,"1300":4676,"cli":4677,"bev":4678,"entree":4679,"Vier":4680,"volgt":4681,"244":4682,"voren":4683,"Parijs":4684,"derd":4685,"Ri":4686,"STEL":4687,"eveneens":4688,"tax":4689,"bran":4690,"tevreden":4691,"verschil":4692,"Geleen":4693,"Cam":4694,"TRA":4695,"055":4696,"raf":4697,"gers":4698,"trap":4699,"Roy":4700,"Ca":4701,"HAN":4702,"umenten":4703,"Pass":4704,"wilt":4705,"levering":4706,"kruis":4707,"haalde":4708,"————":4709,"mevrouw":4710,"ORD":4711,"Ron":4712,"3000":4713,"kara":4714,"expl":4715,"tri":4716,"uitgevoerd":4717,"collectie":4718,"Bert":4719,"rimin":4720,"strekt":4721,"bonden":4722,"327":4723,"spect":4724,"rijpen":4725,"WILLEM":4726,"duizenden":4727,"cultuur":4728,"Dagblad":4729,"laats":4730,"iënten":4731,"Bosn":4732,"Cro":4733,"tennis":4734,"onge":4735,"sept":4736,"schop":4737,"onver":4738,"goud":4739,"lt":4740,"kje":4741,"anta":4742,"ART":4743,"kar":4744,"aliteiten":4745,"militair":4746,"allerlei":4747,"Zwit":4748,"vooruit":4749,"vrede":4750,"set":4751,"vertrouwen":4752,"Spanje":4753,"JON":4754,"Ve":4755,"genoemd":4756,"stak":4757,"132":4758,"Makel":4759,"zers":4760,"IZEN":4761,"ants":4762,"breed":4763,"Gu":4764,"ero":4765,"precies":4766,"Cu":4767,"B5":4768,"rode":4769,"MI":4770,"initi":4771,"Pap":4772,"muz":4773,"Engeland":4774,"043":4775,"fond":4776,"algemene":4777,"elect":4778,"oneel":4779,"Italiaanse":4780,"koffie":4781,"gerecht":4782,"eep":4783,"ats":4784,"verklaring":4785,"mt":4786,"Coupé":4787,"KI":4788,"bergen":4789,"advertenties":4790,"spor":4791,"UUR":4792,"321":4793,"■■■":4794,"berging":4795,"dachte":4796,"concern":4797,"esc":4798,"fijn":4799,"trein":4800,"velop":4801,"CU":4802,"parkeer":4803,",.":4804,"mige":4805,"dw":4806,"streeks":4807,"kast":4808,"Amstel":4809,"Volks":4810,"Indu":4811,"Zui":4812,"IJS":4813,"von":4814,"Goede":4815,"technische":4816,"420":4817,"sterke":4818,"afloop":4819,"139":4820,"opening":4821,"ƒ2":4822,"ity":4823,"koning":4824,"uell":4825,"fietsen":4826,"particul":4827,"weig":4828,"ANC":4829,"uurd":4830,"iende":4831,"ccas":4832,"bom":4833,"public":4834,"kerst":4835,"tes":4836,"bou":4837,"Daarnaast":4838,"bra":4839,"cher":4840,"Sen":4841,"presen":4842,"wassen":4843,"jongen":4844,"ologie":4845,"Werk":4846,"Air":4847,"verloren":4848,"report":4849,"beweging":4850,"05120":4851,"Samen":4852,"juiste":4853,"3500":4854,"dru":4855,"cy":4856,"behandeling":4857,"conferentie":4858,"ado":4859,"kanaal":4860,"Londen":4861,"Sj":4862,"Joegoslav":4863,"duit":4864,"verkocht":4865,"ark":4866,"uze":4867,"^'":4868,"News":4869,"anties":4870,"Div":4871,"rechtbank":4872,"Herh":4873,"Show":4874,"idsrechter":4875,"wijzig":4876,"borg":4877,"Bas":4878,"PP":4879,"zakelijk":4880,"Gi":4881,"mW":4882,"CV":4883,"gehele":4884,"duel":4885,"pog":4886,"enorme":4887,"1800":4888,"Fun":4889,"temper":4890,"leidingen":4891,"verklaarde":4892,"plechtigheid":4893,"Vraagprijs":4894,"vermogen":4895,"Huur":4896,"kunde":4897,"kelen":4898,"volk":4899,"materiaal":4900,"rijke":4901,"380":4902,"getro":4903,"»»":4904,"gezin":4905,"voert":4906,"onlangs":4907,"with":4908,"oest":4909,"oning":4910,"Bil":4911,"Off":4912,"oze":4913,"aker":4914,"orgt":4915,"seling":4916,"spoor":4917,"mening":4918,"CEDES":4919,"Vanaf":4920,"Les":4921,"comedy":4922,"schouwers":4923,"Einde":4924,"dert":4925,"aff":4926,"boeren":4927,"Gal":4928,"Ass":4929,"stemmen":4930,"gezicht":4931,"appen":4932,"eur":4933,"cona":4934,"Eerste":4935,"brochure":4936,"Moskou":4937,"waarschuw":4938,"?\"\"":4939,"ffl":4940,"MU":4941,"appe":4942,"gewen":4943,"omg":4944,"Turk":4945,"gemakkelijk":4946,"tf":4947,"057":4948,"crematorium":4949,"Akt":4950,"159":4951,"mes":4952,"doorn":4953,"lager":4954,"032":4955,"Jj":4956,"mun":4957,"kema":4958,"Wet":4959,"049":4960,"Mc":4961,"autor":4962,"MERCEDES":4963,"gids":4964,"deurs":4965,"heengegaan":4966,"profess":4967,"gebeurt":4968,"Engels":4969,"mas":4970,"Eigen":4971,"bers":4972,"verdedig":4973,"opgenomen":4974,"stroom":4975,"Roo":4976,"ROO":4977,"zingen":4978,"Ele":4979,"splan":4980,"??":4981,"Geref":4982,"INTER":4983,"Muziek":4984,"persoonlijk":4985,"okker":4986,"02159":4987,"ingel":4988,"betaald":4989,"oodse":4990,"Tegen":4991,"KN":4992,"ƒ12":4993,"bui":4994,"Zwe":4995,"gebruiken":4996,"Arab":4997,"rijp":4998,"waardig":4999,"techniek":5000,"papier":5001,"Nw":5002,"vrienden":5003,"beker":5004,"can":5005,"BAR":5006,"record":5007,"ulen":5008,"178":5009,"komsten":5010,"Rijn":5011,"075":5012,"Japanse":5013,"graden":5014,"144":5015,"Bele":5016,"kal":5017,"hoeft":5018,"aden":5019,"IEK":5020,"stor":5021,"0590":5022,"gren":5023,"gespeeld":5024,"lige":5025,"Hoewel":5026,"reser":5027,"Belgische":5028,"bonds":5029,"enkel":5030,"Omdat":5031,"BRU":5032,"instru":5033,"unie":5034,"inkomen":5035,"167":5036,"rechten":5037,"noem":5038,"vanwege":5039,"Nederlanders":5040,"Rich":5041,"dium":5042,"moeite":5043,"pret":5044,"yer":5045,"PC":5046,"eenvou":5047,"Ruim":5048,"fensie":5049,"188":5050,"keers":5051,"demon":5052,"Koning":5053,"hoeveel":5054,"OM":5055,"Ir":5056,"minimaal":5057,"stijl":5058,"tern":5059,"Nws":5060,"fte":5061,"VAG":5062,"••••":5063,"Visser":5064,"For":5065,"inv":5066,"lijnen":5067,"voorbij":5068,"tur":5069,"café":5070,"behoren":5071,"uis":5072,"geslagen":5073,"vijftig":5074,"620":5075,"wolde":5076,"Sm":5077,"regels":5078,"verzam":5079,"totale":5080,"ake":5081,"Gev":5082,"zijde":5083,"heers":5084,"GOE":5085,"militaire":5086,"immers":5087,"mode":5088,"RAAG":5089,"gekozen":5090,"kritiek":5091,"noemde":5092,"benz":5093,"BBC":5094,"emen":5095,"KAM":5096,"interieur":5097,"Familie":5098,"?\"":5099,"dal":5100,"ciële":5101,"245":5102,"Nic":5103,"roken":5104,"sur":5105,"index":5106,"Ta":5107,"ijt":5108,"dl":5109,"discussie":5110,"fot":5111,"geten":5112,"momenteel":5113,"sse":5114,"Advert":5115,"cam":5116,"vertelt":5117,"ms":5118,"gegevens":5119,"bekl":5120,"Ga":5121,"recl":5122,"trekt":5123,"Max":5124,"stoel":5125,"vermoe":5126,"Las":5127,"lopende":5128,"clubs":5129,"Speci":5130,"sign":5131,"tex":5132,"jun":5133,"geleverd":5134,"houten":5135,"geel":5136,"bereikt":5137,"Gevr":5138,"TROS":5139,"werkl":5140,"omstandig":5141,"waarom":5142,"interess":5143,"aanbod":5144,"Toto":5145,"versl":5146,"wielen":5147,"opgeven":5148,"kader":5149,"vracht":5150,"gewone":5151,"machine":5152,"158":5153,"gelden":5154,"ooien":5155,"Gelegen":5156,"Beek":5157,"cke":5158,"550":5159,"keurd":5160,"bol":5161,"getrokken":5162,"foort":5163,"Fra":5164,"prachtige":5165,"resultaten":5166,"AO":5167,"HEERLEN":5168,"Blu":5169,"TOR":5170,"rubriek":5171,"520":5172,"Mis":5173,"folder":5174,"iërs":5175,"ontmoet":5176,"Sie":5177,"broer":5178,"gesproken":5179,"front":5180,"ward":5181,"gebeuren":5182,"antraciet":5183,"rus":5184,"kwest":5185,"motoren":5186,"GS":5187,"Veendam":5188,"vertrouw":5189,"fractie":5190,"code":5191,"sluiting":5192,"fund":5193,"volgd":5194,"cal":5195,"praat":5196,"TTERDAM":5197,"aanvraag":5198,"berichten":5199,"karakter":5200,"plat":5201,"geë":5202,"rend":5203,"iter":5204,"ities":5205,"verh":5206,"Vertrek":5207,"beurt":5208,"bbers":5209,"gevolgen":5210,"ule":5211,"daardoor":5212,"geboren":5213,"02510":5214,"Woon":5215,"erop":5216,"Fort":5217,"slim":5218,"iment":5219,"Prof":5220,"brieven":5221,"CAM":5222,"lat":5223,"bis":5224,"woonkamer":5225,"lein":5226,"GRO":5227,"jf":5228,"149":5229,"Israëlische":5230,"loos":5231,"ROTTERDAM":5232,"unieke":5233,"bedr":5234,"ZON":5235,"JU":5236,"leerlingen":5237,"defin":5238,"Feyen":5239,"danig":5240,"gewerkt":5241,"Mb":5242,"crematie":5243,"Hor":5244,"Lux":5245,"kade":5246,"*»":5247,"schak":5248,"inderen":5249,"levert":5250,"oure":5251,"SSE":5252,"stenen":5253,"financiering":5254,"links":5255,"jacht":5256,"uim":5257,"ongeluk":5258,"Leeuwarder":5259,"BC":5260,"BAL":5261,"Wo":5262,"Naar":5263,"iele":5264,"begro":5265,"klanten":5266,"bedien":5267,"sper":5268,"alsnog":5269,"zus":5270,"steden":5271,"Vit":5272,"vestiging":5273,"pp":5274,"Sinds":5275,"ffi":5276,"HIL":5277,"154":5278,"voorlopig":5279,"ISCH":5280,"sprak":5281,"snelle":5282,"bepaald":5283,"famil":5284,"Telegraaf":5285,"310":5286,"Son":5287,"Jonge":5288,"318":5289,"Sle":5290,"melden":5291,"VAK":5292,"kiezen":5293,"ures":5294,"proberen":5295,"selectie":5296,"begrip":5297,"advoc":5298,"Burg":5299,"ijnse":5300,"Kort":5301,"openbaar":5302,"ituut":5303,"stop":5304,"Brussel":5305,"ves":5306,"mocht":5307,"ateur":5308,"duren":5309,"Micha":5310,"velours":5311,"Surin":5312,"BRO":5313,"region":5314,"gelaten":5315,"mist":5316,"vergun":5317,"meent":5318,"beperkt":5319,"bv":5320,"ontde":5321,"Pieter":5322,"Dom":5323,"B4":5324,"verster":5325,"nogal":5326,"SW":5327,"Smit":5328,"komstig":5329,"Hendr":5330,"enig":5331,"overwinning":5332,"vrijst":5333,"schrijft":5334,"schriftelijke":5335,"boekje":5336,"KLE":5337,"BOVAG":5338,"reef":5339,"spreek":5340,"Reizen":5341,"risico":5342,"DOOR":5343,"kolom":5344,"betrek":5345,"BERG":5346,"Grand":5347,"spaar":5348,"weerbericht":5349,"PTT":5350,"atel":5351,"Ont":5352,"309":5353,"offers":5354,"back":5355,"etten":5356,"zuid":5357,"Jul":5358,"pac":5359,":\"":5360,"college":5361,"zelfstandig":5362,"distri":5363,"Jl":5364,"geplaatst":5365,"Das":5366,"mrt":5367,"Kw":5368,"inzet":5369,"verdere":5370,"ochie":5371,"Brand":5372,"RD":5373,"Mont":5374,"kunsten":5375,"sem":5376,"147":5377,"dergelijke":5378,"kwijt":5379,"Wi":5380,"abonne":5381,"KON":5382,"invloed":5383,"WEG":5384,"1982":5385,"bood":5386,"artikelen":5387,"blijf":5388,"oond":5389,"328":5390,"Boe":5391,"zevent":5392,"wijst":5393,"machines":5394,"hoopt":5395,"Zwitser":5396,"Drenthe":5397,"slechte":5398,"apt":5399,"horenden":5400,"Lang":5401,"Prijzen":5402,"Camp":5403,"fant":5404,"SHO":5405,"noemen":5406,"breng":5407,"FE":5408,"verlening":5409,"Maria":5410,"zwembad":5411,"gend":5412,"genoten":5413,"bord":5414,"outen":5415,"pte":5416,"hetzelfde":5417,"Tal":5418,"IST":5419,"beslist":5420,"program":5421,"Ac":5422,"Jel":5423,"5000":5424,"\"*":5425,"Dien":5426,"««":5427,"partner":5428,"patiënten":5429,"reactie":5430,"Nat":5431,"Service":5432,"verwachten":5433,"KEL":5434,"MIN":5435,"éér":5436,"schoten":5437,"spreekt":5438,"Int":5439,"definitie":5440,"gehaald":5441,"gedragen":5442,"artikel":5443,"reage":5444,"drage":5445,"nette":5446,"HP":5447,"onderhouden":5448,"envelop":5449,"FT":5450,"seweg":5451,"uitgebreid":5452,"getroffen":5453,"ikkel":5454,"eden":5455,"EO":5456,"nad":5457,"\"★":5458,"communic":5459,"Im":5460,"NEN":5461,"Maan":5462,"Stads":5463,"camping":5464,"genaam":5465,"Plaats":5466,"rot":5467,"neg":5468,"deuren":5469,"foar":5470,"AST":5471,"hypot":5472,"nig":5473,"Pop":5474,"Koe":5475,"ontvang":5476,"dacht":5477,"evt":5478,"gezellig":5479,"ICE":5480,"manager":5481,"pijn":5482,"telefonisch":5483,"slechthorenden":5484,"plek":5485,"harde":5486,"kandidaten":5487,"tentoon":5488,"ics":5489,"Brazil":5490,"Mede":5491,"EP":5492,"':":5493,"NCR":5494,"vrijblijven":5495,"verhog":5496,"geluid":5497,"ura":5498,"Kor":5499,"vergelijk":5500,"^.":5501,"euken":5502,"treff":5503,"kru":5504,"!\"":5505,"aux":5506,"generaal":5507,"gemeenschap":5508,"Feyenoord":5509,"onverwacht":5510,"luid":5511,"ida":5512,"WD":5513,"Holding":5514,"QU":5515,"minste":5516,"ilen":5517,"Brink":5518,"PRIJ":5519,"kansen":5520,"taak":5521,"ualiteiten":5522,"ontv":5523,"'•":5524,"VL":5525,"zending":5526,"Roer":5527,"wy":5528,"omstandigheden":5529,"kust":5530,"Sint":5531,"uitbreiding":5532,"way":5533,"telijk":5534,"dion":5535,"boord":5536,"ALE":5537,"Veld":5538,"Vrouwen":5539,"Landgraaf":5540,"kilo":5541,"afval":5542,"full":5543,"heil":5544,"ref":5545,"elt":5546,"gevangenis":5547,"comedyserie":5548,"opa":5549,"landbouw":5550,"contacten":5551,"mark":5552,"Hoens":5553,"King":5554,"soft":5555,"Hart":5556,"bach":5557,"iste":5558,"NI":5559,"maten":5560,"bedre":5561,"anti":5562,"1995":5563,"Vos":5564,"zuster":5565,"geleid":5566,"jn":5567,"leek":5568,"dans":5569,"Lubbers":5570,"Ul":5571,"aby":5572,"rn":5573,"histor":5574,"azz":5575,"stratie":5576,"specialist":5577,"bijk":5578,"AGEN":5579,"ros":5580,"HON":5581,"rook":5582,"bezwaar":5583,"05920":5584,"lagen":5585,"AGE":5586,"iland":5587,"'*":5588,"inz":5589,"406":5590,"fre":5591,"BIJ":5592,"bile":5593,"combinatie":5594,"Bedrijfs":5595,"minuut":5596,"diam":5597,"gaven":5598,"Brab":5599,"ath":5600,"Bakker":5601,"meerder":5602,"exper":5603,"NCRV":5604,"isters":5605,"KLA":5606,"plezier":5607,"festival":5608,"Kunst":5609,"Steen":5610,"Slo":5611,"/^":5612,"aanleiding":5613,"3e":5614,"Rusland":5615,"Gevraagd":5616,"uer":5617,"156":5618,"stappen":5619,"vangt":5620,"Noorden":5621,"pool":5622,"geve":5623,"bereiken":5624,"Inst":5625,"rysl":5626,"tient":5627,"inclusief":5628,"GAR":5629,"wens":5630,"view":5631,"Richard":5632,"Apel":5633,"PL":5634,"voorstellen":5635,"WERK":5636,"idend":5637,"ingang":5638,"voering":5639,"Tri":5640,"bestel":5641,"ula":5642,"217":5643,"rad":5644,"vloe":5645,"dhr":5646,"atisch":5647,"Oostenrijk":5648,"kantoren":5649,"uitsluitend":5650,"1980":5651,"mogelijke":5652,"183":5653,"Zon":5654,"255":5655,"lichaam":5656,"bezuin":5657,"kanteld":5658,"divid":5659,"Antillen":5660,"169":5661,"tegenst":5662,"OOT":5663,"versum":5664,"bruin":5665,"energie":5666,"Hl":5667,"wur":5668,"ormeerde":5669,"zege":5670,"golf":5671,"CHTEN":5672,"roerend":5673,"Str":5674,"ago":5675,"vlees":5676,"Naast":5677,"regelmatig":5678,"Studio":5679,"Flor":5680,"HEN":5681,"verst":5682,"vijftien":5683,"295":5684,"igers":5685,"Nee":5686,"spons":5687,"zonne":5688,"Serie":5689,"Hul":5690,"Trans":5691,"hop":5692,"MEN":5693,"pes":5694,"ELS":5695,"itte":5696,"betere":5697,"daarop":5698,"bijdrage":5699,"tan":5700,"131":5701,"genieten":5702,"EURO":5703,"drugs":5704,"lak":5705,"hold":5706,"woonhuis":5707,"kleink":5708,"Kan":5709,"mw":5710,"Chine":5711,"Ram":5712,"STRAAT":5713,"verhalen":5714,"overige":5715,"redelijk":5716,"lezen":5717,"JL":5718,"handic":5719,"cia":5720,"1111":5721,"gat":5722,"Hem":5723,"drij":5724,"143":5725,"TIS":5726,"IND":5727,"circa":5728,"inlichtingen":5729,"vergeten":5730,"MS":5731,"unda":5732,"Fer":5733,"Vin":5734,"gekeurd":5735,"geroepen":5736,"actief":5737,"ƒ17":5738,"elaar":5739,"recre":5740,",\"":5741,"instelling":5742,"herh":5743,"kwestie":5744,"Amers":5745,"apens":5746,"ird":5747,"ellen":5748,"rich":5749,"ƒ13":5750,"breken":5751,"Til":5752,"Daarbij":5753,"Sol":5754,"Wy":5755,"ënt":5756,"itaal":5757,"Ser":5758,"icus":5759,"Mor":5760,"uitvaart":5761,"belangen":5762,"lil":5763,"Sunny":5764,"ANS":5765,"auffe":5766,"_f":5767,"Lou":5768,"volks":5769,"sec":5770,"officiële":5771,"Dor":5772,"Programma":5773,"initiatief":5774,"winkels":5775,"Bern":5776,"hyp":5777,"Dus":5778,"Prin":5779,"ED":5780,"bedrijfsle":5781,"kor":5782,"meubelen":5783,"International":5784,"popul":5785,"voordat":5786,"trans":5787,"keus":5788,"208":5789,"persoonlijke":5790,"cker":5791,"motie":5792,"ƒ7":5793,"bodem":5794,"078":5795,"twij":5796,"».":5797,"Lem":5798,"Even":5799,"ney":5800,"commerciële":5801,"koe":5802,"Sta":5803,"bemiddel":5804,"IEN":5805,"él":5806,"141":5807,"verbet":5808,"305":5809,"Vast":5810,"moed":5811,"VERT":5812,"financieel":5813,"bben":5814,"oun":5815,"blijken":5816,"staten":5817,"vroeger":5818,"caravans":5819,"missie":5820,"ires":5821,"DIES":5822,"222":5823,"Limburgs":5824,"Gelegenheid":5825,"gezamen":5826,"Scorp":5827,"376":5828,"uitstekende":5829,"Zonder":5830,"Barcel":5831,"CIT":5832,"spanning":5833,"Kruis":5834,"straks":5835,"melding":5836,"Hoensbroek":5837,"aliseerd":5838,"Personeel":5839,"instellingen":5840,"arta":5841,"Rol":5842,"_J":5843,"Star":5844,"inb":5845,"gebr":5846,"bes":5847,"fase":5848,"inga":5849,"ieken":5850,"imp":5851,"Bun":5852,"graafplaats":5853,"iten":5854,"Kui":5855,"velg":5856,"gelukkig":5857,"steeg":5858,"Tsje":5859,"leving":5860,"bloemen":5861,"deelnemers":5862,"vriendin":5863,"Len":5864,"mont":5865,"215":5866,"paren":5867,"mega":5868,"dubbele":5869,"ZZ":5870,"beslissing":5871,"schitter":5872,"299":5873,"wees":5874,"uiden":5875,"oorn":5876,"proced":5877,"asiel":5878,"Hilversum":5879,"zyn":5880,"Jam":5881,"plotseling":5882,"keken":5883,"Haren":5884,"Gl":5885,"Amersfoort":5886,"fondsen":5887,"uniek":5888,"kerken":5889,"stijging":5890,"vernieuw":5891,"veertig":5892,"Jet":5893,"gebrek":5894,"Lam":5895,"dringen":5896,"aanhang":5897,"vergoed":5898,"ces":5899,"begeleiding":5900,"ƒ19":5901,"stren":5902,"Spaanse":5903,"stacaravan":5904,"cd":5905,"arbeid":5906,"*■":5907,"egon":5908,"waaronder":5909,"noor":5910,"joodse":5911,"Snel":5912,"Barcelona":5913,"BOUW":5914,"management":5915,"okken":5916,"Ku":5917,"wongen":5918,"Aansl":5919,"vet":5920,"DIESEL":5921,"platen":5922,"219":5923,"lip":5924,"troepen":5925,"Broek":5926,")-":5927,"hans":5928,"ola":5929,"Jean":5930,"dividend":5931,"transport":5932,"Mel":5933,"complete":5934,"\\^":5935,"geg":5936,"OF":5937,"bezoekers":5938,"Sk":5939,"verdw":5940,"Haan":5941,"TU":5942,"kandidaat":5943,"vliegtuig":5944,"loyd":5945,"theater":5946,"schriftelijk":5947,"zuiden":5948,"Ml":5949,"Achter":5950,"Techn":5951,"Advertentie":5952,"VRO":5953,"duitse":5954,"gde":5955,"krijgbaar":5956,"boten":5957,"999":5958,"Yama":5959,"gestuurd":5960,"noemt":5961,"ala":5962,"onderdeel":5963,"brood":5964,"beteken":5965,"oeps":5966,"Alex":5967,"keuring":5968,"aakte":5969,"aanbieding":5970,"Benz":5971,"DAF":5972,"aktuell":5973,"fig":5974,"ontwerp":5975,"verschijn":5976,"onderhandelingen":5977,"ive":5978,"Pen":5979,"rang":5980,"aanval":5981,"gewonnen":5982,"AX":5983,"gedurende":5984,"artsen":5985,"^^^^^^^^":5986,"jarig":5987,"jen":5988,"ƒ15":5989,"grotere":5990,"MEER":5991,"zette":5992,"cas":5993,"VB":5994,"zond":5995,"ambtenaren":5996,"USA":5997,"wis":5998,"Robert":5999,"fam":6000,"gevestigd":6001,"HC":6002,"reclame":6003,"bereikbaar":6004,"vereist":6005,"escort":6006,"fles":6007,"ther":6008,"Cabrio":6009,"MW":6010,"leiders":6011,"HEL":6012,"haard":6013,"subsidie":6014,"142":6015,"zelfstand":6016,"verzorging":6017,"ied":6018,"vertellen":6019,"abs":6020,"iër":6021,"huwelijk":6022,"Nationale":6023,"8950":6024,"wapen":6025,"meiden":6026,"ür":6027,"gedrag":6028,"alt":6029,"Yamaha":6030,"Dijkstra":6031,"erij":6032,"DIO":6033,"AVRO":6034,"fout":6035,"ya":6036,"ATION":6037,"Dis":6038,"verwij":6039,"prest":6040,"Veron":6041,"geef":6042,"universiteit":6043,"tingen":6044,"puteerde":6045,"529":6046,"Schot":6047,"Eng":6048,"Roden":6049,"Winkel":6050,"legt":6051,"mooiste":6052,"comfort":6053,"Obl":6054,"projecten":6055,"oblig":6056,"Kra":6057,"non":6058,"been":6059,"Uno":6060,"080":6061,"Box":6062,"verplicht":6063,"verpleeg":6064,"verkeers":6065,"woonk":6066,"177":6067,"ix":6068,"GRATIS":6069,"Scorpio":6070,"willig":6071,"16V":6072,"koopavond":6073,"perfecte":6074,"massage":6075,"mf":6076,"INS":6077,"akken":6078,"ontwikkelingen":6079,"Jor":6080,"Region":6081,"goederen":6082,"keld":6083,"kern":6084,"veilig":6085,"world":6086,"kwartaal":6087,"nee":6088,"166":6089,"premie":6090,"Vereniging":6091,"Merc":6092,"wente":6093,"kampioenschap":6094,"Stationcar":6095,"invester":6096,"slaapk":6097,"assade":6098,"hs":6099,"raakse":6100,"vorming":6101,"showroom":6102,"Schiphol":6103,"princi":6104,"sportvelgen":6105,"Rotterdamse":6106,"optim":6107,"02990":6108,"documentaire":6109,"MON":6110,"handels":6111,"Elke":6112,"GRACHT":6113,"370":6114,"bijeenkomst":6115,"slachtoffers":6116,"boerderij":6117,"Cas":6118,"kleinkinderen":6119,"Corp":6120,"oegd":6121,"944":6122,"handicap":6123,"kring":6124,"staal":6125,"Boek":6126,"•■":6127,"lev":6128,"technisch":6129,"LC":6130,"oosten":6131,"vankelijk":6132,"Roermond":6133,"vanavond":6134,"belegg":6135,"ANTIE":6136,"varen":6137,"EOE":6138,"PERS":6139,"Lid":6140,"kundig":6141,"Cat":6142,"Ball":6143,"Tex":6144,"XL":6145,"binnenkort":6146,"525":6147,"varing":6148,"slotte":6149,"nummers":6150,"fj":6151,"076":6152,"*,":6153,"char":6154,"zijl":6155,"bg":6156,"pension":6157,"fraaie":6158,"VSt":6159,"VARA":6160,"aagde":6161,"cris":6162,"Iraakse":6163,"PEN":6164,"dran":6165,"Vre":6166,"Uitzend":6167,"scha":6168,"EB":6169,"Vrijdag":6170,"Arbe":6171,"VRAAG":6172,"inderdaad":6173,"Ot":6174,"kelder":6175,"Break":6176,"vig":6177,"films":6178,"Motor":6179,"bevel":6180,"tic":6181,"aringen":6182,"285":6183,"Blue":6184,"ieter":6185,"Inlichtingen":6186,"Za":6187,"confli":6188,"sterkte":6189,"schepen":6190,"China":6191,"hotels":6192,"driet":6193,"elft":6194,"216":6195,"Morgen":6196,"Bush":6197,"oi":6198,"212":6199,"paard":6200,"Wanneer":6201,"ucht":6202,"letter":6203,"WI":6204,"Oud":6205,"burgers":6206,"kroon":6207,"afspraken":6208,"315":6209,"ïï":6210,"Tsjech":6211,"FOTO":6212,"accep":6213,"Hon":6214,"176":6215,"gezonden":6216,"BANK":6217,"wisselen":6218,",-,":6219,"internationaal":6220,"HBO":6221,"cn":6222,"verzekering":6223,"EST":6224,"flink":6225,"Omega":6226,"Bonaire":6227,"HAAR":6228,"winnend":6229,"fac":6230,"Dui":6231,"drecht":6232,"Porsche":6233,"ese":6234,"Albert":6235,"secon":6236,"HAL":6237,"otheek":6238,"Nor":6239,"Tj":6240,"PRE":6241,"fus":6242,"schadevrij":6243,"meestal":6244,"zand":6245,"ondersteun":6246,"AAL":6247,"Jacob":6248,"bijzondere":6249,"edt":6250,"05130":6251,"Breda":6252,"journaal":6253,"fol":6254,"nou":6255,"uiterlijk":6256,"kantooruren":6257,"inte":6258,"038":6259,"Ij":6260,"yo":6261,"vredes":6262,"gezondheid":6263,"plaatsing":6264,"Dord":6265,"uiterst":6266,"Dok":6267,"schilderijen":6268,"arre":6269,"kasten":6270,"Pac":6271,"CK":6272,"VOO":6273,"omp":6274,"route":6275,"beige":6276,"commissaris":6277,"AI":6278,"Middel":6279,"rière":6280,"funktie":6281,"crimin":6282,"Nacht":6283,"nor":6284,"slachtoffer":6285,"Jeu":6286,"heu":6287,"house":6288,"OPEN":6289,"gewicht":6290,"Tien":6291,"gebleven":6292,"occas":6293,"BIE":6294,"meerderheid":6295,"Zoals":6296,"dse":6297,"roof":6298,"individ":6299,"Daarna":6300,"voorsprong":6301,"sjov":6302,"ïn":6303,"temperatuur":6304,"DS":6305,"datum":6306,"vs":6307,"bedoeling":6308,"Moe":6309,"rent":6310,"Joegoslavië":6311,"militairen":6312,"percent":6313,"toegang":6314,"zins":6315,"Hat":6316,"Fre":6317,"pond":6318,"Ascona":6319,"lood":6320,"375":6321,"Sw":6322,"doden":6323,"187":6324,"beschikt":6325,"horeca":6326,"officier":6327,"incl":6328,"Gou":6329,"normaal":6330,"Vork":6331,"heff":6332,"Est":6333,"circ":6334,"christ":6335,"1981":6336,"tin":6337,"MAAT":6338,"056":6339,"belt":6340,"afst":6341,"Twente":6342,"hond":6343,"Rover":6344,"werkgevers":6345,"phil":6346,"verhoging":6347,"geste":6348,"Film":6349,"oan":6350,"noch":6351,"volledige":6352,"bewust":6353,"UU":6354,"staand":6355,"eenmaal":6356,"riol":6357,"Saab":6358,"Justitie":6359,"bli":6360,"Wa":6361,"yp":6362,"zkt":6363,"ét":6364,"Michael":6365,"leverbaar":6366,"»,»":6367,"opgel":6368,"625":6369,"ils":6370,"control":6371,"DOR":6372,"sommige":6373,"ageren":6374,"besp":6375,"Adres":6376,"news":6377,"aardij":6378,"behouden":6379,"FRE":6380,"vall":6381,"sia":6382,"joden":6383,"386":6384,"Scheidsrechter":6385,"ƒ9":6386,"broe":6387,"opvang":6388,"dc":6389,"HL":6390,"missen":6391,"Il":6392,"Ons":6393,"02158":6394,"training":6395,"WILLEMSTAD":6396,"teurs":6397,"IJssel":6398,"Wee":6399,"kes":6400,"vervangen":6401,"onmiddel":6402,"stads":6403,"kwartier":6404,"teresse":6405,"aaaa":6406,"GAL":6407,"ambassade":6408,"schreef":6409,"miljoenen":6410,"Gister":6411,"dankbaar":6412,"wand":6413,"Cup":6414,"zegel":6415,"Passat":6416,"345":6417,"omhoog":6418,"*>":6419,"verlaagd":6420,"gerust":6421,"gedwongen":6422,"megen":6423,"nieuwste":6424,"Ie":6425,"505":6426,"overtu":6427,"174":6428,"Zand":6429,"overal":6430,"hogere":6431,"iënt":6432,"schuur":6433,"OVER":6434,"Apeldoorn":6435,"gesprekken":6436,"eland":6437,"ologische":6438,"eff":6439,"Jansen":6440,"rende":6441,"DING":6442,"ERT":6443,"cruis":6444,"7500":6445,"verlaten":6446,"Gerard":6447,"opgeb":6448,"Museum":6449,"Koninkl":6450,"ston":6451,"bier":6452,"voorzieningen":6453,"vro":6454,"oc":6455,"Gorbat":6456,"Ji":6457,"HS":6458,"bedo":6459,"elders":6460,"Bot":6461,"QQ":6462,"wonder":6463,"directe":6464,"Europees":6465,"kei":6466,"Brie":6467,"rukt":6468,"begraafplaats":6469,"clusieve":6470,"koor":6471,"coc":6472,"installatie":6473,"schuld":6474,"Gre":6475,"zwak":6476,"Patri":6477,"Bad":6478,"Daarmee":6479,"gan":6480,"terras":6481,"Mac":6482,"VERS":6483,"piano":6484,"422":6485,"uitspraak":6486,"bescherming":6487,"Beg":6488,"Veil":6489,"410":6490,"zestig":6491,"VRIJ":6492,"206":6493,"meed":6494,"krachten":6495,"1400":6496,"honderden":6497,"iswaar":6498,"Bart":6499,"fst":6500,"INT":6501,"scherpe":6502,"213":6503,"alum":6504,"automatis":6505,"uime":6506,"bena":6507,"bang":6508,"officieel":6509,"üt":6510,"ray":6511,"rid":6512,"oit":6513,"02507":6514,"COL":6515,"198":6516,"vallend":6517,"Nijmegen":6518,"jaarlijks":6519,"Theo":6520,"GI":6521,"Janssen":6522,"illi":6523,"Witte":6524,"gasten":6525,"opleidingen":6526,"Here":6527,"antiek":6528,"153":6529,"Wilt":6530,"Stuur":6531,"nü":6532,"ördin":6533,"merkt":6534,"235":6535,"DDR":6536,"ƒ14":6537,"WO":6538,"Wijn":6539,"Bent":6540,"klachten":6541,"011":6542,"stonden":6543,"zodanig":6544,"alsmede":6545,"Rode":6546,"agon":6547,"merking":6548,"DX":6549,"Hout":6550,"mc":6551,"DRA":6552,"i_":6553,"JC":6554,"Kant":6555,"UTRECHT":6556,"Franeker":6557,"kin":6558,"protest":6559,"Gay":6560,"sek":6561,"goedkoop":6562,"kundigen":6563,"melk":6564,"vrijblijvend":6565,"50cpm":6566,"640":6567,"enthousi":6568,"strie":6569,"istisch":6570,"voelt":6571,"148":6572,"GOED":6573,"schrijf":6574,"ƒ11":6575,"Graaf":6576,"-■":6577,"RUM":6578,"vluchtelingen":6579,"-»":6580,"Dienst":6581,"heide":6582,"iens":6583,"stens":6584,"pensi":6585,"race":6586,"gebroken":6587,"LES":6588,"uwen":6589,"liever":6590,"buren":6591,"073":6592,"verzet":6593,"KERK":6594,"ez":6595,"ƒ16":6596,"RICHT":6597,"Diverse":6598,"onzer":6599,"VOLVO":6600,"verdienen":6601,"Tl":6602,"sun":6603,"verre":6604,"gezondheids":6605,"gevolgd":6606,"uitkering":6607,"Business":6608,"Correspondent":6609,"ograf":6610,"beschuldig":6611,"inhoud":6612,"Gorbatsjov":6613,"bijt":6614,"vee":6615,"zoekers":6616,"Grieks":6617,"avont":6618,"kred":6619,"rijbewijs":6620,"PEU":6621,"191":6622,"vergunning":6623,"sterren":6624,"tegelijk":6625,"elftal":6626,"197":6627,"Econom":6628,"verkrijgbaar":6629,"Indon":6630,"Bestuur":6631,"vit":6632,"Sil":6633,"Brabant":6634,"hoort":6635,"Natuurlijk":6636,"Bom":6637,"lokale":6638,"Delft":6639,"steken":6640,"teert":6641,"LET":6642,"Mark":6643,"verbeter":6644,"ontvangt":6645,"spiegel":6646,"raakte":6647,"ernstig":6648,"ité":6649,"toneel":6650,"618":6651,"Zel":6652,"Algemene":6653,"spir":6654,"crisis":6655,"ooster":6656,"koelk":6657,"recept":6658,"Rit":6659,"klap":6660,"Jaar":6661,"baas":6662,"FNV":6663,"TL":6664,"Rek":6665,"export":6666,"leidt":6667,"toenemen":6668,"deta":6669,"0290":6670,"ollege":6671,"archite":6672,"koel":6673,"Wh":6674,"uitzicht":6675,"nk":6676,"westen":6677,"Direkt":6678,"medische":6679,"Maandag":6680,"bezw":6681,"_H":6682,"wh":6683,"kijkt":6684,"zol":6685,"nut":6686,"3x":6687,"TELEF":6688,"05150":6689,"GPD":6690,"verwarm":6691,"flat":6692,"395":6693,"GO":6694,"bloe":6695,"herinner":6696,"ah":6697,"cteur":6698,"02503":6699,"staatssecretaris":6700,"iaan":6701,"?'":6702,"vering":6703,"Tuin":6704,"ske":6705,"ancia":6706,"tijdig":6707,"Yen":6708,"Leeft":6709,"parochie":6710,"SSEL":6711,"Valken":6712,"Belegg":6713,"brede":6714,"181":6715,"ikken":6716,"Cre":6717,"BRE":6718,"LING":6719,"KM":6720,"sleden":6721,"strat":6722,"chauffe":6723,"Markt":6724,"ical":6725,"raam":6726,"Delta":6727,"gezocht":6728,"SCHE":6729,"Spr":6730,"voedsel":6731,"deels":6732,"exclusief":6733,"koersen":6734,"DSM":6735,"HUUR":6736,"tour":6737,"911":6738,"wapens":6739,"leef":6740,"republiek":6741,"teleur":6742,"greep":6743,"avor":6744,"Enk":6745,"Dai":6746,"trad":6747,"Erik":6748,"schaal":6749,"Kerst":6750,"Alp":6751,"verzorgen":6752,"Spel":6753,"danken":6754,"vrijheid":6755,"relaties":6756,"TUR":6757,"nige":6758,"uitstekend":6759,"bles":6760,"kenteken":6761,"verwachting":6762,"eiken":6763,"Polen":6764,"David":6765,"intern":6766,"tap":6767,"noodzakelijk":6768,"VVD":6769,"ku":6770,"163":6771,"jam":6772,"eenvoudig":6773,"making":6774,"ften":6775,"Elk":6776,"995":6777,"Koo":6778,"ANJE":6779,"tie":6780,"fabrik":6781,"Ly":6782,"chri":6783,"muzik":6784,"oekt":6785,"MOTOR":6786,"behalve":6787,"Wall":6788,"Meis":6789,"stijden":6790,"179":6791,"versnel":6792,"produc":6793,"Molen":6794,"trok":6795,"schrijver":6796,"anne":6797,"rekenen":6798,"Voet":6799,"wedu":6800,"tekort":6801,"■'":6802,"inden":6803,"spits":6804,"boy":6805,"effecten":6806,"inwoners":6807,"schen":6808,"Bla":6809,"mtr":6810,"==":6811,"4000":6812,"Tar":6813,"lijken":6814,"tentoonstelling":6815,"Pool":6816,"Hoge":6817,"maker":6818,"ministers":6819,"weduwe":6820,"Harry":6821,"hebber":6822,"^*":6823,"INDER":6824,"Johannes":6825,"iker":6826,"trekhaak":6827,"iefde":6828,"Rand":6829,"behoor":6830,"Lancia":6831,"CX":6832,"vooraf":6833,"well":6834,"B3":6835,"ijl":6836,"ORG":6837,"246":6838,"Vor":6839,"Gul":6840,"ELEN":6841,"aanbiedingen":6842,"Rel":6843,"hangen":6844,"ington":6845,"...\"":6846,"ISS":6847,"bag":6848,"Jeugd":6849,"aly":6850,"gistermiddag":6851,"administratie":6852,"line":6853,"Klaas":6854,"ior":6855,"jaarden":6856,"1250":6857,"schol":6858,"bedoeld":6859,"Hoofddorp":6860,"wk":6861,"BON":6862,"dad":6863,"Tsj":6864,"Prins":6865,"4500":6866,"uters":6867,"operatie":6868,"beroeps":6869,"PEUGE":6870,"oordeeld":6871,"Naam":6872,"Wegens":6873,"sloop":6874,"laad":6875,"verslaggever":6876,"Zwart":6877,"Pull":6878,"tante":6879,"secretar":6880,"nederlaag":6881,"Indones":6882,"NVM":6883,"opslag":6884,"diplom":6885,"centraal":6886,"geveen":6887,"TIE":6888,"Pak":6889,"ement":6890,"Hard":6891,"Berlijn":6892,"velen":6893,"_W":6894,"pon":6895,"Reu":6896,"ping":6897,"WIT":6898,"overleed":6899,"syn":6900,"appartementen":6901,"klant":6902,"beheers":6903,"Pu":6904,"utch":6905,"Doe":6906,"oorte":6907,"OORD":6908,"Roda":6909,"grenzen":6910,"bedrijfsleven":6911,"verblijf":6912,"angst":6913,"-/":6914,"leeg":6915,"overt":6916,"227":6917,"orps":6918,"Acc":6919,"Schrift":6920,"%.":6921,"samenleving":6922,"Hong":6923,"ƒ1":6924,"behoefte":6925,"211":6926,"verg":6927,"355":6928,"maximaal":6929,"ZA":6930,"tekeningen":6931,"mix":6932,"Dir":6933,"189":6934,"Centraal":6935,"iii":6936,"gewenst":6937,"georganis":6938,"Dordrecht":6939,"Heren":6940,"!\"\"":6941,"jaars":6942,"Mm":6943,"IH":6944,"196":6945,"delig":6946,"orkest":6947,"dri":6948,"invent":6949,"mochten":6950,"iner":6951,"229":6952,"cong":6953,"2950":6954,"steel":6955,"god":6956,"FL":6957,"lm":6958,"vonden":6959,"Homo":6960,"MMER":6961,"isa":6962,"ott":6963,"urele":6964,"igr":6965,"board":6966,"avel":6967,"*•":6968,"Corsa":6969,"geregeld":6970,"_B":6971,"ux":6972,"tijdelijk":6973,"begroting":6974,"poging":6975,"('":6976,"aparte":6977,"Es":6978,"nodige":6979,"woe":6980,"gedeelte":6981,"pad":6982,"beschikking":6983,"ua":6984,"complex":6985,"daarin":6986,"ernstige":6987,"veer":6988,"rf":6989,"ati":6990,"460":6991,"Mol":6992,"Rem":6993,"-:":6994,"Correspondentie":6995,"186":6996,"ouwen":6997,"schoot":6998,"Von":6999,"390":7000,"inen":7001,"BRA":7002,"kanteldak":7003,"03480":7004,"you":7005,"Brug":7006,"Jf":7007,"AZ":7008,"Meijer":7009,"rui":7010,"gerichte":7011,"Amerikanen":7012,"gevuld":7013,"Harm":7014,"werkte":7015,"frank":7016,"Beheer":7017,"eventueel":7018,"Milieu":7019,"poort":7020,"wilden":7021,"oordeel":7022,"utten":7023,"run":7024,"—-":7025,"ario":7026,"lon":7027,"iete":7028,"arn":7029,"Kijk":7030,"metho":7031,"151":7032,"werf":7033,"MEIS":7034,"Jelts":7035,"zang":7036,"Wash":7037,"spoedig":7038,"nadruk":7039,"betrouw":7040,"1900":7041,"MG":7042,"BOX":7043,"Gol":7044,"455":7045,"noord":7046,"geraakt":7047,"Seat":7048,"sociaal":7049,"aardig":7050,"FD":7051,"dynam":7052,"Recht":7053,"gte":7054,"Mulder":7055,"WEEK":7056,"Cons":7057,"echtgenoot":7058,"ploegen":7059,"152":7060,"Harlingen":7061,"stadion":7062,"ummer":7063,"Echt":7064,"3750":7065,"Dank":7066,"Wilhel":7067,"Industrie":7068,"SERV":7069,"carrière":7070,"waardige":7071,"DUIT":7072,"Vakantie":7073,"Plan":7074,"passing":7075,"gete":7076,"azin":7077,"aalt":7078,"OW":7079,"bber":7080,"wijd":7081,"fect":7082,"168":7083,"265":7084,"heim":7085,"empl":7086,"examen":7087,"Gelder":7088,"plm":7089,"feb":7090,"spart":7091,"klim":7092,"danks":7093,"Partij":7094,"Egy":7095,"diamant":7096,"tradit":7097,"sexy":7098,"Kap":7099,"ligbad":7100,"trailer":7101,"Waarom":7102,"acces":7103,"spot":7104,"amera":7105,"Zweden":7106,"constat":7107,"194":7108,"filmserie":7109,"hiel":7110,"interesse":7111,"alerie":7112,"essen":7113,".*":7114,"192":7115,"opnemen":7116,"224":7117,"access":7118,"STU":7119,"Algemeen":7120,"Sab":7121,"chi":7122,"Klein":7123,"INGS":7124,"shop":7125,"gif":7126,"harte":7127,"rodu":7128,"tige":7129,"PEUGEOT":7130,"Los":7131,"veront":7132,"campagne":7133,"portret":7134,"onbe":7135,"cit":7136,"altern":7137,"uitzonder":7138,"Maarten":7139,"Dick":7140,"beneden":7141,"Leiden":7142,"ulti":7143,"lll":7144,"verloor":7145,"Bosnië":7146,"structuur":7147,"finales":7148,"Class":7149,"Sand":7150,"realis":7151,"reacties":7152,"Wad":7153,"temp":7154,"Hall":7155,"hobby":7156,"personeels":7157,"conclus":7158,"414":7159,"Zwee":7160,"gesp":7161,"keting":7162,"gezellige":7163,"pensioen":7164,"opgebaard":7165,"Art":7166,"HD":7167,"erf":7168,"herstel":7169,"VRAAGD":7170,"studio":7171,"JS":7172,"verschijnen":7173,"effect":7174,"VU":7175,"gouden":7176,"slid":7177,"kenn":7178,"creet":7179,"Lit":7180,"maa":7181,"gevoerd":7182,"Canada":7183,"Red":7184,"Centrale":7185,"ijp":7186,"ikte":7187,"gereed":7188,"VERKOOP":7189,"toont":7190,"rechte":7191,"aya":7192,"Geld":7193,"202":7194,"Park":7195,"profit":7196,"RS":7197,"scherp":7198,"TELE":7199,"gracht":7200,"dame":7201,"verdiep":7202,"uitgebreide":7203,"recreatie":7204,"Delf":7205,"vijfde":7206,"Zeel":7207,"chef":7208,"Stre":7209,"gedachten":7210,"Beide":7211,"161":7212,"constru":7213,"tientallen":7214,"helpt":7215,"afd":7216,"286":7217,"telt":7218,"verklaard":7219,"Dames":7220,"Sparta":7221,"gestelde":7222,"ENTIE":7223,"GEVRAAGD":7224,"50c":7225,"kranten":7226,"PLO":7227,"pn":7228,"chts":7229,"concurrentie":7230,"media":7231,"overeenkomst":7232,"Mex":7233,"voorspel":7234,"gemiddelde":7235,"relax":7236,"Geor":7237,"bewijzen":7238,"Org":7239,"loc":7240,"besloot":7241,"giro":7242,"hoeven":7243,"PRIJS":7244,"486":7245,"Tem":7246,"coördin":7247,"HAARLEM":7248,"procedure":7249,"Jag":7250,"Was":7251,"flex":7252,"rysler":7253,"yste":7254,"ateurs":7255,"fir":7256,"auwe":7257,"AH":7258,"Washington":7259,"STR":7260,"»,":7261,"hopen":7262,"SIER":7263,"nader":7264,"Ray":7265,"Ondanks":7266,"Hoogeveen":7267,"Lie":7268,"itische":7269,"netto":7270,"Rome":7271,"verliezen":7272,"Mun":7273,"Zuider":7274,"toel":7275,"Moo":7276,"MEDE":7277,"cla":7278,"ques":7279,"misdaad":7280,"recente":7281,"—^":7282,"zogenaam":7283,"reed":7284,"Zelfs":7285,"Eur":7286,"congres":7287,"SH":7288,"openbare":7289,"Reis":7290,"nest":7291,"6950":7292,"gf":7293,"162":7294,"665":7295,"aankoop":7296,"verantwoordelijkheid":7297,"gevende":7298,"TOP":7299,"azijn":7300,"Thom":7301,"teer":7302,"hoewel":7303,"Jur":7304,"cha":7305,"cho":7306,"Nicol":7307,"ams":7308,"Misschien":7309,"■:":7310,"rechtstreeks":7311,"positief":7312,"Sad":7313,"obiel":7314,"Bols":7315,"feld":7316,"taken":7317,"sels":7318,"3950":7319,"plaatselijke":7320,"doorgaan":7321,"City":7322,"achtergrond":7323,"BEN":7324,"Luxem":7325,"horst":7326,"absoluut":7327,"tol":7328,"426":7329,"vergoeding":7330,"reageren":7331,"overname":7332,"probeert":7333,"Courant":7334,"Act":7335,"landelijke":7336,"Kal":7337,"kanten":7338,"omst":7339,"stamb":7340,"WOON":7341,"emot":7342,"bedragen":7343,"Report":7344,"asie":7345,"draaien":7346,"ertje":7347,"Dokkum":7348,"zekerheid":7349,"genote":7350,"bespre":7351,"uite":7352,"Hendrik":7353,"aanleg":7354,"kings":7355,"Nut":7356,"ec":7357,"STEN":7358,"iders":7359,"Fonds":7360,"0490":7361,"Camb":7362,"olla":7363,"Jaap":7364,"Lot":7365,"Tussen":7366,"afkomstig":7367,"_m":7368,"irt":7369,"verricht":7370,"eense":7371,"seerd":7372,"groten":7373,"onderd":7374,"gj":7375,"straatweg":7376,"Mini":7377,"528":7378,"defensie":7379,"markten":7380,"Pra":7381,"Av":7382,"niks":7383,"2400":7384,"ervoor":7385,"Pi":7386,"Rond":7387,"voorziening":7388,"Pla":7389,"thema":7390,"333":7391,"reparatie":7392,"Buitenlandse":7393,"verbonden":7394,"onafhankelijk":7395,"NEW":7396,"voornamelijk":7397,"bosch":7398,"Zelf":7399,"Andr":7400,"illeg":7401,"arbeidsvoorwaarden":7402,"beslag":7403,"Hot":7404,"schro":7405,"249":7406,"ata":7407,"3250":7408,"stien":7409,"flfl":7410,"423":7411,"ondernemers":7412,"eilanden":7413,"Jr":7414,"schoenen":7415,"zaakt":7416,"Zeeland":7417,"Theater":7418,"XE":7419,"Tre":7420,"Hand":7421,"Marcel":7422,"blan":7423,"graf":7424,"beschouwen":7425,"495":7426,"leken":7427,"gebeurde":7428,"Sovjetunie":7429,"verrassen":7430,"7950":7431,"prachtig":7432,"assist":7433,"zorgzame":7434,"lO":7435,"2750":7436,"agent":7437,"aangehouden":7438,"bungalows":7439,"wester":7440,"benzine":7441,"2250":7442,"Fokker":7443,"orgel":7444,"aanpak":7445,"Fries":7446,"guldens":7447,"Joure":7448,"ouderen":7449,"Tor":7450,"import":7451,"kleed":7452,"urg":7453,"FOR":7454,"advocaat":7455,"sweg":7456,"pil":7457,"5950":7458,"Beet":7459,"Wiel":7460,"onmogelijk":7461,"LON":7462,"hatsu":7463,"Donderdag":7464,"ramp":7465,"ieuze":7466,"steerd":7467,"204":7468,"ijns":7469,"bedraagt":7470,"blond":7471,"SPEURDERS":7472,"<*":7473,"Rust":7474,"ïne":7475,"tekening":7476,"gepresen":7477,"slaapkamer":7478,"214":7479,"bijkeuken":7480,"cks":7481,"Brouw":7482,"184":7483,"noorden":7484,"accesso":7485,"Ita":7486,"IIII":7487,"communicatie":7488,"Jack":7489,"bloem":7490,"gespeci":7491,"agenten":7492,"betaalt":7493,"centen":7494,"ited":7495,"nieuwst":7496,"tonen":7497,"NEDL":7498,"wandel":7499,"307":7500,"capac":7501,"Leeftijd":7502,"era":7503,"MENT":7504,"Ty":7505,"ledere":7506,"Sel":7507,"arissen":7508,"312":7509,"rië":7510,"454":7511,"Os":7512,"zul":7513,"TON":7514,"gebouwen":7515,"PI":7516,"conflict":7517,"eeps":7518,"DIJK":7519,"arg":7520,"diend":7521,"KK":7522,"aanvang":7523,"Anton":7524,"vari":7525,"branche":7526,"Des":7527,"vacat":7528,"outh":7529,"rijdt":7530,"mmel":7531,"kip":7532,"umer":7533,"';":7534,"Tev":7535,"zover":7536,"lant":7537,"Lange":7538,"PRI":7539,"balkon":7540,"Ag":7541,"verspre":7542,"melo":7543,"Cambuur":7544,"inform":7545,"bevat":7546,"garije":7547,"paarden":7548,"EREN":7549,"eerden":7550,"Cla":7551,"neke":7552,"Schie":7553,"1700":7554,"Limburgse":7555,"porte":7556,"zorgt":7557,"daten":7558,"atoren":7559,"VAL":7560,"Kamp":7561,"ichten":7562,"vervolg":7563,"2200":7564,"bt":7565,"plant":7566,"Tilburg":7567,"aro":7568,"vuil":7569,"m2":7570,"bureaus":7571,"deden":7572,"_________":7573,"voerde":7574,"TC":7575,"Spa":7576,"Tim":7577,"XX":7578,"ELE":7579,"Lek":7580,"beschikken":7581,"Kees":7582,"PUPS":7583,"autoriteiten":7584,"woude":7585,"drin":7586,"zitting":7587,"Arme":7588,"veiling":7589,"lift":7590,"346":7591,"LAN":7592,"verbetering":7593,"Not":7594,"verf":7595,"436":7596,"muur":7597,"gestolen":7598,"modern":7599,"gemeenter":7600,"bereiding":7601,"aanstaande":7602,"apparaat":7603,"Toeschouwers":7604,"wellicht":7605,"actualiteiten":7606,"Jeltsin":7607,"KOERS":7608,"sloot":7609,"ergens":7610,"loze":7611,"Vide":7612,"ments":7613,"335":7614,"beë":7615,"gewond":7616,"tege":7617,"omroep":7618,"René":7619,"Maur":7620,"MEU":7621,"lease":7622,"nmb":7623,"226":7624,"Vrouw":7625,"siaste":7626,"oorzaak":7627,"gedacht":7628,"232":7629,"achtige":7630,"Speurder":7631,"ckey":7632,"inrichting":7633,"ioneel":7634,"Daihatsu":7635,"aanslag":7636,"itas":7637,"Wagen":7638,"regerings":7639,"\"\"■":7640,"onderwerp":7641,"Lee":7642,"wint":7643,"kwalific":7644,"Mensen":7645,"GTS":7646,"YO":7647,"twijfel":7648,"Terwijl":7649,"oosheid":7650,"SK":7651,"Adri":7652,"rl":7653,"Schil":7654,"NN":7655,"gemiddeld":7656,"Kleine":7657,"tand":7658,"FRAN":7659,"tarieven":7660,"hypotheek":7661,"bbe":7662,"wethouder":7663,"Weerbericht":7664,"gemeld":7665,"lach":7666,"order":7667,"ASTRICHT":7668,"sneeuw":7669,"::::":7670,"Ach":7671,"bladen":7672,"242":7673,"weliswaar":7674,"WIJK":7675,"voe":7676,"zeilen":7677,"Roel":7678,"verboden":7679,"klok":7680,"bezorgd":7681,"scp":7682,"Eén":7683,"vatting":7684,"droog":7685,"lek":7686,"1979":7687,"331":7688,"behoort":7689,"doordat":7690,"afgesloten":7691,"LOK":7692,"euze":7693,"9000":7694,"413":7695,"BOO":7696,"geboorte":7697,"keerd":7698,"jk":7699,"waarvoor":7700,"TH":7701,"planten":7702,"gemeu":7703,"01720":7704,"opgegeven":7705,"matige":7706,"reeks":7707,"verbouw":7708,"dir":7709,"aamse":7710,"inke":7711,"onmiddellijk":7712,"Cari":7713,"loo":7714,"aanvaar":7715,"Rente":7716,"Vorig":7717,"EI":7718,"^^^^^":7719,"Financi":7720,"George":7721,"krediet":7722,"tachtig":7723,"Clint":7724,"430":7725,"Ein":7726,"Bron":7727,"Groene":7728,"oppositie":7729,"334":7730,"hebbers":7731,"scherm":7732,"intens":7733,"eerlijk":7734,"vaker":7735,"4950":7736,"steunen":7737,"geheim":7738,"vru":7739,"Heeft":7740,"woont":7741,"Aanvang":7742,"IEF":7743,"winnaars":7744,"fouten":7745,"Luxemburg":7746,"WON":7747,"ems":7748,"etsen":7749,"business":7750,"coal":7751,"lee":7752,"vreemd":7753,"ili":7754,"Corolla":7755,"ORANJE":7756,"nik":7757,"Dieren":7758,"mentaar":7759,"BET":7760,"218":7761,"weder":7762,"Laser":7763,"ALL":7764,"ledereen":7765,"RG":7766,"CS":7767,"Wolf":7768,"Vog":7769,"spier":7770,"cieel":7771,"Zieken":7772,"MAASTRICHT":7773,"UI":7774,"Verkoop":7775,"hoff":7776,"sup":7777,"Universiteit":7778,"Up":7779,"omer":7780,"ous":7781,"eventuele":7782,"accessoires":7783,"wicht":7784,"mg":7785,"maakten":7786,"geldig":7787,"Via":7788,"hoeve":7789,"Enkele":7790,"Geert":7791,"bestemming":7792,"functies":7793,"ror":7794,"013":7795,"snelheid":7796,"wetenschap":7797,"1950":7798,"APP":7799,"zorgde":7800,"trouwens":7801,"Sing":7802,"volwassen":7803,"Amstelveen":7804,"ww":7805,"„„":7806,"Herman":7807,"KW":7808,"wenen":7809,"NEL":7810,"behandeld":7811,"baby":7812,"EER":7813,"moslim":7814,"haalt":7815,"vluchten":7816,"477":7817,"uu":7818,"Neem":7819,"VAKANTIE":7820,"exclusieve":7821,"Vijf":7822,"tenminste":7823,"stim":7824,"verdeeld":7825,"9500":7826,"geïnteresse":7827,"VROUW":7828,"uar":7829,"leverde":7830,"POST":7831,"Bul":7832,"HOF":7833,"SCHA":7834,"Bay":7835,"NY":7836,"Joop":7837,"Duitsers":7838,"6000":7839,"veranderd":7840,"vrijwillig":7841,"langdur":7842,"fusie":7843,"Brieven":7844,"Winter":7845,"verdwijnen":7846,"nota":7847,",^":7848,"Palestijnse":7849,"opbouw":7850,"dent":7851,"411":7852,"********":7853,"keerde":7854,"geschoten":7855,"__________":7856,"wijken":7857,"Torn":7858,"outer":7859,"ADVERT":7860,"RUIM":7861,"schede":7862,"Postcode":7863,"meldde":7864,"gezins":7865,"228":7866,"Oh":7867,"193":7868,"otte":7869,"GLS":7870,"437":7871,"Nieuwsblad":7872,"starten":7873,"raken":7874,"stort":7875,"KUN":7876,"schul":7877,"principe":7878,"Vene":7879,"plechtige":7880,"rop":7881,"obi":7882,"Schoon":7883,"afels":7884,"lessen":7885,"heffing":7886,"vroegere":7887,"kach":7888,"Rabo":7889,"dreigt":7890,"chal":7891,"vestigingen":7892,"wissel":7893,"huisvest":7894,"molen":7895,"malen":7896,"gebeurd":7897,"ideeën":7898,"overde":7899,"Fortuna":7900,"jer":7901,"HAND":7902,"fat":7903,"stede":7904,"ontbijt":7905,"klep":7906,"gestart":7907,"schrijving":7908,"tegenwoordig":7909,"tering":7910,"uiteraard":7911,"Ban":7912,"verbod":7913,"orden":7914,"Saddam":7915,"agao":7916,"SIERRA":7917,"/.":7918,"daling":7919,"GD":7920,"vag":7921,"schappelijk":7922,"Mic":7923,"1750":7924,"verdachte":7925,"aangekond":7926,"Regionaal":7927,"inbouw":7928,"Nou":7929,"medic":7930,"kabel":7931,"standaard":7932,"VPRO":7933,"Fred":7934,"Tip":7935,"lied":7936,"bomen":7937,"toeristen":7938,"alistische":7939,"christelijke":7940,"MC":7941,"ƒ10":7942,"AVAN":7943,"èn":7944,"verbind":7945,"dings":7946,"asse":7947,"480":7948,"schappelijke":7949,"Hoekstra":7950,"sim":7951,"teit":7952,"data":7953,"Alk":7954,"gesto":7955,"Derde":7956,"ital":7957,"exploit":7958,"vieren":7959,"heten":7960,"Olympische":7961,"mislu":7962,"uc":7963,"Kore":7964,"Gerrit":7965,"raads":7966,"cao":7967,"veertien":7968,"415":7969,"verminder":7970,"Speurders":7971,"~^":7972,"baarheid":7973,"duurt":7974,"knie":7975,"Zeven":7976,"enthousiaste":7977,"blessu":7978,"indien":7979,"AUTOMAAT":7980,"eiste":7981,"203":7982,"UL":7983,"Maat":7984,"Chev":7985,"466":7986,"regionale":7987,"pal":7988,"vogel":7989,"Valkenburg":7990,"Curagao":7991,"zwager":7992,"occasions":7993,"Antwoord":7994,"kshow":7995,"%,":7996,"uiteen":7997,"Enschede":7998,"wild":7999,"beiden":8000,"gezand":8001,"alco":8002,"slip":8003,"dos":8004,"expositie":8005,"wereldkampioen":8006,"Dal":8007,"ningen":8008,"ontwor":8009,"Mee":8010,"Antilli":8011,"HOU":8012,"Jn":8013,"bul":8014,"breekt":8015,"Australische":8016,"veroordeeld":8017,"voorstelling":8018,"Geopend":8019,"636":8020,"verslaggevers":8021,"adressen":8022,"zogenaamde":8023,"475":8024,"schiet":8025,"777":8026,"4750":8027,"sauna":8028,"Provin":8029,"gerekend":8030,"makers":8031,"Garage":8032,"Makelaardij":8033,"ami":8034,"pie":8035,"Kol":8036,"Mooie":8037,"\"-":8038,"mevr":8039,"Sto":8040,"achterstand":8041,"bud":8042,"obil":8043,"05910":8044,"Koninklijke":8045,"appel":8046,"Wolve":8047,"leen":8048,"meerdere":8049,"02155":8050,"tn":8051,"Quick":8052,"Pier":8053,"noot":8054,"verdwenen":8055,"kok":8056,"IDS":8057,"enorm":8058,"Hei":8059,"behoud":8060,"_M":8061,"luister":8062,"Scha":8063,"deleg":8064,"predi":8065,"seconden":8066,"Bure":8067,"209":8068,"bakken":8069,"05980":8070,"minimum":8071,"erot":8072,"rd":8073,"berts":8074,"vogels":8075,"WOL":8076,"soldaten":8077,"draagt":8078,"opzet":8079,"PAN":8080,"veranderen":8081,"daan":8082,"619":8083,"Britt":8084,"Eg":8085,"mere":8086,"vriendelijk":8087,"rondom":8088,"Verd":8089,"Turkije":8090,"Delfzijl":8091,"inne":8092,"Zeker":8093,"675":8094,"sein":8095,"vice":8096,"schaf":8097,"bestand":8098,"Noorder":8099,"Uniek":8100,"etappe":8101,"dende":8102,"feder":8103,"gepresenteerd":8104,"tiende":8105,"Civ":8106,"hei":8107,"reu":8108,"Mep":8109,"opgave":8110,"Leo":8111,"abor":8112,"ORK":8113,"Cr":8114,"volop":8115,"Swi":8116,"scheiding":8117,"flexi":8118,"Cru":8119,"stoppen":8120,"Schrij":8121,"Peters":8122,"steld":8123,"wets":8124,"Lar":8125,"9e":8126,"namens":8127,"ITS":8128,"Haagse":8129,"vlakte":8130,"Hoogezand":8131,"inzicht":8132,"ilers":8133,"My":8134,"bediening":8135,"Bag":8136,"Intern":8137,"Indien":8138,"rj":8139,"Ronde":8140,"fit":8141,"AULT":8142,"Veronica":8143,"champ":8144,"Kie":8145,"418":8146,"inn":8147,"genen":8148,"Travel":8149,"meet":8150,"298":8151,"NMB":8152,"cle":8153,"spoiler":8154,"meldt":8155,"lad":8156,"riolet":8157,"nadere":8158,"Mannen":8159,"MARKT":8160,"mn":8161,"«.":8162,"NER":8163,"_t":8164,"forse":8165,"hum":8166,"André":8167,"239":8168,"cs":8169,"Vitesse":8170,"CBS":8171,"uitzend":8172,"vangel":8173,"You":8174,"voorbereiding":8175,"Galant":8176,"athon":8177,"mmmmmmmm":8178,"BW":8179,"bok":8180,"tegenstander":8181,"rg":8182,"Links":8183,"soap":8184,"fde":8185,"systemen":8186,"appartement":8187,"droom":8188,"rix":8189,"tegemoet":8190,"MOO":8191,"good":8192,"stan":8193,"schep":8194,"Lada":8195,"knap":8196,"BOER":8197,"hangt":8198,"minstens":8199,"kennisgeving":8200,"redenen":8201,"mac":8202,"ub":8203,"sprogramma":8204,"faill":8205,"voll":8206,"beth":8207,"scheiden":8208,"zeventig":8209,"durend":8210,"sportv":8211,"buitenl":8212,"tellen":8213,"definitief":8214,"India":8215,"igden":8216,"verzekerd":8217,"sla":8218,"instituut":8219,"royale":8220,"aula":8221,"honden":8222,"Heel":8223,"inten":8224,"Antwerpen":8225,"ops":8226,"materialen":8227,"wekelijk":8228,"ctief":8229,"Tw":8230,"Fle":8231,"Produ":8232,"Ni":8233,"geboden":8234,"camera":8235,"onderzoeken":8236,"Elect":8237,"Canade":8238,"interview":8239,"Nederlander":8240,"egorie":8241,"oudere":8242,"malig":8243,"ineken":8244,"Willi":8245,"benen":8246,"zanger":8247,"extre":8248,"Alkmaar":8249,"Swift":8250,"opvol":8251,"zonde":8252,"|^":8253,"aco":8254,"fraai":8255,"hervorm":8256,"ÉÉ":8257,"diens":8258,"sil":8259,"stamboom":8260,"UB":8261,"lik":8262,"STO":8263,"coalitie":8264,"veiligheids":8265,"groeien":8266,"Anders":8267,"Avond":8268,"Jen":8269,"Pf":8270,"SUPER":8271,"nei":8272,"ICHT":8273,"szins":8274,"Zwitserland":8275,"tarief":8276,"dend":8277,"iaal":8278,"aantrekkelijke":8279,"kra":8280,"schut":8281,"schitterende":8282,"9950":8283,"Panda":8284,"alisme":8285,"Politie":8286,"RENAULT":8287,"Stat":8288,"inkomsten":8289,"heken":8290,"eigenschappen":8291,"crematieplechtigheid":8292,"RY":8293,"778":8294,"Gri":8295,"politici":8296,"ange":8297,"opbreng":8298,"MID":8299,"Wm":8300,"lijf":8301,"053":8302,"eth":8303,"Victor":8304,"SERVICE":8305,"tekenen":8306,"onzeker":8307,"Royal":8308,"debat":8309,"bekendgemaakt":8310,"Ged":8311,"stijds":8312,"Breuk":8313,"Arabische":8314,"dema":8315,"Wolvega":8316,"288":8317,"Fo":8318,"lagere":8319,"Chinese":8320,"aantrekkelijk":8321,"173":8322,"felicit":8323,"MH":8324,"4250":8325,"ÏÏ":8326,"oorlogs":8327,"iviteit":8328,"Tha":8329,"Naties":8330,"uister":8331,"ingo":8332,"fu":8333,"aanvankelijk":8334,"dela":8335,"dracht":8336,"veroorzaakt":8337,"Voetbal":8338,"vertelde":8339,"overheids":8340,"reportage":8341,"sloeg":8342,"8030":8343,"YD":8344,"TURBO":8345,"schuldig":8346,"roll":8347,"JOHAN":8348,"bese":8349,"WINK":8350,"parochiekerk":8351,"Andre":8352,"object":8353,"elling":8354,"tempo":8355,"385":8356,"infor":8357,"raden":8358,"geschak":8359,"1978":8360,"Chrysler":8361,"If":8362,"staf":8363,"Heil":8364,"medeleven":8365,"sum":8366,"Haas":8367,"legde":8368,"dikke":8369,"kool":8370,"Pracht":8371,"478":8372,"Mu":8373,"Norm":8374,"02207":8375,"haast":8376,"Bureau":8377,"vern":8378,"leerd":8379,"represent":8380,"dé":8381,"oproep":8382,"evenals":8383,"arran":8384,"CENTRUM":8385,"Leu":8386,"fact":8387,"gehandicap":8388,"ASS":8389,"geloo":8390,"passag":8391,"458":8392,"349":8393,"Daardoor":8394,"Angel":8395,"Bri":8396,"LIJN":8397,"ALLE":8398,"686":8399,"echtgenote":8400,"PB":8401,"relig":8402,"Teken":8403,"presentatie":8404,"steek":8405,"cursussen":8406,"turbo":8407,"nek":8408,"gerest":8409,"nv":8410,"DERS":8411,"verlichting":8412,"Sollicit":8413,"WAS":8414,"fabrie":8415,"MAT":8416,"standpunt":8417,"BAK":8418,"Woord":8419,"imm":8420,"Spelen":8421,"Clinton":8422,"OOL":8423,"vormt":8424,"dief":8425,"Hit":8426,"REK":8427,"command":8428,"verhouding":8429,"Commissie":8430,"parte":8431,"KOP":8432,"l_":8433,"Dy":8434,"perfect":8435,"magazijn":8436,"ontslag":8437,"CRE":8438,"890":8439,"Woning":8440,"bum":8441,"voeten":8442,"ursus":8443,"SJ":8444,"zakelijke":8445,"Spaar":8446,"zichte":8447,"holieke":8448,"oul":8449,"contant":8450,"gebeurten":8451,"WÊ":8452,"uitvoeren":8453,"Tol":8454,"«*":8455,"301":8456,"Resta":8457,"cours":8458,"Gisteren":8459,"Mir":8460,"Madrid":8461,"bm":8462,"rans":8463,"hagen":8464,"kas":8465,"Kinderen":8466,"171":8467,"Tru":8468,"Bem":8469,"wier":8470,"ondernemingen":8471,"zelfstandige":8472,"MTS":8473,"KANT":8474,"Organis":8475,"bezwaren":8476,"kennelijk":8477,"289":8478,"betrekking":8479,"verslagen":8480,"uizen":8481,"Vri":8482,"talen":8483,"ssing":8484,"jurid":8485,"Tok":8486,"MAAR":8487,"ologisch":8488,"rollen":8489,"POL":8490,"DC":8491,"tim":8492,"verandering":8493,"night":8494,"allel":8495,"Mov":8496,"\"\"•":8497,"zijds":8498,"adviseur":8499,"Azi":8500,"SX":8501,"abele":8502,"SCHIP":8503,"Hoorn":8504,"reerd":8505,"nieuwbouw":8506,"jaarlijkse":8507,"instantie":8508,"pups":8509,"bird":8510,"DIEN":8511,"demonstr":8512,"deelnemen":8513,"DAN":8514,"623":8515,"text":8516,"UNI":8517,"ffende":8518,"slank":8519,"geschool":8520,"brak":8521,"bejaarden":8522,"928":8523,"zakken":8524,"verdieping":8525,"Michel":8526,"Fu":8527,"cer":8528,"Gods":8529,"lieten":8530,"NAC":8531,"Grieken":8532,"budget":8533,"Fry":8534,"RUIS":8535,"Et":8536,"Onderwijs":8537,"ureel":8538,"soe":8539,"998":8540,"Australië":8541,"positieve":8542,"Wilhelmin":8543,"schoppen":8544,"lengte":8545,"Rap":8546,"eenheid":8547,"sponsor":8548,"vlag":8549,"Laatste":8550,"gezelschap":8551,"middags":8552,"architect":8553,"furt":8554,"doelman":8555,"Overigens":8556,"peil":8557,"feite":8558,"Ses":8559,"HOVEN":8560,"besteed":8561,"werkende":8562,"duo":8563,"opzichte":8564,"rabo":8565,"assa":8566,"Inj":8567,"Westen":8568,"utt":8569,"word":8570,"bijbel":8571,"Zes":8572,"Ruime":8573,"ƒ18":8574,"agenda":8575,"onvoldoende":8576,"Ph":8577,"8750":8578,"Marok":8579,"jap":8580,"Deel":8581,"524":8582,"°'":8583,"Zowel":8584,"CARAVAN":8585,"bezoeken":8586,"prins":8587,"stude":8588,"bestrij":8589,"ingezet":8590,"hemel":8591,"landelijk":8592,"oods":8593,"kerij":8594,"geliefde":8595,"Pullman":8596,"serieus":8597,"OB":8598,"excurs":8599,"atlet":8600,"voorbereid":8601,"SPECI":8602,"ae":8603,"Aus":8604,"Tijd":8605,"HUIZEN":8606,"wc":8607,"Bj":8608,"alu":8609,"getrouw":8610,"Leon":8611,"neus":8612,"handeling":8613,"dram":8614,"________________________________":8615,"rassen":8616,"Blan":8617,"verenigingen":8618,"Suriname":8619,"Argent":8620,"ness":8621,"will":8622,"Nadat":8623,"beslissen":8624,"ition":8625,"trop":8626,"makel":8627,"vliegtuigen":8628,"WIJ":8629,"Sf":8630,"iller":8631,"imatie":8632,"langere":8633,"Far":8634,"parket":8635,"Combi":8636,"groene":8637,"vuldig":8638,"Maa":8639,"IPS":8640,"werkgelegenheid":8641,"verkeert":8642,"ell":8643,"uwer":8644,"047":8645,"365":8646,"PET":8647,"roefd":8648,"computers":8649,"VVV":8650,"linker":8651,"buff":8652,"springen":8653,"interessante":8654,"rendement":8655,"zige":8656,"fors":8657,"favor":8658,"dichter":8659,"card":8660,"iat":8661,"regi":8662,"hoof":8663,"Tom":8664,"BT":8665,"standen":8666,"Automobiel":8667,"vanmorgen":8668,"lekkere":8669,"exempl":8670,"256":8671,"erslag":8672,"economisch":8673,"behoorlijk":8674,"lux":8675,"201":8676,"stok":8677,"ITT":8678,"yt":8679,"435":8680,"Zaan":8681,"normale":8682,"Center":8683,"412":8684,"Cult":8685,"besprekingen":8686,"brons":8687,"verdriet":8688,"■•":8689,"vertrekken":8690,"holt":8691,"round":8692,"Med":8693,"_T":8694,"KLASSE":8695,"Linden":8696,"toren":8697,"git":8698,"leidde":8699,"bekracht":8700,"verhoo":8701,"emar":8702,"vige":8703,"MOR":8704,"Kem":8705,"keurig":8706,"Romeo":8707,"ontmoeting":8708,"vleu":8709,"zacht":8710,"ikaanse":8711,"03200":8712,"Waal":8713,"vertegenwoordigers":8714,"gereden":8715,"Ronald":8716,"kampen":8717,"dekking":8718,"destijds":8719,"achte":8720,"vliet":8721,"Santa":8722,"voorzicht":8723,"uist":8724,"atorium":8725,"vervuil":8726,"CAO":8727,"brandweer":8728,"Ruud":8729,"speur":8730,"Rijksweg":8731,"afrik":8732,"456":8733,"dei":8734,"HONDA":8735,"lokatie":8736,"stab":8737,"^,":8738,"rok":8739,"vliegen":8740,"ontdekt":8741,"cul":8742,"Hus":8743,"ƒ21":8744,"PORT":8745,"prote":8746,"Oe":8747,"CARS":8748,"lim":8749,"■.":8750,"aanmerking":8751,"seksu":8752,"gepl":8753,"stacaravans":8754,"BERT":8755,"ADVERTENTIE":8756,"gezondheidszorg":8757,"sor":8758,"itein":8759,"247":8760,"Beat":8761,"Nl":8762,"daal":8763,"ovens":8764,"werkings":8765,"schapen":8766,"ondui":8767,"0595":8768,"RADE":8769,"sleut":8770,"aanzienlijk":8771,"zolang":8772,"toonde":8773,"Aals":8774,"Sr":8775,"aires":8776,"ontwikkelen":8777,"roest":8778,"strieter":8779,"Fie":8780,"geslaagd":8781,"Sara":8782,"stemd":8783,"Olde":8784,"182":8785,"contain":8786,"CEL":8787,"cade":8788,"tru":8789,"Pb":8790,"goedkoper":8791,"jt":8792,"rice":8793,"LD":8794,"416":8795,"bondscoach":8796,"BN":8797,"Palestijnen":8798,"eldoor":8799,"vul":8800,"hockey":8801,"fisc":8802,"Mei":8803,"zum":8804,"kno":8805,"6V":8806,"NAVO":8807,"Olie":8808,"Rin":8809,"Chan":8810,"keuk":8811,"streven":8812,"02977":8813,"georganiseerd":8814,"blauwmet":8815,"Extra":8816,"Goud":8817,"heuvel":8818,"ringen":8819,"Serviërs":8820,"662":8821,"antische":8822,"asten":8823,"minst":8824,"JAC":8825,"FORD":8826,"Nach":8827,"ONS":8828,"conclusie":8829,"zegels":8830,"riep":8831,"warme":8832,"drukken":8833,"klassieke":8834,"Dun":8835,"agers":8836,"sraad":8837,"Fest":8838,"Blauw":8839,"thans":8840,"beton":8841,"172":8842,"JAAR":8843,"Behalve":8844,"ptie":8845,"ito":8846,"overtuigd":8847,"Bonds":8848,"kaas":8849,"HOTEL":8850,"iiiiiiii":8851,"ely":8852,"kapitaal":8853,"ingrijpen":8854,"meerd":8855,"uitgang":8856,"EKER":8857,"Bovag":8858,"Postbank":8859,"genees":8860,"Direct":8861,"holl":8862,"02290":8863,"metaal":8864,"REIZEN":8865,"wars":8866,"prop":8867,"centra":8868,">^":8869,"Helder":8870,"MAZ":8871,"gebonden":8872,"ooid":8873,"rongen":8874,"HORST":8875,"Gede":8876,"bleven":8877,"404":8878,"isol":8879,"categorie":8880,"NK":8881,"nij":8882,"klassement":8883,"onroerend":8884,"kunststof":8885,"js":8886,"iërra":8887,"head":8888,"ND":8889,"mu":8890,"BH":8891,"RIO":8892,"695":8893,"ijker":8894,"daarover":8895,"abonnement":8896,"schieten":8897,"319":8898,"werkelijkheid":8899,"smaak":8900,"bemiddeling":8901,"Siërra":8902,"indu":8903,"Evt":8904,"755":8905,"cruise":8906,"Gereformeerde":8907,"«^":8908,"Kerken":8909,"610":8910,"beleg":8911,"draait":8912,"borden":8913,"secretaresse":8914,"dure":8915,"gebase":8916,"Meppel":8917,"cies":8918,"ICA":8919,"lers":8920,"Night":8921,"Café":8922,"zestien":8923,"Jazz":8924,"fantast":8925,"gaar":8926,"unch":8927,"betreffende":8928,"schriften":8929,"amateur":8930,"NVB":8931,"Leer":8932,"ZATER":8933,"echtpaar":8934,"App":8935,"\\.":8936,"adver":8937,"stelsel":8938,"ISCHE":8939,"Uiter":8940,"discreet":8941,"Rog":8942,"ford":8943,"gou":8944,"historische":8945,"raakt":8946,"Fen":8947,"rat":8948,"rede":8949,"inch":8950,"diner":8951,"Bill":8952,"Wl":8953,"mir":8954,"237":8955,"treedt":8956,"contin":8957,"TAR":8958,"Franc":8959,"Deut":8960,"pau":8961,"DF":8962,"Jetta":8963,"treffen":8964,"akel":8965,"febr":8966,"---":8967,"NES":8968,"SCHO":8969,"Simon":8970,"merkelijk":8971,"loper":8972,"ora":8973,"ieerd":8974,"sig":8975,"Schol":8976,"bileum":8977,"sug":8978,"6500":8979,"gestegen":8980,"elektron":8981,"donkerblauw":8982,"Fel":8983,"ELD":8984,">.":8985,"Special":8986,"Dl":8987,"605":8988,"vallende":8989,"rijks":8990,"asielzoekers":8991,"IF":8992,"boodschap":8993,"gestoken":8994,"ally":8995,"lezers":8996,"wisseling":8997,"vic":8998,"Maak":8999,"Pot":9000,"YA":9001,"viering":9002,"05908":9003,"wood":9004,"Document":9005,"ORANJESTAD":9006,"under":9007,"Vaste":9008,"GTI":9009,"»*":9010,"gler":9011,"mest":9012,"waaraan":9013,"OORT":9014,"ZATERDAG":9015,"POR":9016,"redacteur":9017,"particuliere":9018,"zagen":9019,"Venlo":9020,"oef":9021,"pleet":9022,"VELD":9023,"aki":9024,"restaur":9025,"neming":9026,"HOUT":9027,"Hill":9028,"BRT":9029,"obielen":9030,"ontsn":9031,"maatschappijen":9032,"Slechts":9033,"flinke":9034,"Marco":9035,"bussen":9036,"formul":9037,"elijkse":9038,"plee":9039,"tank":9040,"vanzelf":9041,"overledene":9042,"WATER":9043,"241":9044,"By":9045,"KAR":9046,"aaien":9047,"gezamenlijke":9048,"woonruimte":9049,"Kei":9050,"eldoorlog":9051,"irl":9052,"627":9053,"arische":9054,"ukt":9055,"BUN":9056,"Randstad":9057,"■*":9058,"kenning":9059,"wenst":9060,"repen":9061,"4e":9062,"ön":9063,"akers":9064,"Tennis":9065,"Simons":9066,"Griek":9067,"Veet":9068,"vrees":9069,"schaat":9070,"toeschouwers":9071,"moorden":9072,"bevor":9073,"zult":9074,"zoeker":9075,"KU":9076,"Mevr":9077,"special":9078,"NIEUWE":9079,"zuin":9080,"gehoord":9081,"WM":9082,"abon":9083,"alsof":9084,"Slot":9085,"deelde":9086,"tsj":9087,"opende":9088,"immen":9089,"herinn":9090,"311":9091,"gedeeld":9092,".-;":9093,"bewind":9094,"Rad":9095,"levard":9096,"HOOFD":9097,"assort":9098,"Roemen":9099,"Almere":9100,"PLA":9101,"gezag":9102,"proje":9103,"314":9104,"Cher":9105,"zone":9106,"Kop":9107,".-,":9108,"bezorg":9109,"sexkontakt":9110,"sin":9111,"komend":9112,"opzicht":9113,"HEM":9114,"velden":9115,"gn":9116,"5500":9117,"eeuwen":9118,"oloog":9119,"organiseert":9120,"Jt":9121,"stip":9122,"slaat":9123,"KET":9124,"degelijk":9125,"Pel":9126,"bevrij":9127,"afl":9128,"MAZDA":9129,"Herv":9130,"aldaar":9131,"ey":9132,"Gesch":9133,"medewerk":9134,"DIE":9135,"kui":9136,"handelaren":9137,"leeuw":9138,"Eerst":9139,"koopt":9140,"252":9141,"Bob":9142,"terugkeer":9143,"bruto":9144,"AFP":9145,"lloyd":9146,"LL":9147,"actieve":9148,"moeilijke":9149,"College":9150,"Eric":9151,"organ":9152,"ZEE":9153,"trots":9154,"»-":9155,"Barb":9156,"Oor":9157,"lopend":9158,"kopp":9159,"inium":9160,"voeding":9161,"nom":9162,"Management":9163,"bezicht":9164,"vielen":9165,"cassette":9166,"LOYD":9167,"organiseren":9168,"drank":9169,"jullie":9170,"Restaurant":9171,"voortdurend":9172,"ijzel":9173,"zake":9174,"smet":9175,"gebouwde":9176,"\\\\\\\\":9177,"Civic":9178,"sneller":9179,"strafschop":9180,"verniet":9181,"940":9182,"dels":9183,"omvat":9184,"bepalen":9185,"\".":9186,"harm":9187,"uitslag":9188,"gauw":9189,"Andrie":9190,"Internationale":9191,"Glas":9192,"343":9193,"gebleken":9194,"getuigen":9195,"liber":9196,"analy":9197,"verkeerde":9198,"BROEK":9199,"Regel":9200,"PAL":9201,"luchtvaart":9202,"geïnteresseerd":9203,"ERA":9204,"att":9205,"lerland":9206,"atic":9207,"Inmiddels":9208,"stukje":9209,"istiek":9210,"644":9211,"verdrag":9212,"Speciale":9213,"KNVB":9214,"Tam":9215,"ITE":9216,"470":9217,"raket":9218,"Camping":9219,"Aanbie":9220,"Groning":9221,"tte":9222,"lasten":9223,"BX":9224,"___________":9225,"EEL":9226,"verwerking":9227,"Staat":9228,"postzegel":9229,"PART":9230,"Indi":9231,"ento":9232,"elefoon":9233,"Heb":9234,"535":9235,"introdu":9236,"8000":9237,"conserv":9238,"GLD":9239,"Thomas":9240,"Time":9241,"morgens":9242,"Kantoor":9243,"sportieve":9244,"__l":9245,"Cel":9246,"Aust":9247,"LOO":9248,"sportvlg":9249,"zaten":9250,"Colom":9251,"Meu":9252,"666":9253,"Lat":9254,"Soms":9255,"Sau":9256,".(":9257,"VJ":9258,"James":9259,"amma":9260,"delegatie":9261,"alog":9262,"Gert":9263,"Portug":9264,"Acht":9265,"■^":9266,"036":9267,"Computer":9268,"verzocht":9269,"485":9270,"roept":9271,"talent":9272,"Hir":9273,"wijfeld":9274,"Rock":9275,"730":9276,"houds":9277,"Servische":9278,"WINKEL":9279,"absolute":9280,"Spoor":9281,"volt":9282,"hetgeen":9283,"verzorgd":9284,"Jacht":9285,"fijne":9286,"Jeep":9287,"body":9288,"toestemming":9289,"Hatch":9290,"meten":9291,"aagt":9292,"AANBIE":9293,"opdrachten":9294,"_j":9295,"serieuze":9296,"strateg":9297,"lug":9298,"ZUID":9299,"347":9300,"vastgesteld":9301,"arrest":9302,"verne":9303,"kee":9304,"semi":9305,"noordelijke":9306,"score":9307,"Vrije":9308,"gebaseerd":9309,"/»":9310,"eend":9311,"coop":9312,"Akzo":9313,"aria":9314,"2o":9315,"Philip":9316,"Gun":9317,"êr":9318,"622":9319,"DG":9320,"avonden":9321,"laagste":9322,"endam":9323,"Kel":9324,"Schut":9325,"Rekord":9326,"play":9327,"duidelijke":9328,"daartoe":9329,"commentaar":9330,"Jaguar":9331,"sporen":9332,"fraude":9333,"roman":9334,"afdelingen":9335,"Sme":9336,"gespecialiseerd":9337,"Wadden":9338,"Leeuwen":9339,"555":9340,"_L":9341,"sprint":9342,"koningin":9343,"vakanties":9344,"enthousiast":9345,"ertijd":9346,"vestigde":9347,"homo":9348,"circuit":9349,"279":9350,"!'":9351,"velijk":9352,"boete":9353,"onom":9354,"337":9355,"avontuur":9356,"*\\":9357,"ican":9358,"illes":9359,"kunstenaars":9360,"claim":9361,"verstre":9362,"Dur":9363,"ALS":9364,"etage":9365,"geloven":9366,"Kuw":9367,"GB":9368,"MTV":9369,"faxen":9370,"bliotheek":9371,"ontslagen":9372,"jarenlang":9373,"ciaal":9374,"sthe":9375,"Mach":9376,"Ander":9377,"atieven":9378,"ARI":9379,"gangers":9380,"armen":9381,"slan":9382,"promotie":9383,"Aal":9384,"spont":9385,"CITRO":9386,"Zoek":9387,"auf":9388,"Fol":9389,"615":9390,"Oper":9391,"zr":9392,"ontvangst":9393,"Get":9394,"rijd":9395,"stimul":9396,"Veetra":9397,"880":9398,"tab":9399,"Turkse":9400,"alcohol":9401,"4x4":9402,"399":9403,"VERSUM":9404,"gifte":9405,"individuele":9406,"__r":9407,"ingericht":9408,"inzage":9409,"elec":9410,"inventaris":9411,"ekst":9412,"Democr":9413,"aanvaard":9414,"Sar":9415,"afger":9416,"laatst":9417,"Rent":9418,"haus":9419,"Band":9420,"groeiende":9421,"doorlock":9422,"itz":9423,"fast":9424,"antal":9425,"voelens":9426,"Anna":9427,"scoorde":9428,"ingeënt":9429,"Jk":9430,"ory":9431,"account":9432,"kiez":9433,"gs":9434,"Cost":9435,"02907":9436,"bs":9437,"voordelig":9438,"communistische":9439,"irts":9440,"journalist":9441,"Portugal":9442,"Kim":9443,"streep":9444,"overeenstemming":9445,"PM":9446,"Ref":9447,"Brazilië":9448,"Mare":9449,"Sesam":9450,"Griekse":9451,"ziens":9452,"antr":9453,"Gemeente":9454,"Kont":9455,"Ki":9456,"JI":9457,"MBO":9458,"Jeru":9459,"oli":9460,"Nico":9461,"tun":9462,"624":9463,"have":9464,"Sociale":9465,"Fris":9466,"fll":9467,"ënten":9468,"hierbij":9469,"HM":9470,"Hee":9471,"benad":9472,"elli":9473,"aging":9474,"blonde":9475,"fy":9476,"annië":9477,"Wed":9478,"bei":9479,"compon":9480,"splaat":9481,"jas":9482,"huisvesting":9483,"enigszins":9484,"B2":9485,"2100":9486,"gig":9487,"jier":9488,"Graven":9489,"low":9490,"islam":9491,"sprijs":9492,"Arbeids":9493,"anderhalf":9494,"PHI":9495,"abel":9496,"gemeenteraad":9497,"gramm":9498,"8500":9499,"strieterrein":9500,"508":9501,"Eelde":9502,"doek":9503,"zalem":9504,"verhoogd":9505,"jp":9506,"01718":9507,"ecu":9508,"oofd":9509,"issers":9510,"deelname":9511,"Hete":9512,"jury":9513,"Dutch":9514,"Exc":9515,"gedeputeerde":9516,"Daarvoor":9517,"LIN":9518,"aanvaarden":9519,"ffer":9520,"Oek":9521,"ƒ24":9522,"inele":9523,"GU":9524,"langzaam":9525,"kkende":9526,"Verzeker":9527,"grij":9528,"Vlie":9529,"verschenen":9530,"277":9531,"Geb":9532,"Gebr":9533,"Hollandse":9534,"eindigde":9535,"Hoofdstraat":9536,"munten":9537,"Korea":9538,"IJKE":9539,"05987":9540,"aters":9541,"uitdag":9542,"FM":9543,"international":9544,"bereiden":9545,"306":9546,"besluiten":9547,"Nass":9548,"tak":9549,"Sat":9550,"makkelijk":9551,"WEER":9552,"Reuter":9553,"hek":9554,"Geheel":9555,"ctieve":9556,"beno":9557,"dokter":9558,"veranderingen":9559,"voeg":9560,"metalen":9561,"Advies":9562,"jg":9563,"univers":9564,"Bang":9565,"Concert":9566,"doos":9567,"opgericht":9568,"gelo":9569,"BEURS":9570,"itaire":9571,"uitzending":9572,"living":9573,"Schiedam":9574,"uige":9575,"317":9576,"deskundigen":9577,"erin":9578,"Postma":9579,"fn":9580,"behulp":9581,"marketing":9582,"Rein":9583,"hoorn":9584,"ontwikkeld":9585,"Barbara":9586,"heerlijk":9587,"toepassing":9588,"geschakeld":9589,"Green":9590,"status":9591,"Uitzendbureau":9592,"lieden":9593,"Louis":9594,"Stadskanaal":9595,"hage":9596,"bril":9597,"Kuway":9598,"ventie":9599,"hes":9600,"installaties":9601,"meel":9602,"acul":9603,"perman":9604,"Linda":9605,"laren":9606,"Enige":9607,"leert":9608,"Volendam":9609,"huren":9610,"389":9611,"klassiek":9612,"Jeruzalem":9613,"Lut":9614,"rari":9615,"UREN":9616,"616":9617,"DD":9618,"wieler":9619,"lust":9620,"sprekend":9621,"7000":9622,"kwaad":9623,"patiënt":9624,"respectie":9625,"ysteem":9626,"gronden":9627,"bewinds":9628,"Pont":9629,"08385":9630,"passagiers":9631,"Bond":9632,"France":9633,"257":9634,"\"\"\"\"\"\"":9635,"Meisjes":9636,"_P":9637,"UNO":9638,"voortent":9639,"gedachte":9640,"Wind":9641,"2300":9642,"Milan":9643,"postb":9644,"roo":9645,"dreigen":9646,"Dagelijks":9647,"Bijl":9648,"PLE":9649,"hiervoor":9650,"concentr":9651,"administratieve":9652,"pleit":9653,"Rijs":9654,"hoogler":9655,"State":9656,"gunstig":9657,"ierd":9658,"Dre":9659,"iga":9660,"nergens":9661,"plast":9662,"GEZ":9663,"SR":9664,"VERZ":9665,"deen":9666,"KORT":9667,"drive":9668,"volgde":9669,"ijzer":9670,"313":9671,"ori":9672,"254":9673,"osto":9674,"FIE":9675,"verrichten":9676,"artie":9677,"ronden":9678,"Mercur":9679,"TOT":9680,"verhui":9681,"leningen":9682,"rock":9683,"Buro":9684,"ogelijk":9685,"1x":9686,"Gener":9687,"TELEFOON":9688,"OPEL":9689,"sens":9690,"Lekker":9691,"HILVERSUM":9692,"Calif":9693,"spl":9694,"__i":9695,"doch":9696,"onduidelijk":9697,"Famil":9698,"Kre":9699,"toestel":9700,"Veiligheid":9701,"Rou":9702,"hiervan":9703,"AREN":9704,"ƒl5":9705,"GES":9706,"IZ":9707,"rustige":9708,"Brittannië":9709,"entegen":9710,"reep":9711,"Ervaring":9712,"uitvaartdienst":9713,"zuig":9714,"industri":9715,"spieg":9716,"erings":9717,"Zijl":9718,"Duin":9719,"speed":9720,"spring":9721,"Bak":9722,"comité":9723,"Mexico":9724,"Scher":9725,"erkend":9726,"ƒ22":9727,"aanbevel":9728,"gla":9729,"Magazine":9730,"451":9731,"dertien":9732,"traditionele":9733,"opvolger":9734,"dagelijkse":9735,"schaft":9736,"1975":9737,"toenemende":9738,"party":9739,"ografie":9740,"eta":9741,"Incl":9742,"uitgesproken":9743,"Eerder":9744,":'":9745,"him":9746,"EE":9747,"lf":9748,"Direc":9749,"gevoelens":9750,"radi":9751,"verpl":9752,"079":9753,"SNE":9754,"gevaarlijk":9755,"DT":9756,"begeleid":9757,"NEDLLOYD":9758,"singen":9759,"'.\"":9760,"provincies":9761,"ugen":9762,"Fir":9763,"266":9764,"sterker":9765,"Home":9766,"Gy":9767,"DIG":9768,"draag":9769,"oni":9770,"onk":9771,"wr":9772,"Leek":9773,"erger":9774,"fruit":9775,"Black":9776,".!":9777,"drama":9778,"getoond":9779,"Brinkman":9780,"uiting":9781,"rolet":9782,"Stra":9783,"_n":9784,"Best":9785,"ƒ25":9786,"cherche":9787,"overgroot":9788,"nationaal":9789,"Bok":9790,"Hr":9791,"fee":9792,"vermelding":9793,"CHE":9794,"296":9795,"Heden":9796,"biz":9797,"voorlichting":9798,"voorjaar":9799,"garande":9800,"ugt":9801,"verzekerings":9802,"dun":9803,"oorspron":9804,"459":9805,"LONDEN":9806,"formule":9807,"Burgemeester":9808,"edie":9809,"wao":9810,"vreemde":9811,"beer":9812,"jor":9813,"interne":9814,"9o":9815,"269":9816,"465":9817,"Galerie":9818,"GLE":9819,"tip":9820,"ronk":9821,"new":9822,"geniet":9823,"Cabriolet":9824,"singel":9825,"leerling":9826,"verkregen":9827,"kies":9828,"RAI":9829,"Prem":9830,"nul":9831,"pit":9832,"oman":9833,"persoons":9834,"heft":9835,"JER":9836,"1977":9837,"rage":9838,"fabrikant":9839,"blijk":9840,"Mass":9841,"Amerikaan":9842,"hoeveelheid":9843,"Geluk":9844,"luidt":9845,"gaten":9846,"sedan":9847,"Vliet":9848,"zetels":9849,"bours":9850,"mut":9851,"stijgen":9852,"doelpunt":9853,"Colt":9854,"FIL":9855,"uitgeno":9856,"Wereldoorlog":9857,"BOEK":9858,"YP":9859,"akije":9860,"teams":9861,"Belang":9862,"Instituut":9863,"rische":9864,"stall":9865,"spar":9866,"datie":9867,"--'":9868,"rk":9869,"AUTOBEDRIJF":9870,"Polo":9871,"ruit":9872,"ontstaat":9873,"KV":9874,"stoot":9875,"Zweedse":9876,"AARD":9877,"FRED":9878,"betekenis":9879,"storm":9880,"89p":9881,"benoemd":9882,"phm":9883,"Movie":9884,"Shel":9885,"opbrengst":9886,"tam":9887,"professionele":9888,"beaut":9889,"Makelaars":9890,"960":9891,"specif":9892,"woner":9893,"far":9894,"iviteiten":9895,"Dirk":9896,"hierover":9897,"TX":9898,"*«":9899,"kopers":9900,"evenwel":9901,"Praag":9902,"04406":9903,"dalen":9904,"Moz":9905,"888":9906,"ingediend":9907,"Landbouw":9908,"gras":9909,"volging":9910,"vocht":9911,"WIN":9912,"uitgaven":9913,"Bestel":9914,"netje":9915,"Florida":9916,"ped":9917,"letters":9918,"336":9919,"Staats":9920,"735":9921,"Alban":9922,"zwemb":9923,"Zu":9924,"humor":9925,"248":9926,"zender":9927,"aanvragen":9928,"NIJ":9929,"denten":9930,"Kla":9931,"mani":9932,"vriendelijke":9933,"575":9934,"Chevrolet":9935,"streden":9936,"Timmer":9937,"verbeteren":9938,"itsma":9939,"ady":9940,"614":9941,"blue":9942,"boel":9943,"kiest":9944,"HAVO":9945,"-—":9946,"SUN":9947,"lampen":9948,"dienstverlening":9949,"itor":9950,"tenslotte":9951,"STATION":9952,"Defensie":9953,"ote":9954,"1387":9955,"ƒ29":9956,"tevoren":9957,"sportw":9958,"Heineken":9959,"advie":9960,"stands":9961,"geop":9962,"Brouwer":9963,"Stan":9964,"617":9965,"tom":9966,"schrik":9967,"pg":9968,"Horeca":9969,":.":9970,"Blij":9971,"Speel":9972,"527":9973,"Pic":9974,"sky":9975,"decor":9976,"werkgever":9977,"ual":9978,"Griekenland":9979,"Paulus":9980,"tj":9981,"Julian":9982,"ONG":9983,"blessure":9984,"ky":9985,"reparaties":9986,"SLAND":9987,"Clau":9988,"Winschoten":9989,"Unilever":9990,"figuur":9991,"rubrieken":9992,"Gran":9993,"stalen":9994,"degra":9995,"Schriftelijke":9996,"AUDI":9997,"Aalsmeer":9998,"opmerk":9999,"binnenlandse":10000,"NEC":10001,"CITROEN":10002,"meid":10003,"Toer":10004,"diepe":10005,",*":10006,"automatisch":10007,"koelkast":10008,"Economische":10009,"diamantzwart":10010,"Love":10011,"EMS":10012,"doelpunten":10013,"OUD":10014,"zuiver":10015,"Chris":10016,"verzorgt":10017,"Hongarije":10018,"Kuwayt":10019,"from":10020,"bevoegd":10021,"Tan":10022,"Functie":10023,"ORP":10024,"versie":10025,"Day":10026,"marathon":10027,"URANT":10028,"Kampen":10029,"sollicitaties":10030,"BUS":10031,"Vastgoed":10032,"hect":10033,"durende":10034,"Licht":10035,"parlementaire":10036,"Autobedrijven":10037,"Hirsch":10038,"gering":10039,"letjes":10040,"verloop":10041,"itair":10042,"Nel":10043,"doende":10044,"agress":10045,"papieren":10046,"betaalde":10047,"Hoop":10048,"lef":10049,"ariteit":10050,"MEISJES":10051,"Pre":10052,"Rijpe":10053,"Gouden":10054,"Autobedr":10055,"werkloosheid":10056,"assortiment":10057,"Indonesië":10058,"6750":10059,"inj":10060,"mech":10061,"kleinere":10062,"postbus":10063,"uitzondering":10064,"457":10065,"gereformeerde":10066,"regelen":10067,"377":10068,"camper":10069,"zetting":10070,";;":10071,"verdachten":10072,"regisse":10073,"geding":10074,"naakt":10075,"Excels":10076,"wkn":10077,"Zuidafrik":10078,"264":10079,"ondersteuning":10080,"overtuigen":10081,"vakbonden":10082,"Kru":10083,"schor":10084,"commercieel":10085,"DIRE":10086,"rim":10087,"straten":10088,"begrijp":10089,"apie":10090,"bedroeg":10091,"NET":10092,"getwijfeld":10093,"Charles":10094,"laar":10095,"inc":10096,"prestatie":10097,"Veluwe":10098,"tings":10099,"Christus":10100,"aanwezigheid":10101,"uitgenodigd":10102,"drijven":10103,"bestuurder":10104,"TJE":10105,"Dro":10106,"•\"\"":10107,"haa":10108,"stuurbekracht":10109,"Meulen":10110,"uitdruk":10111,"kW":10112,"brom":10113,"REIS":10114,"klinkt":10115,"595":10116,"Lemmer":10117,"444":10118,"Lief":10119,"?*":10120,"Fiesta":10121,"ziin":10122,"560":10123,"partners":10124,"derweg":10125,"7199":10126,"certific":10127,"toekomstige":10128,"braak":10129,"Bosnische":10130,"optie":10131,"field":10132,"overgang":10133,"MX":10134,"HAM":10135,"holpen":10136,"bescheiden":10137,"Ziekenhuis":10138,"VRIES":10139,"bekijken":10140,"Heide":10141,"helder":10142,"Hold":10143,"hinder":10144,"beheersing":10145,"respectievelijk":10146,"»^":10147,"Weert":10148,"Gil":10149,"aanwij":10150,"wijziging":10151,"PASS":10152,"ingesteld":10153,"support":10154,"isen":10155,"zout":10156,"affaire":10157,"medi":10158,"gemeentelijke":10159,"Doel":10160,"Iran":10161,"825":10162,"aleis":10163,"Kur":10164,"gemeub":10165,"HT":10166,"Chi":10167,"Straat":10168,"turn":10169,"9750":10170,"baanse":10171,"Real":10172,"vergader":10173,"woordvoer":10174,"Aegon":10175,"KOU":10176,"Orkest":10177,"opgesteld":10178,"beschrij":10179,"NOORD":10180,"vaardigheid":10181,"Antwoordnummer":10182,"verjaar":10183,"234":10184,"Mün":10185,"bestemd":10186,"aangenomen":10187,"Andere":10188,"aangekondigd":10189,"CAB":10190,"automatische":10191,"Nassau":10192,"Boy":10193,"Ll":10194,"Liban":10195,"spers":10196,"iene":10197,"Log":10198,"overtre":10199,"bossen":10200,"ulling":10201,"TAK":10202,"erbij":10203,"Corr":10204,"draai":10205,"ett":10206,"methode":10207,"DOS":10208,"aegon":10209,"->":10210,"424":10211,"spunt":10212,"rapt":10213,"boter":10214,"klimaat":10215,"kanker":10216,"invoering":10217,"Week":10218,"MMEN":10219,"Bolsward":10220,"Veenstra":10221,"Egypte":10222,"node":10223,"jongste":10224,"voorlicht":10225,"integr":10226,"scheeps":10227,"Mooi":10228,"1970":10229,"President":10230,"hoed":10231,"03404":10232,"mv":10233,"Antilliaanse":10234,"magn":10235,"<^":10236,"Woensdag":10237,"revol":10238,"oslow":10239,"christen":10240,"pref":10241,"Wolters":10242,"toezicht":10243,"uwd":10244,"ison":10245,"knip":10246,"PH":10247,"bedden":10248,"bn":10249,"omvang":10250,"balans":10251,"sym":10252,"ofte":10253,"voortgezet":10254,"Vele":10255,"investeringen":10256,"COM":10257,"303":10258,"SLX":10259,"explos":10260,"THEATER":10261,"Street":10262,"690":10263,"voorwaar":10264,"York":10265,"DRACHTEN":10266,"buis":10267,"eng":10268,"INGA":10269,"beveil":10270,"other":10271,"AGER":10272,"Festival":10273,"Daarin":10274,"ARN":10275,"plos":10276,"ré":10277,"kante":10278,"Mech":10279,"Ori":10280,",„":10281,"infl":10282,"IX":10283,"Mas":10284,"fas":10285,"DEAL":10286,"vaarding":10287,"uitgever":10288,"automobil":10289,"Bat":10290,"ues":10291,"Ell":10292,"satel":10293,"wl":10294,"Organisatie":10295,"eef":10296,"binne":10297,"Klass":10298,"trokken":10299,"5750":10300,"HOEK":10301,"259":10302,"getekend":10303,"PARK":10304,"Evert":10305,"vrijw":10306,"vergelijking":10307,"weegt":10308,"Nap":10309,"Woerden":10310,"capaciteit":10311,"WS":10312,"Handels":10313,"Pick":10314,"HEEREN":10315,"304":10316,"verpak":10317,"540":10318,"Bernard":10319,"strak":10320,"chauffeur":10321,"maximum":10322,"ear":10323,"shof":10324,"retour":10325,"Jeroen":10326,"gewend":10327,"agel":10328,"Wijk":10329,"WONING":10330,"prestaties":10331,"Singap":10332,"719966":10333,"vouw":10334,"HOMO":10335,"deurvergr":10336,"Later":10337,"ations":10338,"etter":10339,"BOS":10340,"990":10341,"Rid":10342,"Dow":10343,"huisje":10344,"eredivisie":10345,"orders":10346,"able":10347,"bestrijding":10348,"reorganisatie":10349,"ares":10350,"Poel":10351,"Ui":10352,"nivo":10353,"gestaan":10354,"zichtbaar":10355,"Loos":10356,"vecht":10357,"quiz":10358,"02240":10359,"233":10360,"WEST":10361,"ersma":10362,"1868":10363,"inie":10364,"voelde":10365,"cro":10366,"Altijd":10367,"groeid":10368,"Stel":10369,"hoogleraar":10370,"Out":10371,"924":10372,"hia":10373,"FIN":10374,"inco":10375,"Schooltelevisie":10376,"bng":10377,"kenden":10378,"blin":10379,"04490":10380,"simpel":10381,"achttien":10382,"culturele":10383,"UNT":10384,"Kohl":10385,"geheten":10386,"iday":10387,"Pink":10388,"coup":10389,"facil":10390,"DP":10391,"')":10392,"gangen":10393,"271":10394,"arden":10395,"jev":10396,"CB":10397,"GLi":10398,"gunstige":10399,"AIR":10400,"benoem":10401,"Financ":10402,"Beer":10403,"nws":10404,"essel":10405,"DUITSLAND":10406,"Cees":10407,"88p":10408,"wisten":10409,"720":10410,"telefoonnummer":10411,"Liber":10412,"vrijstaande":10413,"Cong":10414,"Ira":10415,"sson":10416,"look":10417,"LY":10418,"sportredactie":10419,"buitenlanders":10420,"ary":10421,"Arch":10422,"JP":10423,"tegenstelling":10424,"meda":10425,"236":10426,"types":10427,"Margr":10428,"599":10429,"bouwjaar":10430,"overdag":10431,"287":10432,"Niemand":10433,"qua":10434,"reageerde":10435,"gearre":10436,"hers":10437,"diri":10438,"ani":10439,"iso":10440,"vestigen":10441,"*!":10442,"teveel":10443,"operij":10444,"cop":10445,"•'":10446,"05113":10447,"grijsmet":10448,"podium":10449,"baller":10450,"blauwe":10451,"ineke":10452,"has":10453,"aarden":10454,"TECH":10455,"verwerken":10456,"Singapore":10457,"vernieuwing":10458,"tenten":10459,"BOSCH":10460,"berger":10461,"straal":10462,"VISIE":10463,"Golden":10464,"VOET":10465,"digde":10466,"Imp":10467,"uitgaan":10468,"Tun":10469,"tev":10470,"Sant":10471,"tijdelijke":10472,"meesters":10473,"Poolse":10474,"zeld":10475,"ape":10476,"Pur":10477,"genoegen":10478,"betal":10479,"223":10480,"strom":10481,"sloten":10482,"gestoff":10483,"BIS":10484,"aluminium":10485,"afm":10486,"419":10487,"UK":10488,"naa":10489,"Start":10490,"beleven":10491,"MINI":10492,"beschouwd":10493,"COMP":10494,"Yv":10495,"stische":10496,"montage":10497,"895":10498,"Cast":10499,"hut":10500,"verstand":10501,"verdacht":10502,"03489":10503,"Lei":10504,"aanvallen":10505,"student":10506,"herinnering":10507,"Bravo":10508,"03402":10509,"ump":10510,"pleegd":10511,"meende":10512,"ZX":10513,"btw":10514,"Eag":10515,"ido":10516,"338":10517,"Alexander":10518,"760":10519,"see":10520,"opvallend":10521,"Mandela":10522,"negatieve":10523,"iend":10524,"afhankelijke":10525,"shirts":10526,"530":10527,"gehandicapten":10528,"611":10529,"BOR":10530,"JM":10531,"Aanvoer":10532,"GROOT":10533,"intje":10534,"Haven":10535,"uste":10536,"hin":10537,"contracten":10538,"sw":10539,"Leid":10540,"opl":10541,"HOLLAND":10542,"IË":10543,"gezamenlijk":10544,"eurs":10545,"disk":10546,"vrie":10547,"ontpl":10548,"schal":10549,"wethouders":10550,"wakker":10551,"vrouwelijke":10552,"JB":10553,"231":10554,"ARU":10555,"ieleden":10556,"Hatchback":10557,"etjes":10558,"Hypot":10559,"344":10560,"^\\":10561,"Bijna":10562,"kking":10563,"Tsjechoslow":10564,"redden":10565,"jubileum":10566,"home":10567,"behoeve":10568,"Riet":10569,"-;":10570,"strenge":10571,"eters":10572,"Pin":10573,"268":10574,"constructie":10575,"nst":10576,"pacific":10577,"spanningen":10578,"NAAR":10579,"613":10580,"gh":10581,"—■":10582,"238":10583,"zaterdagavond":10584,"fundam":10585,"key":10586,"handeld":10587,"uitspraken":10588,"aardige":10589,"UITEN":10590,"unde":10591,"receptie":10592,"Neigh":10593,"SAL":10594,"elende":10595,"Costa":10596,"splaatsen":10597,"nachts":10598,"ruiming":10599,"EC":10600,"onbekende":10601,"Plus":10602,"Thuis":10603,"CURA":10604,"republ":10605,"ogh":10606,"lossen":10607,"LIE":10608,"Zuidlaren":10609,"518":10610,"IW":10611,"Opening":10612,"oret":10613,"____________":10614,"journalisten":10615,"ademie":10616,"!)":10617,"Verkeer":10618,"tips":10619,"but":10620,"oeid":10621,"kolle":10622,"lening":10623,"TM":10624,"vakbond":10625,"aangesloten":10626,"westerse":10627,"cabine":10628,"ound":10629,"Tage":10630,"278":10631,"luis":10632,"zesde":10633,"goo":10634,"confron":10635,"Bezoek":10636,"243":10637,"uter":10638,"mmers":10639,"district":10640,"opera":10641,"ches":10642,"populair":10643,"•*":10644,"Journ":10645,"PARIJS":10646,"kov":10647,"marine":10648,"kook":10649,"Zonne":10650,"typ":10651,"IB":10652,"denking":10653,"ijds":10654,"484":10655,"bek":10656,"erkende":10657,"tall":10658,"houdingen":10659,"jazz":10660,"ria":10661,"Automobielen":10662,"onderwerpen":10663,"Dinsdag":10664,"gevangenen":10665,"studeren":10666,"291":10667,"verzekeringen":10668,"llllllll":10669,"PERSON":10670,"dez":10671,"mic":10672,"overlast":10673,"zekere":10674,"verkiezing":10675,"kachel":10676,"MAAN":10677,"ontstond":10678,"AUW":10679,"rekking":10680,"rennen":10681,"bereken":10682,"crete":10683,"lege":10684,"bell":10685,"ava":10686,"gedrukt":10687,"magazin":10688,"bold":10689,"butie":10690,"prie":10691,"demo":10692,"635":10693,"dol":10694,"Jones":10695,"today":10696,"Bijzonder":10697,"05960":10698,"384":10699,"hiermee":10700,"functioneren":10701,"cphm":10702,"daaraan":10703,"ROOD":10704,"voortaan":10705,"domin":10706,"gewenste":10707,"Blok":10708,"Caravans":10709,"relatief":10710,"gekocht":10711,"schatting":10712,"verwarming":10713,"Roemenië":10714,"332":10715,"openen":10716,"Count":10717,"Bek":10718,"Beach":10719,"Pret":10720,"pauze":10721,"medewerking":10722,"identiteit":10723,"software":10724,"ymp":10725,"monument":10726,"sproces":10727,"05280":10728,"kiezers":10729,",—":10730,"onderhouds":10731,"mars":10732,"^\"":10733,"ozen":10734,"gehoor":10735,"Alf":10736,"essie":10737,"Gedeputeerde":10738,"rou":10739,"tekenfilmserie":10740,"Lely":10741,"conditie":10742,"Lanc":10743,"financiën":10744,"MOS":10745,"drukte":10746,"gelezen":10747,"luchthaven":10748,"kampioenschappen":10749,"respect":10750,"emarken":10751,"bestuurders":10752,"colo":10753,"Dak":10754,"DIS":10755,"iep":10756,"asting":10757,"668":10758,"verrassing":10759,"verspreid":10760,"beroemde":10761,"FIAT":10762,"kwaliteits":10763,"Neighbours":10764,"concer":10765,"Moet":10766,"Gast":10767,"iful":10768,"Werken":10769,"«»":10770,"Good":10771,"sporter":10772,"pogingen":10773,"attra":10774,"meedoen":10775,"ZIJN":10776,"beschad":10777,"sema":10778,"Offic":10779,"ceel":10780,"America":10781,"democratie":10782,"hoorde":10783,"landschap":10784,"CENTRE":10785,"schr":10786,".'\"":10787,"erts":10788,"Video":10789,"Tersch":10790,"interessant":10791,"aga":10792,"houdend":10793,"MEUBEL":10794,"Jacques":10795,"zulke":10796,"Zeist":10797,"slp":10798,"ile":10799,"bekleding":10800,"welk":10801,"ONT":10802,"612":10803,"oont":10804,"lOO":10805,"opr":10806,"aandeelhouders":10807,"quê":10808,"gu":10809,"rivier":10810,"Personeels":10811,"iJ":10812,"AUT":10813,"Mur":10814,"amateurs":10815,"Directeur":10816,"Bab":10817,"Cli":10818,"IDEN":10819,"KINDER":10820,"bid":10821,"hit":10822,"CTIE":10823,"goedkop":10824,"015":10825,"zzel":10826,"posities":10827,"lr":10828,"tegels":10829,"arri":10830,"stellenden":10831,"KAP":10832,"KRE":10833,"feiten":10834,"verwijk":10835,"Vers":10836,"05990":10837,"637":10838,"975":10839,"verdediger":10840,"hj":10841,"Jacobs":10842,"AW":10843,"Denemarken":10844,"luisteren":10845,"GSi":10846,"aret":10847,"relaxen":10848,"ville":10849,"bijdragen":10850,"Mevrouw":10851,"inflatie":10852,"dwars":10853,"?!":10854,"draad":10855,"Viet":10856,"wisselende":10857,"percentage":10858,":;":10859,"sers":10860,"Tul":10861,"warmte":10862,"Aben":10863,"cou":10864,"zy":10865,"05138":10866,"EIND":10867,"kringen":10868,"zijnen":10869,"1976":10870,"KRANT":10871,"geheime":10872,"651":10873,"cus":10874,"issingen":10875,"hoef":10876,"Valk":10877,"ilo":10878,"Oekra":10879,"_S":10880,"verjaardag":10881,"München":10882,"antieke":10883,"Voerend":10884,"tor":10885,"volley":10886,"strasse":10887,"debu":10888,"Koningin":10889,"oci":10890,"Soest":10891,"1974":10892,"ariaat":10893,"Disc":10894,"endaal":10895,"02520":10896,"elek":10897,"verwen":10898,"gezinnen":10899,"FAM":10900,"Nord":10901,"progr":10902,"cen":10903,"Patrick":10904,"1973":10905,"^\"\"":10906,"ATT":10907,"02550":10908,"United":10909,"imale":10910,"Zwarte":10911,"verdediging":10912,"ineens":10913,"ondernemer":10914,"journal":10915,"holding":10916,"daarentegen":10917,"Dekker":10918,"intel":10919,"Thema":10920,"Elekt":10921,"Cart":10922,"388":10923,"Georg":10924,"hee":10925,"smettel":10926,"secunda":10927,"WAGEN":10928,"gelen":10929,"Helmond":10930,"08380":10931,"ambtenaar":10932,"ALFA":10933,"HOOG":10934,"PK":10935,"afe":10936,"afslag":10937,"kla":10938,"begeleiden":10939,",=":10940,"teksten":10941,"Californ":10942,"Cou":10943,"Jol":10944,"paal":10945,"STAC":10946,"heit":10947,"433":10948,"CAS":10949,"obligaties":10950,"adel":10951,"spol":10952,"atië":10953,"splein":10954,"Huize":10955,"445":10956,"blemen":10957,"opstelling":10958,"cot":10959,"ROL":10960,"■■■■■■■■":10961,"bac":10962,"510":10963,"bezocht":10964,"cup":10965,"verlaging":10966,"consumenten":10967,"Vn":10968,"Keuze":10969,"221":10970,"bezuinigingen":10971,"tm":10972,"Hobby":10973,"KANTOOR":10974,"geleerd":10975,"suiker":10976,"Zomer":10977,"handelen":10978,"wonnen":10979,"paus":10980,"YS":10981,"Maij":10982,"Excelsior":10983,"diefstal":10984,"behaalde":10985,"Begin":10986,"izer":10987,"TIN":10988,"Korte":10989,"vooi":10990,"verlenen":10991,"inkoop":10992,"gebeurtenissen":10993,"ÊÊÊÊ":10994,"05170":10995,"CLUB":10996,"Laan":10997,"Nf":10998,"telefonische":10999,"buffet":11000,"zéér":11001,"voormalig":11002,"American":11003,"verwachte":11004,"aflevering":11005,"Dol":11006,"werven":11007,"Gelukkig":11008,"resol":11009,"sr":11010,"bewonder":11011,"xx":11012,"MEE":11013,"illu":11014,"deal":11015,"scor":11016,"Ballin":11017,"hfd":11018,"Marian":11019,"ZONDAG":11020,"515":11021,"544":11022,"HEID":11023,"490":11024,"peren":11025,"MOBI":11026,"OOK":11027,"blazen":11028,"IGE":11029,"Bog":11030,"endijk":11031,"Lom":11032,"dansen":11033,"traditie":11034,"publieke":11035,"Aar":11036,"tit":11037,"hap":11038,"specialisten":11039,"une":11040,"STAAT":11041,"Rijksstraatweg":11042,"795":11043,"Vij":11044,"Nationaal":11045,"Appel":11046,"Aller":11047,"hands":11048,"staking":11049,"aktie":11050,"Carol":11051,"ali":11052,"geer":11053,"GM":11054,"wm":11055,"succesvolle":11056,"Express":11057,"IDE":11058,"KRA":11059,"uitgave":11060,"GTX":11061,"aving":11062,"kim":11063,"arr":11064,"stant":11065,"moslims":11066,"CINE":11067,"steinde":11068,"zoiets":11069,"Mann":11070,"RES":11071,"Gold":11072,"AVOND":11073,"Automobielbedrijf":11074,"Kroatië":11075,"finish":11076,"1450":11077,"liepen":11078,"bia":11079,"slij":11080,"Baren":11081,"YOTA":11082,"plaatsgevonden":11083,"bewindsman":11084,"mol":11085,"kran":11086,"groeps":11087,"ASSEN":11088,"verdiensten":11089,"Dealer":11090,"0594":11091,"isolatie":11092,"vorst":11093,"ideaal":11094,"gri":11095,"GTL":11096,"/\\":11097,"kunstenaar":11098,"MANN":11099,"SUZU":11100,"verhuis":11101,"apende":11102,"Volkswagen":11103,"effic":11104,"Az":11105,"J_":11106,"?.":11107,"Plat":11108,"Opleiding":11109,"probeerde":11110,"demonstratie":11111,"Karel":11112,"Cos":11113,"led":11114,"Vanuit":11115,"ligging":11116,"Mededelingen":11117,"mobil":11118,"!^":11119,"HEERENVEEN":11120,"«-":11121,"Wilhelmina":11122,"nieken":11123,"Meubel":11124,"Kramer":11125,"vliegveld":11126,"anje":11127,"--------":11128,"ideale":11129,"Terschelling":11130,"Kip":11131,"uitdaging":11132,"?^":11133,"gedood":11134,"ague":11135,"phen":11136,"Vierde":11137,"251":11138,"Cursus":11139,"Jim":11140,"baru":11141,"ianen":11142,"Wiers":11143,"■-":11144,"archief":11145,"verdient":11146,"boxen":11147,"ontbreekt":11148,"tweet":11149,"scheep":11150,"TOYOTA":11151,"ador":11152,"hielden":11153,"Sele":11154,"ervaringen":11155,"zevende":11156,"BEEK":11157,"Bergen":11158,"uelle":11159,"MACH":11160,"05805":11161,"BIL":11162,"vullen":11163,"gemaakte":11164,"secundaire":11165,"407":11166,"570":11167,"001":11168,"lof":11169,"kampeer":11170,"IQ":11171,"RP":11172,"VIDE":11173,"sortering":11174,"hene":11175,"293":11176,"woonplaats":11177,"vermoedelijk":11178,"vals":11179,"OOSTER":11180,"ambassadeur":11181,"groeit":11182,"ANNE":11183,".„":11184,"aansluiting":11185,"Voort":11186,"orf":11187,"Schu":11188,"spoort":11189,"adijs":11190,"Citroën":11191,"Boon":11192,"308":11193,"chemische":11194,"499":11195,".....":11196,"BUITEN":11197,"Jezus":11198,"afstands":11199,"»'":11200,"DEALER":11201,"Sollicitaties":11202,"Koll":11203,"Hek":11204,"semble":11205,"sequ":11206,"prog":11207,"ugde":11208,"jevo":11209,"elend":11210,"achtereen":11211,"uring":11212,"Heem":11213,"stijd":11214,"overgenomen":11215,"sleutel":11216,"èl":11217,"Wild":11218,"conclu":11219,"coupé":11220,"makelaar":11221,"linge":11222,"bisschop":11223,"Rec":11224,"bewezen":11225,"VT":11226,"detail":11227,"Ut":11228,"stelen":11229,"7750":11230,"272":11231,"RIT":11232,"jammer":11233,"succesvol":11234,"ament":11235,"vaardigheden":11236,"ices":11237,"vanger":11238,"atten":11239,"Wordt":11240,"keert":11241,"Pierre":11242,"SUZUKI":11243,"verdeling":11244,"particulieren":11245,"buit":11246,"^^^^^^":11247,"lamp":11248,"vingen":11249,"9700":11250,"DAT":11251,"Bilt":11252,"gevorm":11253,"Kuipers":11254,"vrijwilligers":11255,"Buur":11256,"spierwit":11257,"03240":11258,"KEU":11259,"297":11260,"Secret":11261,"liefhebbers":11262,"zendt":11263,"<>":11264,"hok":11265,"betekenen":11266,"geholpen":11267,"aks":11268,"bestond":11269,"verwerkt":11270,"bee":11271,"8900":11272,"1972":11273,"Prima":11274,"signaal":11275,"May":11276,"GALOW":11277,"onisch":11278,"oons":11279,"High":11280,"VLIET":11281,"seerde":11282,"kige":11283,"werkdagen":11284,"Hein":11285,"Spelprogramma":11286,"tas":11287,"stuurbekrachtiging":11288,"ziel":11289,"OUDE":11290,"evenwicht":11291,"Petra":11292,"lings":11293,"hoofdkantoor":11294,"impor":11295,"Sandra":11296,"yan":11297,"Baar":11298,"bloot":11299,"hone":11300,"Meers":11301,"PT":11302,"zwee":11303,"Financiën":11304,"ego":11305,"PN":11306,"........":11307,"breuk":11308,"docht":11309,"usters":11310,"rijders":11311,"jjj":11312,"begrepen":11313,"openings":11314,"KERKRADE":11315,"vita":11316,"ais":11317,"Patrol":11318,"terre":11319,"uitkeringen":11320,"venter":11321,"DELEN":11322,"uiterste":11323,"iool":11324,"AMRO":11325,"Eurosport":11326,"besteden":11327,"bezetting":11328,"opgeroepen":11329,"CNN":11330,"meegedeeld":11331,"geet":11332,"uitnodig":11333,"HTS":11334,"zuur":11335,"kapel":11336,"Alphen":11337,"alweer":11338,"ACE":11339,"losse":11340,"verstel":11341,"Zoekt":11342,"mie":11343,"kraan":11344,"Roe":11345,"SEL":11346,"ERM":11347,"387":11348,"eigendom":11349,"Zn":11350,"amens":11351,"bronnen":11352,"Bs":11353,"645":11354,"keek":11355,"282":11356,"cipl":11357,"yy":11358,"kert":11359,"Buss":11360,"erendum":11361,"herfst":11362,"366":11363,"nj":11364,"polder":11365,"Musik":11366,"heven":11367,"gevangenisstraf":11368,"lezing":11369,"Subaru":11370,"generatie":11371,"koud":11372,"dankzij":11373,"Spaans":11374,"Eli":11375,"Ede":11376,"TRAN":11377,"MASS":11378,"regionaal":11379,"Amerikaans":11380,"Gezel":11381,"consument":11382,"stations":11383,"Onroerend":11384,"zijnde":11385,"339":11386,"efd":11387,"Beverwijk":11388,"democratische":11389,"*****":11390,"voorst":11391,"Nieuwen":11392,"Curas":11393,"Hog":11394,"Hug":11395,"iï":11396,"verkiezings":11397,"Dennis":11398,"Simpel":11399,"685":11400,"Fab":11401,"PAG":11402,"TJ":11403,"leas":11404,"republieken":11405,"aturen":11406,"Form":11407,"originele":11408,"Play":11409,"outs":11410,"kwaliteiten":11411,"verzuim":11412,"Beatrix":11413,"plaatste":11414,"bische":11415,"ordening":11416,"slipje":11417,"geëist":11418,"Bluebird":11419,"eraan":11420,"SY":11421,"weren":11422,"ICK":11423,"Bruin":11424,"sterven":11425,"gedeeltelijk":11426,"bestuurs":11427,"halfjaar":11428,"oefenen":11429,"treffer":11430,"ole":11431,"ijssel":11432,"Canadese":11433,"rof":11434,"rechters":11435,"reizig":11436,"aangewezen":11437,"Fok":11438,"getrouwd":11439,"Mozart":11440,"schreven":11441,"Voerendaal":11442,"meerde":11443,"■\"\"":11444,"vant":11445,"predikant":11446,"snij":11447,"ORPIO":11448,"perspectie":11449,"alwaar":11450,"poe":11451,"paas":11452,"getuige":11453,"ontwikkelings":11454,"probeerd":11455,"Gemeenschap":11456,"Advoc":11457,"Prix":11458,"organisator":11459,"assistent":11460,"Hop":11461,"IJL":11462,"Noorwegen":11463,"GRAAF":11464,"Ob":11465,"plak":11466,"Indeling":11467,"ckers":11468,"asser":11469,"migen":11470,"Mt":11471,"ances":11472,"bc":11473,"inval":11474,"klus":11475,"dop":11476,"ots":11477,"Half":11478,"tegenstanders":11479,"05178":11480,"maatschap":11481,"sloperij":11482,"Ameland":11483,"Fal":11484,"zinnige":11485,"Miss":11486,"lum":11487,"kenbaar":11488,"diepte":11489,"sluis":11490,"trekker":11491,"Accord":11492,"menu":11493,"ial":11494,"geslacht":11495,"Univers":11496,"jouw":11497,"iS":11498,"ageerd":11499,"RIE":11500,"anny":11501,"anning":11502,"Slacht":11503,"cken":11504,"LOKHORST":11505,"recherche":11506,"uitgesloten":11507,"Vandaar":11508,"Roem":11509,"munt":11510,"cijfer":11511,"Gren":11512,"Golfoorlog":11513,"Wr":11514,"KONTAK":11515,"Johnson":11516,"lecht":11517,"muzikale":11518,"gekl":11519,"verho":11520,"criminaliteit":11521,"pion":11522,"vechten":11523,"vacy":11524,"Monique":11525,"Surinaamse":11526,"BBBB":11527,"Sarajevo":11528,"Lloyd":11529,"puzzel":11530,"woud":11531,"deeld":11532,"creë":11533,"uille":11534,"Ploeg":11535,"uitgezonden":11536,"wijzer":11537,"Jak":11538,"europ":11539,"Dra":11540,"bevestigd":11541,"074":11542,"ruimen":11543,"646":11544,"RADIO":11545,"locatie":11546,"lel":11547,"ATE":11548,"WV":11549,"Ide":11550,"NIS":11551,"ARUBA":11552,"03410":11553,"*°":11554,"ƒ23":11555,"Bau":11556,"KRUIS":11557,"Boom":11558,"bezette":11559,"2450":11560,"DORP":11561,"wijzigingen":11562,"Mix":11563,"gemot":11564,"paste":11565,"supporters":11566,"MORGEN":11567,"Cornel":11568,"Sommige":11569,"Leuke":11570,"Ine":11571,"409":11572,"voordelen":11573,"Wilde":11574,"Vroe":11575,"bleken":11576,"ziekenhuizen":11577,"zelden":11578,"honger":11579,"KERST":11580,"mits":11581,"04750":11582,"wonende":11583,"elektro":11584,"Kö":11585,"appy":11586,"pasfoto":11587,"970":11588,"WP":11589,"juridische":11590,"Wassen":11591,"oppervlakte":11592,"'°":11593,"raai":11594,"Bir":11595,"-~":11596,"ementen":11597,"05110":11598,"Ritzen":11599,"hodo":11600,"renners":11601,"slapen":11602,"ongetwijfeld":11603,"adviseren":11604,"gift":11605,"zogeheten":11606,"kondigde":11607,"beschermen":11608,"werkgroep":11609,"dict":11610,"657":11611,"vv":11612,"Vervolgens":11613,"Liss":11614,"Yvonne":11615,"1996":11616,"WOR":11617,"dwingen":11618,"281":11619,"Ds":11620,"Gouda":11621,"pstra":11622,"scheidsrechter":11623,"consul":11624,"wekt":11625,"BUNGALOW":11626,"Cir":11627,"horn":11628,"graven":11629,"verkeerd":11630,"boog":11631,"ambitie":11632,"East":11633,"geïso":11634,"beautiful":11635,"gearresteerd":11636,"evenement":11637,"gst":11638,"Bach":11639,"RUIMTE":11640,"teland":11641,"satelliet":11642,"toegestaan":11643,"reserve":11644,"toerisme":11645,"redijk":11646,"Var":11647,"OTHE":11648,"geles":11649,"Luik":11650,"aqu":11651,"Middag":11652,"zilvergrijs":11653,"AUTOM":11654,"04492":11655,"maands":11656,"*?":11657,"jectie":11658,"waaruit":11659,"276":11660,"inkomens":11661,"gold":11662,"mant":11663,"adviezen":11664,"terugt":11665,"begrijpen":11666,"wek":11667,"voorzichtig":11668,"prij":11669,"verwachtingen":11670,"giet":11671,"legen":11672,"Amb":11673,"Has":11674,"Agen":11675,"Wout":11676,"Huizen":11677,"instrumenten":11678,"beleggers":11679,"oh":11680,"aansluitend":11681,"SPECIAL":11682,"WVC":11683,"Correspondentieadres":11684,"Kos":11685,"Free":11686,"plastic":11687,"vc":11688,"TWE":11689,"Aanvaarding":11690,"verdiend":11691,"dorpen":11692,"Fri":11693,"Klasse":11694,"drinken":11695,"0000":11696,"Ria":11697,"Nort":11698,"Moeder":11699,"weit":11700,"ovatie":11701,"ISSAN":11702,"seert":11703,"zomaar":11704,"Totaal":11705,"inf":11706,"Reportage":11707,"beloning":11708,"KONING":11709,"Bedrijf":11710,"bedreigd":11711,"2B":11712,"krachtige":11713,"automatisering":11714,"iano":11715,"groothandel":11716,"recent":11717,"concerten":11718,"uta":11719,"Tf":11720,"Wagon":11721,"voegen":11722,"jeug":11723,"digden":11724,"Geer":11725,"kerkelijke":11726,"holm":11727,"gods":11728,"PASSAT":11729,"opleveren":11730,"vleugel":11731,"appl":11732,"iM":11733,"notaris":11734,"Rabobank":11735,"AJ":11736,"Pon":11737,"miste":11738,"issement":11739,"EINDHOVEN":11740,"Vari":11741,"Bloemen":11742,"literatuur":11743,"filos":11744,"leest":11745,"Hj":11746,"instrument":11747,"gevar":11748,"Angeles":11749,"enquê":11750,"05945":11751,"benoeming":11752,"APPAR":11753,"verbinding":11754,"aanschaf":11755,"gevoegd":11756,"CONA":11757,"kijkers":11758,"Telet":11759,"maatschappelijke":11760,"881":11761,"gea":11762,"SSUM":11763,"glo":11764,"sprakelijk":11765,"Alto":11766,"toestand":11767,"01804":11768,"aangeb":11769,"ios":11770,"XJ":11771,"258":11772,"hoogtepunt":11773,"02152":11774,"teen":11775,"persconferentie":11776,"vonnis":11777,"Douwe":11778,"normen":11779,"ANA":11780,"vertegenwoordiger":11781,"aanrij":11782,"leidings":11783,"antwoorden":11784,"zwemmen":11785,"digend":11786,"worpen":11787,"Karin":11788,"ilt":11789,"staanden":11790,"wast":11791,"Bud":11792,"mult":11793,"VOETBAL":11794,"Leen":11795,"geboekt":11796,"Pek":11797,"concept":11798,"mert":11799,"Welt":11800,"Vlissingen":11801,";.":11802,"Ey":11803,"gijzel":11804,"consequ":11805,"overwegen":11806,"Ellen":11807,"enden":11808,"Curasao":11809,"AE":11810,"gevecht":11811,"ARAVAN":11812,"OOD":11813,"WAR":11814,"delta":11815,"Akk":11816,"Ridder":11817,"Gorredijk":11818,"rig":11819,"Congres":11820,"verstrekt":11821,"COU":11822,"^/":11823,"bab":11824,"367":11825,"476":11826,"laden":11827,"01803":11828,"Telegramm":11829,"evangel":11830,"busreis":11831,"bern":11832,"noodzaak":11833,"industriële":11834,".«":11835,"Feder":11836,"onjuist":11837,"meyer":11838,"verantwoord":11839,"Aanv":11840,"synode":11841,"gef":11842,"duurste":11843,"Josep":11844,"Fern":11845,"aanderen":11846,"PANDA":11847,"bereikte":11848,"fotog":11849,"alogus":11850,"daags":11851,"beleids":11852,"duurder":11853,"mM":11854,"sat":11855,"Cuba":11856,"bekeken":11857,"zinnig":11858,"restauratie":11859,"Koopsom":11860,"MIT":11861,"MAKEL":11862,"contactuele":11863,"talkshow":11864,"1853":11865,"875":11866,"combi":11867,"MBER":11868,"ositie":11869,"FOORT":11870,"Occas":11871,"asi":11872,"Voorzitter":11873,"verover":11874,"adviseurs":11875,"Villa":11876,"onderzoekers":11877,"beperkte":11878,"Henri":11879,"referendum":11880,"Hf":11881,"Parallel":11882,"vries":11883,"raakten":11884,"Channel":11885,"opstellen":11886,"Sko":11887,"straling":11888,"gepublic":11889,"genot":11890,"Grou":11891,"RKC":11892,"veelal":11893,"plaf":11894,"Lands":11895,"Marie":11896,"power":11897,"klacht":11898,"MOSKOU":11899,"artiesten":11900,"iaans":11901,"gedrongen":11902,"Hoogovens":11903,"gescheiden":11904,"kortingen":11905,"lea":11906,"Kir":11907,"05116":11908,"ongeschikt":11909,"cliënten":11910,"goedkoopste":11911,"Houten":11912,"lj":11913,"groeide":11914,"dorps":11915,"Zuidafrikaanse":11916,"Overijssel":11917,"hren":11918,"ruiten":11919,"Repu":11920,"Comm":11921,"ZOMER":11922,"NISSAN":11923,".--":11924,"ib":11925,"Vincent":11926,"Dron":11927,"STACARAVAN":11928,"———":11929,"boet":11930,"ates":11931,"630":11932,"Wen":11933,"WAAR":11934,"Vorige":11935,"ƒll":11936,"verscheen":11937,"coca":11938,"JÊ":11939,"kussen":11940,"alternatief":11941,"770":11942,"ella":11943,"zaamheid":11944,"ELAND":11945,"iëren":11946,"chauffeurs":11947,"oudste":11948,"neef":11949,"olo":11950,"duels":11951,"Zoeter":11952,"Frankfurt":11953,"ipp":11954,"*\"":11955,"Shell":11956,"Reser":11957,"besmet":11958,"Haarlemmer":11959,"ballers":11960,"Kaya":11961,"VIER":11962,"Din":11963,"acles":11964,"pjan":11965,"Dhr":11966,"Gent":11967,"684":11968,"Commiss":11969,"td":11970,"Russen":11971,"bewerkt":11972,"opstand":11973,"Smeets":11974,"Directie":11975,"wille":11976,"schouwburg":11977,"Gezien":11978,"confronteerd":11979,"afkomst":11980,"rick":11981,"Unieke":11982,"natuurlijke":11983,"daalde":11984,"nachten":11985,"Wf":11986,"realiseren":11987,"side":11988,"wetgeving":11989,"netjes":11990,"verrassend":11991,"mensenrechten":11992,"SHOW":11993,"Eff":11994,"KOR":11995,"schappij":11996,"329750":11997,"'«":11998,"AKEN":11999,"prin":12000,"uitgegeven":12001,"Tu":12002,"aangetroffen":12003,"plaatshebben":12004,"ANG":12005,"Lok":12006,"ogenblik":12007,"sevier":12008,"dagblad":12009,"HEHL":12010,"dierbare":12011,"NIC":12012,"Zwitserse":12013,"BRUSSEL":12014,"gerei":12015,"zwaag":12016,"kennismaking":12017,"shows":12018,"idge":12019,"bmh":12020,"Woud":12021,"getreden":12022,"354":12023,"Baker":12024,"méér":12025,"andin":12026,"IDA":12027,"2l":12028,"ACHT":12029,"medisch":12030,"offerte":12031,"899":12032,"temin":12033,"assis":12034,"privacy":12035,"660":12036,"scoren":12037,"Big":12038,"evenmin":12039,"ortus":12040,"uge":12041,"degenen":12042,"ranglijst":12043,"White":12044,"DB":12045,"03465":12046,"inzake":12047,"ongeval":12048,"hef":12049,"print":12050,"Harde":12051,"gekeerd":12052,"Micra":12053,"Gebruik":12054,"zorgvuldig":12055,"negatief":12056,"WH":12057,"geling":12058,"reisburo":12059,"ASCONA":12060,"gewonden":12061,"Joe":12062,"292400":12063,"Hallo":12064,"ZER":12065,"vrucht":12066,"voornemen":12067,"redelijke":12068,"uwnaar":12069,"firma":12070,"electr":12071,"deskundige":12072,"ZDF":12073,"dergelijk":12074,"send":12075,"loopbaan":12076,"oofde":12077,"ïl":12078,"Athene":12079,"sectie":12080,"Lissabon":12081,"XR":12082,"1650":12083,"...\"\"":12084,"Monte":12085,"Zijlstra":12086,"6x":12087,"eem":12088,"Moder":12089,"geprobeerd":12090,"premi":12091,"toegenomen":12092,"waardering":12093,"waterstaat":12094,"schok":12095,"ith":12096,"RC":12097,"HENK":12098,"excursies":12099,"Premier":12100,"vertrokken":12101,"Akker":12102,"Tineke":12103,"gezorgd":12104,"vermeld":12105,"bemoe":12106,"weers":12107,"Vader":12108,"gegarande":12109,"JH":12110,"Publ":12111,"your":12112,"Uitvaart":12113,"253":12114,"trainings":12115,"prettige":12116,"óók":12117,"Hey":12118,"vermoord":12119,"bisch":12120,"ontbreken":12121,"vissen":12122,"trent":12123,"schermen":12124,"Lelystad":12125,"Party":12126,"salon":12127,"defect":12128,"inema":12129,"Pir":12130,"oordelen":12131,"aals":12132,"ganger":12133,"eenvoudige":12134,"verbaas":12135,"knul":12136,"gein":12137,"rack":12138,"Soft":12139,"hectare":12140,"anonie":12141,"steurop":12142,"vy":12143,"istan":12144,"spuit":12145,"ƒlO":12146,"Ble":12147,"Commer":12148,"date":12149,"Major":12150,"undai":12151,"aids":12152,"ontwerpen":12153,"onderzoeks":12154,"uurs":12155,"schone":12156,"verlengd":12157,"Word":12158,"onbekend":12159,"opgezet":12160,"sbak":12161,"boos":12162,"aking":12163,"Bijbel":12164,"gee":12165,"faciliteiten":12166,"symp":12167,"voorwaarde":12168,"bnd":12169,"Sij":12170,"Tax":12171,"voo":12172,"8250":12173,"stationcar":12174,"telkens":12175,"Kroon":12176,"Wiersma":12177,"grenen":12178,"soortgelijke":12179,"HV":12180,"Antiek":12181,"ATOR":12182,"DELING":12183,"betrokkenheid":12184,"uitmaken":12185,"unil":12186,"riet":12187,"gevechten":12188,"Cop":12189,"meters":12190,"Buitenpost":12191,"Dracht":12192,"Tokyo":12193,"Gas":12194,"agr":12195,"hulpverlening":12196,"Andriessen":12197,"Sic":12198,"gepleegd":12199,"008":12200,"vallig":12201,"sportief":12202,"wanden":12203,"Afdeling":12204,"vriendschap":12205,"heater":12206,"stacar":12207,"427":12208,"Frits":12209,"NC":12210,"tweetal":12211,"Leven":12212,"°-":12213,"Tours":12214,"grotendeels":12215,"klem":12216,"voorbeelden":12217,"oa":12218,"provinciale":12219,"unus":12220,"Bren":12221,"04920":12222,"SPD":12223,"284":12224,"gevaarlijke":12225,"ontwormd":12226,"LER":12227,"TRI":12228,"1965":12229,"Rijswijk":12230,"sporten":12231,"!.":12232,"Twin":12233,"INDE":12234,"fers":12235,"engel":12236,"Klerk":12237,"glazen":12238,"gereageerd":12239,"helaas":12240,"Nuth":12241,"econ":12242,"BLO":12243,"parlements":12244,"regisseur":12245,"etn":12246,"koste":12247,"Trio":12248,"Wenen":12249,"Zwaag":12250,"chalets":12251,"Juni":12252,"Dvi":12253,"Wt":12254,"union":12255,"waarheid":12256,"orst":12257,"volwassenen":12258,"Mits":12259,"igranten":12260,"igings":12261,"grootte":12262,"ATS":12263,"Vlaanderen":12264,"light":12265,"year":12266,"Thij":12267,"olymp":12268,"nadrukkelijk":12269,"misdaadserie":12270,"Terug":12271,"Loo":12272,"yr":12273,"come":12274,"aangepast":12275,"JT":12276,"ève":12277,"voornaam":12278,"Okt":12279,"AUTOMOBI":12280,"Wier":12281,"geconfronteerd":12282,"kolon":12283,"fundament":12284,"Rut":12285,"Disney":12286,"functionarissen":12287,"Mode":12288,"bour":12289,"6250":12290,"liggende":12291,"zaterdags":12292,"riciteit":12293,"Drentse":12294,"matiek":12295,"verkrijgen":12296,"ƒ20":12297,"verlan":12298,"5250":12299,"She":12300,"daarnaast":12301,"LINGEN":12302,"267":12303,"vk":12304,"kuip":12305,"Stem":12306,"inkrijk":12307,"Schade":12308,"lukt":12309,"Hyundai":12310,"verdwijn":12311,"tse":12312,"Somal":12313,"omlaag":12314,"gir":12315,"eeuwse":12316,"geluids":12317,"merrie":12318,"292":12319,"580":12320,"449":12321,"294":12322,"atisering":12323,"IBM":12324,"Lucht":12325,"Benel":12326,"-)":12327,"373":12328,"lunch":12329,"Nik":12330,"Vanavond":12331,"®®":12332,"schad":12333,"aanbeveling":12334,"ligb":12335,"Glo":12336,"hits":12337,"ßß":12338,"Vaar":12339,"hè":12340,"Cle":12341,"tz":12342,"zinga":12343,"kruiser":12344,"Ivan":12345,"entje":12346,"onafhankelijke":12347,"0597":12348,"functionaris":12349,"RON":12350,"379":12351,"menig":12352,"Joseph":12353,"INST":12354,"appelen":12355,"cos":12356,"afgevaar":12357,"tribun":12358,"worth":12359,"263":12360,"Line":12361,"OOST":12362,"Zeil":12363,"gord":12364,"ih":12365,"LEID":12366,"|.":12367,"EXTRA":12368,"Garantie":12369,"accept":12370,"lichten":12371,"ARNHEM":12372,"Linde":12373,"865":12374,"priv":12375,"JET":12376,"75cpm":12377,"Steenwijk":12378,"965":12379,"poppen":12380,"Geel":12381,"pressie":12382,"Grond":12383,"kog":12384,"leerde":12385,"borst":12386,"opgelopen":12387,"spannend":12388,"onnen":12389,"grepen":12390,"BJ":12391,"0475":12392,"Willy":12393,"ason":12394,"buurman":12395,"fans":12396,"NED":12397,"oscoop":12398,"wonden":12399,"_____________":12400,"1969":12401,"Hunter":12402,"imat":12403,"Roos":12404,"Moor":12405,"eringen":12406,"SITT":12407,"CAMP":12408,"overweg":12409,"!,":12410,"ondernemen":12411,"VM":12412,"rin":12413,"spekt":12414,"DAMES":12415,"Jordan":12416,"monitor":12417,"zeiden":12418,"massaal":12419,"mees":12420,"Gezond":12421,"Pieters":12422,"359":12423,"HING":12424,"oy":12425,"GPV":12426,"997":12427,"investering":12428,"zwij":12429,"Benelux":12430,"beperken":12431,"IU":12432,"WAL":12433,"joen":12434,"Ame":12435,"Eu":12436,"Joegoslavische":12437,"lic":12438,"mering":12439,"Velde":12440,"Contact":12441,"ROME":12442,"afgesproken":12443,"bit":12444,"ikkeling":12445,"doele":12446,"flor":12447,"Pc":12448,"vooralsnog":12449,"gerenov":12450,"ƒ26":12451,"ames":12452,"massa":12453,"vertra":12454,"schaats":12455,"Perfect":12456,"Olympia":12457,"concours":12458,"illegale":12459,"beleggings":12460,"asme":12461,"haw":12462,"Stock":12463,"uitema":12464,"vergel":12465,"binnenstad":12466,"OK":12467,"voorheen":12468,"creatie":12469,"Transit":12470,"staart":12471,"Voorburg":12472,"nast":12473,"wortel":12474,"typen":12475,"licham":12476,"Geest":12477,"eri":12478,"Shar":12479,"neven":12480,"aftrek":12481,"ADO":12482,"ctoren":12483,"CAL":12484,"pjul":12485,"lenen":12486,"vrachtwagen":12487,"woordvoerster":12488,"ruzie":12489,"itisch":12490,"Becker":12491,"telefoont":12492,"belastingen":12493,"AMERS":12494,"Kennis":12495,"wt":12496,"TIP":12497,"MBA":12498,"centi":12499,"definitieve":12500,"wezig":12501,"heerlijke":12502,"drijf":12503,"Ace":12504,"ENEN":12505,"Zaandam":12506,"•:":12507,"MBURG":12508,"groente":12509,"Klooster":12510,"rookzilver":12511,"kist":12512,"Dorp":12513,"perc":12514,"Normaal":12515,"351":12516,"Team":12517,"Ann":12518,"Visa":12519,"orgaan":12520,"beëind":12521,"-^^":12522,"AANBIEDING":12523,"perceel":12524,"_a":12525,"wereldtitel":12526,"Sea":12527,"goedkope":12528,"949":12529,"volkomen":12530,"oprichting":12531,"6401":12532,"_s":12533,"spit":12534,"ating":12535,"adi":12536,"HEU":12537,"gemotiv":12538,"MT":12539,"puur":12540,"Faber":12541,"iaar":12542,"soapserie":12543,"jJ":12544,"Meerssen":12545,"Loosdrecht":12546,"Pronk":12547,"?,":12548,"onderstaande":12549,"JONG":12550,"Paas":12551,"ronken":12552,"STAR":12553,"heute":12554,"rekken":12555,"paarde":12556,"rukte":12557,"praktische":12558,"verwennen":12559,"dankt":12560,"gebruikers":12561,"SITTARD":12562,"unten":12563,"weert":12564,"onderzocht":12565,"SCORPIO":12566,"927":12567,"apparaten":12568,"gewezen":12569,"Watt":12570,"vlot":12571,"Miami":12572,"EERSTE":12573,"TEUR":12574,"reageert":12575,"scheids":12576,"534":12577,"LJ":12578,"Urn":12579,"Schrijf":12580,"04906":12581,"ild":12582,"geheugen":12583,"Ah":12584,"gebed":12585,"Meest":12586,"ingt":12587,"boulevard":12588,"neden":12589,"Arnold":12590,"077":12591,"letten":12592,"milli":12593,"PAGINA":12594,"ingedam":12595,"NIET":12596,"VIL":12597,"Jord":12598,"spectacul":12599,"Hendriks":12600,"Mercury":12601,"/*":12602,"najaar":12603,"Uitein":12604,"Dorps":12605,"gezonde":12606,"bestelling":12607,"huisjes":12608,"■\"":12609,"letje":12610,"weeg":12611,"liefhebber":12612,"STAND":12613,"gevend":12614,"Muz":12615,"trouwen":12616,"ontwer":12617,"zenders":12618,"Set":12619,"Aand":12620,"cellen":12621,"Voorts":12622,"gelegde":12623,"ENTE":12624,"tapijt":12625,"ène":12626,"optimaal":12627,"Laur":12628,"Iren":12629,"opname":12630,"Croes":12631,"pc":12632,"arbeiders":12633,"hallen":12634,"LIVE":12635,"808":12636,"bevinden":12637,"MEGA":12638,"verbruik":12639,"aansprakelijk":12640,"chester":12641,"Meester":12642,"TRE":12643,"Spl":12644,"effectenbeurs":12645,"274":12646,"betekende":12647,"Kortom":12648,"Aug":12649,"handelaar":12650,"Gelderland":12651,"gereg":12652,"vrezen":12653,"Diep":12654,"Mier":12655,"inda":12656,"grap":12657,"sportwielen":12658,"Cars":12659,"bk":12660,"behorende":12661,"glad":12662,"Steeds":12663,"ller":12664,"verhogen":12665,"Lies":12666,"aspe":12667,"Francis":12668,"Sjo":12669,"03420":12670,">'":12671,"ulum":12672,"sterd":12673,"houdelijke":12674,"kwartet":12675,"Young":12676,"Ther":12677,"kkel":12678,"istie":12679,"strip":12680,"daden":12681,"elektrische":12682,"koeien":12683,"iac":12684,"TRS":12685,"tijds":12686,"Zil":12687,"vormige":12688,"Weten":12689,"Ancona":12690,"speelden":12691,"sunroof":12692,"verkoopt":12693,"ela":12694,"sterende":12695,"Boris":12696,"Veer":12697,"vrijdagavond":12698,"vermelden":12699,"FAX":12700,"experiment":12701,"istra":12702,"Atlet":12703,"zwakke":12704,"klassen":12705,"663":12706,"azing":12707,"Bussurn":12708,"handhaven":12709,"kassa":12710,"ieerde":12711,"hoofdrol":12712,"ede":12713,"KAMP":12714,"voorbehouden":12715,"Roland":12716,"Uiteindelijk":12717,"moat":12718,"Tromp":12719,"voedings":12720,"rabb":12721,"schoonzuster":12722,"dynamische":12723,"SB":12724,"Smith":12725,"Sum":12726,"geleken":12727,"tafels":12728,"verzoeken":12729,"link":12730,"sets":12731,"dating":12732,"uitvoeringen":12733,"iw":12734,"gezeten":12735,"dial":12736,"02153":12737,"schrijvers":12738,"voornoemde":12739,"Oostduitse":12740,"carna":12741,"waan":12742,"onrust":12743,"MAVO":12744,"Sci":12745,"sdrs":12746,"Music":12747,"merkte":12748,"Kin":12749,"VAR":12750,"supermarkt":12751,"trend":12752,"ETTE":12753,"aarse":12754,"Anita":12755,"volstrekt":12756,"Baan":12757,"life":12758,"Effe":12759,"Spring":12760,"Lag":12761,"Loon":12762,"katholieke":12763,"Roelof":12764,"oranje":12765,"VHS":12766,"INFOR":12767,"CAF":12768,"Westduitse":12769,"werkplaats":12770,"ONDERDELEN":12771,"lé":12772,"bezichtigen":12773,"Els":12774,"negentig":12775,"Eigenlijk":12776,"Tiel":12777,"LUXE":12778,"\\/":12779,"zijdig":12780,"CENTR":12781,"348":12782,"VSB":12783,"Bonn":12784,"Oosterwolde":12785,"Vogel":12786,"toenmalige":12787,"House":12788,"advocaten":12789,"riculum":12790,"verschrik":12791,"werkervaring":12792,"oogde":12793,"vere":12794,"langdurige":12795,"Been":12796,"multi":12797,"streken":12798,"weduwnaar":12799,"iliteit":12800,"\",":12801,"wekelijks":12802,"arium":12803,"tain":12804,"vreugde":12805,"Hoofdweg":12806,"($":12807,"930":12808,"r_":12809,"Dj":12810,"Champ":12811,"lk":12812,"SNEEK":12813,"————————":12814,"buien":12815,"368":12816,">-":12817,"Bis":12818,"nicht":12819,"ekte":12820,"Beethoven":12821,"overloop":12822,"9250":12823,"Diana":12824,"psychiat":12825,"geestelijke":12826,"subsidies":12827,"Huisman":12828,"pf":12829,"andinav":12830,"Kawas":12831,"spartij":12832,"grand":12833,"Terpstra":12834,"SON":12835,"Schaes":12836,"2800":12837,"Ts":12838,"origine":12839,"MAK":12840,"Kerkstraat":12841,"textiel":12842,"duik":12843,"opnamen":12844,"binnenland":12845,"verhoudingen":12846,"maf":12847,"05190":12848,"free":12849,"opgelost":12850,"273":12851,"Stiens":12852,"meur":12853,"affin":12854,"vertegenwoordigd":12855,"producent":12856,"ZWART":12857,"Rood":12858,"02940":12859,"commo":12860,"Fly":12861,"Huurprijs":12862,"austr":12863,"partement":12864,"/,":12865,".&":12866,"1967":12867,"diende":12868,"Bedroefd":12869,"Genève":12870,"HART":12871,"rele":12872,"Ai":12873,"vennoot":12874,"slieden":12875,"401":12876,"blanke":12877,"Appingedam":12878,"osh":12879,"stevig":12880,"Bosma":12881,"volleybal":12882,"3450":12883,"stress":12884,"metal":12885,"letterlijk":12886,"moer":12887,"Trust":12888,"enquête":12889,"doeleinden":12890,"noten":12891,"arme":12892,"ather":12893,"leraar":12894,"hartelijk":12895,"bibliotheek":12896,"Vrede":12897,"merend":12898,"Syl":12899,"steekt":12900,"handig":12901,"betekend":12902,"667":12903,"LM":12904,"sac":12905,"eenheden":12906,"rooms":12907,"/-":12908,"Bellen":12909,"inië":12910,"Beurs":12911,"verple":12912,"rubber":12913,"verscheiden":12914,"408":12915,"pom":12916,"coure":12917,"stee":12918,"volge":12919,"Mond":12920,"weigerde":12921,"achterkleinkinderen":12922,"ags":12923,"afgel":12924,"trekking":12925,"omstreden":12926,"05970":12927,"zamer":12928,"meneer":12929,"vertal":12930,"donkere":12931,"haling":12932,"Vf":12933,"oplossingen":12934,"uinen":12935,"699":12936,"GRE":12937,"communi":12938,"beu":12939,"Comput":12940,"distributie":12941,"technologie":12942,"voorwerpen":12943,"Kies":12944,"öper":12945,"theorie":12946,"Petr":12947,"Py":12948,"flats":12949,"Uiteraard":12950,"ikke":12951,"wekkende":12952,"aanvoer":12953,"Scheven":12954,"PHIL":12955,"sna":12956,"zucht":12957,"STRE":12958,"ingerichte":12959,"Inf":12960,"verneur":12961,"KB":12962,"vres":12963,"02154":12964,"Charade":12965,"HINGTON":12966,"verlopen":12967,"biele":12968,"particulier":12969,"sthemen":12970,"Kawasaki":12971,"»«":12972,"opgeleverd":12973,"Lady":12974,"besturen":12975,"Nederlanden":12976,"MIL":12977,"anner":12978,"hypotheken":12979,"429":12980,"presenteert":12981,"oet":12982,"\\\\\\":12983,"opgebouwd":12984,"aanslagen":12985,"helik":12986,"\"\"\"\"\"\"\"\"":12987,"Malta":12988,"cin":12989,"DOORN":12990,"vissers":12991,"Nev":12992,"Comp":12993,"jocht":12994,"gevormd":12995,"lor":12996,"achtste":12997,"autot":12998,"mededeling":12999,"*:":13000,"362":13001,"exemplaren":13002,"Arden":13003,"praktisch":13004,"Theun":13005,"Internationaal":13006,"SSS":13007,"nag":13008,"balk":13009,"MAANDAG":13010,"financier":13011,"Deventer":13012,"braken":13013,"profiteren":13014,"Tv":13015,"tekens":13016,"mem":13017,"04120":13018,"Mill":13019,"elementen":13020,"krachtig":13021,"vijand":13022,"heerst":13023,"aanrijding":13024,"beïn":13025,"annon":13026,"LAM":13027,"820":13028,"ried":13029,"633":13030,"Ghia":13031,"Berkel":13032,"eh":13033,"terror":13034,"haak":13035,"pakte":13036,"Wageningen":13037,"Lancer":13038,"664":13039,"739":13040,"ialen":13041,"Schin":13042,"uwel":13043,"verwege":13044,"710":13045,"charistie":13046,"ceerde":13047,"•.":13048,"gedaald":13049,"vreest":13050,"Borde":13051,"Spie":13052,"waarover":13053,"Nicolaas":13054,"aangevuld":13055,"ZOEK":13056,"kleiner":13057,"680":13058,"ambt":13059,"GARAGE":13060,"Nv":13061,"outum":13062,"Rie":13063,"Ontw":13064,"lies":13065,"Rapid":13066,"gevel":13067,"koude":13068,"omtrent":13069,"Kas":13070,"spannende":13071,"Chri":13072,"Bloem":13073,"Bergum":13074,"kwalificatie":13075,"schud":13076,"bont":13077,"fabrieken":13078,"Motoren":13079,"langdurig":13080,"stisch":13081,"schoonmaak":13082,"stilte":13083,"bevindt":13084,"vir":13085,"arbeidsplaatsen":13086,",;":13087,"aanvullen":13088,"publiciteit":13089,"mam":13090,"oernooi":13091,"Eagles":13092,"versterking":13093,"erotische":13094,"Schitter":13095,"grijpen":13096,"Afgelopen":13097,"hie":13098,"situaties":13099,"ROOM":13100,"WEL":13101,"verdedigen":13102,"meubels":13103,"Arie":13104,"UE":13105,"ZEL":13106,"ÊÊÊ":13107,"Holiday":13108,"pomp":13109,"transp":13110,"Ernst":13111,"besten":13112,"voorgesteld":13113,"schulden":13114,"bezorging":13115,"Fot":13116,"perk":13117,"meijer":13118,"renovatie":13119,"PRA":13120,"Openingstijden":13121,"European":13122,"1968":13123,"ANO":13124,"nazi":13125,"compro":13126,"Drs":13127,"woonh":13128,"Tagesthemen":13129,"beest":13130,"Heuvel":13131,"Goe":13132,"dêr":13133,"Jou":13134,"Boot":13135,"zigen":13136,"bijz":13137,"lerse":13138,"Hermans":13139,"Namens":13140,"Bnk":13141,"eloos":13142,"vrijstaand":13143,"internationals":13144,"RUIL":13145,"DAAG":13146,"CITY":13147,"inspir":13148,"302":13149,"eerdere":13150,"schoonvader":13151,"352":13152,"medicijnen":13153,"vertrouwd":13154,"1945":13155,"pij":13156,"Welke":13157,"ALEN":13158,"ift":13159,"Ig":13160,"ZEIL":13161,"OCC":13162,"jeugdserie":13163,"eruit":13164,"landhuis":13165,"PAT":13166,"448":13167,"ingevoerd":13168,"quit":13169,"|\"":13170,"1971":13171,"roer":13172,"uitslagen":13173,"fluit":13174,"670":13175,"rut":13176,"dromen":13177,"dn":13178,"grondwet":13179,"363":13180,"GTD":13181,"**^":13182,"Itr":13183,"uitnodiging":13184,"zijden":13185,"menselijke":13186,"moeilijkheden":13187,"koos":13188,"bull":13189,"Helaas":13190,"Heerler":13191,"christenen":13192,"Horst":13193,"Simpelveld":13194,"ogram":13195,"Put":13196,"Graafschap":13197,"bestellen":13198,"das":13199,"MVV":13200,"vraagprijs":13201,"tegelijkertijd":13202,"..,":13203,"onderbouw":13204,"OLL":13205,"CONT":13206,"Haasjes":13207,"%)":13208,"iels":13209,"gewaarde":13210,"3i":13211,"bevr":13212,"wiens":13213,"momenten":13214,"premies":13215,"optimale":13216,"José":13217,"verschijnt":13218,"spelprogramma":13219,"lE":13220,"wth":13221,"huisarts":13222,"Nwe":13223,"Vac":13224,"gol":13225,"lende":13226,"lect":13227,"••••••••":13228,"overgebracht":13229,"Sav":13230,"WIJS":13231,"ƒ27":13232,"Lage":13233,"CNV":13234,"bast":13235,"gier":13236,"crè":13237,"voers":13238,"lijsten":13239,"deelt":13240,"Kroatische":13241,"passende":13242,"vei":13243,"logen":13244,"VRIJDAG":13245,"DEEL":13246,"kus":13247,"Veiligheidsraad":13248,"confront":13249,"stoe":13250,"yester":13251,"725":13252,"Volle":13253,"WASHINGTON":13254,"kmr":13255,"gooien":13256,"schand":13257,"nal":13258,"Emm":13259,"vooruitzicht":13260,"wording":13261,"V_":13262,"gementen":13263,"aute":13264,"nettowinst":13265,"m_":13266,"aanhangers":13267,"Tai":13268,"Union":13269,"rah":13270,"wetenschappelijk":13271,"OLLE":13272,"koppen":13273,"leidinggevende":13274,"Binnenlandse":13275,"*%":13276,"alom":13277,"elei":13278,"zakt":13279,"long":13280,"NOR":13281,"deloos":13282,"brandstof":13283,"aspecten":13284,"ertjes":13285,"afzet":13286,"Annie":13287,"lingerie":13288,"980":13289,"schema":13290,"dichtbij":13291,"lederen":13292,"zits":13293,"opte":13294,"break":13295,"HANDEL":13296,"hoogst":13297,"federatie":13298,"zuinig":13299,"wagon":13300,"Arubaanse":13301,"uela":13302,"tochten":13303,"zeventien":13304,"?\"\"\"":13305,":-":13306,"grijze":13307,"overhand":13308,"fortuin":13309,"samenwerkings":13310,"alys":13311,"ato":13312,"onafhankelijkheid":13313,"SCHIPHOL":13314,"monteurs":13315,"Mij":13316,"suggest":13317,"kids":13318,"ieme":13319,"basket":13320,"Portuge":13321,"werklozen":13322,"uitvaartcentrum":13323,"ück":13324,"sberg":13325,"fire":13326,"Burger":13327,"schroef":13328,"Estate":13329,"bef":13330,"intussen":13331,"verklaren":13332,"Cyp":13333,"Omroep":13334,"neveld":13335,"corru":13336,"Workum":13337,"Juist":13338,"touw":13339,"3200":13340,"és":13341,"05115":13342,"schitterend":13343,"OMEGA":13344,"myn":13345,"omgaan":13346,"üh":13347,"dactie":13348,"heffen":13349,"Schar":13350,"fracties":13351,"omroepen":13352,"ATA":13353,"bruine":13354,"nip":13355,"lammeren":13356,"voorziet":13357,"smo":13358,"halte":13359,"straffen":13360,"BOOT":13361,"toom":13362,"uitleg":13363,"Fransen":13364,"verklaart":13365,"AMERSFOORT":13366,"aagden":13367,"netwerk":13368,"aboratorium":13369,"Tsjechoslowakije":13370,"conclude":13371,"VAAR":13372,"KAMER":13373,"Urk":13374,"voetballer":13375,"nrc":13376,"Breukink":13377,"Hemel":13378,"Pei":13379,"amerik":13380,"WAO":13381,"streng":13382,"Jm":13383,"für":13384,"«■":13385,"rondreis":13386,"beco":13387,"NATION":13388,"Enter":13389,"Mf":13390,"Rat":13391,"sancties":13392,"2600":13393,"342":13394,"levende":13395,"WERKER":13396,"vierkante":13397,"Jongens":13398,"erweg":13399,"radic":13400,"snelste":13401,"1960":13402,"educ":13403,"lachen":13404,"details":13405,"Margriet":13406,"Leg":13407,"Hur":13408,"gran":13409,"ambul":13410,"koppeling":13411,"kollektie":13412,"hyg":13413,"nar":13414,"Berger":13415,"menen":13416,"ondergebracht":13417,"wetten":13418,".■":13419,"consum":13420,"öf":13421,"Eddy":13422,"942":13423,"medaille":13424,"irs":13425,"franse":13426,"HR":13427,"kliniek":13428,"filosof":13429,"groeper":13430,"Tulip":13431,"Pn":13432,"SMIT":13433,"paradijs":13434,"vakken":13435,"Wan":13436,"peper":13437,"samenwerken":13438,"Postb":13439,"vertr":13440,"held":13441,"mort":13442,"ér":13443,"CHER":13444,"corre":13445,"02522":13446,"FUN":13447,"opsgez":13448,"RIK":13449,"azer":13450,"7250":13451,"voorgaande":13452,"pian":13453,"gedo":13454,"antisch":13455,"MAG":13456,"enthousiasme":13457,"chs":13458,"misbruik":13459,"verdiende":13460,"957":13461,"Geul":13462,"Pent":13463,"ced":13464,"persbureau":13465,"afw":13466,"...,":13467,"oton":13468,"sprijzen":13469,"fal":13470,"cliënt":13471,"Hone":13472,"Pag":13473,"hm":13474,"signal":13475,"vacature":13476,"Lau":13477,"Utrechtse":13478,"toeg":13479,"Deense":13480,"ingew":13481,"eline":13482,"Gezocht":13483,"ieus":13484,"BLAUW":13485,"gewest":13486,"Dri":13487,"gekeken":13488,"eisten":13489,"CORSA":13490,"prettig":13491,"openingstijden":13492,"speelgoed":13493,"But":13494,"Lieve":13495,"waarder":13496,"ERE":13497,"voorstellingen":13498,"Onderzoek":13499,"point":13500,"tet":13501,"fantasie":13502,"tehuis":13503,"Carina":13504,"Wins":13505,"down":13506,"raketten":13507,"Rio":13508,"geaccep":13509,"komedie":13510,"417":13511,"agazine":13512,"aankomst":13513,"kruiden":13514,"administratief":13515,"Astra":13516,"herstellen":13517,"spijt":13518,"Hengelo":13519,"vereiste":13520,"bereidheid":13521,"apper":13522,"Samp":13523,"JOHANNES":13524,"formaat":13525,"isatie":13526,"ologen":13527,"plete":13528,"extreem":13529,"objecten":13530,"!?":13531,"ancy":13532,"bijstand":13533,"Noordzee":13534,"Giro":13535,"358":13536,"Trouw":13537,"Us":13538,"selen":13539,"855":13540,"instanties":13541,"Doet":13542,"MEAO":13543,"plegen":13544,"Nieuwegein":13545,"voorts":13546,"eerlijke":13547,"wekkend":13548,"winkelcentrum":13549,"fantastische":13550,"HK":13551,"machts":13552,"Mem":13553,"2212":13554,"04132":13555,"Geboren":13556,"diplomatie":13557,"*^^":13558,"eik":13559,"uwers":13560,"bedacht":13561,"fris":13562,"deaux":13563,"istieke":13564,".—":13565,"CM":13566,"keurige":13567,"CLX":13568,"vandaan":13569,"urige":13570,"weide":13571,"TZ":13572,"indeling":13573,"Zandvoort":13574,"Neer":13575,"ANDER":13576,"parade":13577,"/\"\"":13578,"importeur":13579,"9en":13580,"üd":13581,"gemeentehuis":13582,"Alger":13583,"inchem":13584,"Administr":13585,"rain":13586,"BRUN":13587,"VGA":13588,"provis":13589,"Ss":13590,"zó":13591,"onken":13592,"vermin":13593,"Oli":13594,"02230":13595,"roei":13596,"gal":13597,"dies":13598,"Jelle":13599,"ƒ39":13600,"Fryske":13601,"vermindering":13602,"Past":13603,"centrales":13604,"geprijs":13605,"getal":13606,"INO":13607,"689":13608,"Cad":13609,"Mogelijk":13610,"Had":13611,"waa":13612,"Zoetermeer":13613,"CAP":13614,"SAM":13615,"staken":13616,"hals":13617,"tweehonderd":13618,"Braziliaanse":13619,"Vro":13620,"uilen":13621,"Coll":13622,"Mie":13623,"ingcar":13624,"Trop":13625,"rechtse":13626,"Rosa":13627,"|||":13628,"hero":13629,"usement":13630,"inaire":13631,"SAT":13632,"beland":13633,"compens":13634,"Anne":13635,"Happy":13636,"dirigent":13637,"ioen":13638,"CJ":13639,"sterweg":13640,"ila":13641,"Ret":13642,"805805":13643,"Buk":13644,"Irene":13645,"356":13646,"verm":13647,"now":13648,"zakenman":13649,"less":13650,"Wei":13651,"AKKER":13652,"pacht":13653,"Muller":13654,"Lisa":13655,"mast":13656,"565":13657,"Stations":13658,"fli":13659,"Volk":13660,"MMMM":13661,"mov":13662,"IRD":13663,"05610":13664,"zondags":13665,"concentratie":13666,"specteur":13667,"Basten":13668,"iessen":13669,"iode":13670,"taxi":13671,"DY":13672,"GIDS":13673,"887":13674,"CIV":13675,"Thailand":13676,"MAHA":13677,"zonnige":13678,"Advocaat":13679,"VIN":13680,"Koeman":13681,"Syrië":13682,"presiden":13683,"dringend":13684,"IUS":13685,"rees":13686,"Afrikaanse":13687,"dienstverband":13688,"makelaars":13689,"Zat":13690,"bii":13691,"\"|":13692,"curriculum":13693,"reserv":13694,"dren":13695,"broers":13696,"voorlopige":13697,"Classic":13698,"sei":13699,"aasje":13700,"orthodo":13701,"verblijven":13702,"duister":13703,"werkelijke":13704,"rappor":13705,"manifest":13706,"toename":13707,"Broe":13708,"Piers":13709,"Hass":13710,"Regie":13711,"inspectie":13712,"akte":13713,"kapot":13714,"PETER":13715,"nodigen":13716,"scen":13717,"religieuze":13718,"klasser":13719,"honk":13720,"issel":13721,"schaatsen":13722,"Russisch":13723,"bedanken":13724,"Libanon":13725,"Keuken":13726,"Noorse":13727,"jac":13728,"ër":13729,"onna":13730,"Compan":13731,"CAD":13732,"charistieviering":13733,"Belan":13734,"Wes":13735,"kleden":13736,"Anneke":13737,"verbazing":13738,"uitlaat":13739,"overval":13740,"HEREN":13741,"stag":13742,"allas":13743,"BBS":13744,"varkens":13745,"Oslo":13746,"„,":13747,"Capelle":13748,"V2":13749,"slepen":13750,"Nadere":13751,"Doorn":13752,"leerk":13753,"afzonder":13754,"spullen":13755,"korps":13756,"1050":13757,"GEME":13758,"Journal":13759,"voorschade":13760,"SD":13761,"Ari":13762,"mende":13763,"apest":13764,"CAN":13765,"surf":13766,"disco":13767,"besproken":13768,"geschil":13769,"discipl":13770,"vitae":13771,"bovengenoemde":13772,"Olympisch":13773,"lating":13774,"vriendinnen":13775,"III":13776,"526":13777,"kamerlid":13778,"GELD":13779,"renner":13780,"_fl":13781,"Borg":13782,"Atlant":13783,"amper":13784,"kong":13785,"Parad":13786,"koffer":13787,"duidelijkheid":13788,"Bijz":13789,"ikkeld":13790,"docent":13791,"tekende":13792,"óf":13793,"661":13794,"uitkomst":13795,"Hubert":13796,"'<":13797,"kv":13798,"Gan":13799,"Poly":13800,"onderscheid":13801,"zogenoemde":13802,"vrijen":13803,"skip":13804,"opent":13805,"mart":13806,"spoedgevallen":13807,"VP":13808,"Kh":13809,"Bordeaux":13810,"voorbereiden":13811,"Last":13812,"onnodig":13813,"TWEE":13814,"stuurt":13815,"schilderij":13816,"credit":13817,"Romario":13818,"gewel":13819,"oefening":13820,"opinie":13821,"gelei":13822,"neu":13823,"02274":13824,"houdende":13825,"Orig":13826,"populaire":13827,"visser":13828,"rict":13829,"porno":13830,"minga":13831,"vacu":13832,"Veg":13833,"reiniging":13834,"868":13835,"docenten":13836,"Zal":13837,"ingaan":13838,"rayon":13839,"VEIL":13840,",/":13841,"______________":13842,"sam":13843,"presenteren":13844,"Tipo":13845,"*~":13846,"DIENST":13847,"flits":13848,"voorop":13849,"MEDEWERK":13850,"HN":13851,"pake":13852,"LEY":13853,"ellende":13854,"Marokk":13855,"dero":13856,"Ever":13857,"MITSU":13858,"uitst":13859,"Holly":13860,"doorgaans":13861,"jd":13862,"technieken":13863,"Edwin":13864,"schorsing":13865,"portefe":13866,"_k":13867,"Personeelszaken":13868,"tree":13869,"nep":13870,"graad":13871,"indo":13872,"zalen":13873,"Dc":13874,"buik":13875,"plank":13876,"vrijwaring":13877,"blijkbaar":13878,"fels":13879,"rv":13880,"01843":13881,"aangegeven":13882,"biljet":13883,"CAT":13884,"familieleden":13885,"enter":13886,"toespraak":13887,"Badhoeve":13888,"talloze":13889,"neerslag":13890,"fys":13891,"aantoon":13892,"CINEMA":13893,"NW":13894,"Mn":13895,"KORTING":13896,"Groningse":13897,"Greg":13898,"vervuiling":13899,"Vroeger":13900,"wein":13901,"derijen":13902,"ARTS":13903,"commandant":13904,"emd":13905,"Ommen":13906,"fokker":13907,"ƒ8":13908,"ruilen":13909,"toeristische":13910,"schatten":13911,"EH":13912,"REAU":13913,"SEC":13914,"bordeaux":13915,"Atl":13916,"klooster":13917,"Wimble":13918,"RVU":13919,"stapel":13920,"onische":13921,"afgewezen":13922,"aangifte":13923,"Tik":13924,"oever":13925,"•••":13926,"BISHI":13927,"PAC":13928,"kri":13929,"gaand":13930,"kties":13931,"welzijn":13932,"Wouters":13933,"veter":13934,"Inv":13935,"Gullit":13936,"ail":13937,"Wk":13938,"koek":13939,"IRA":13940,"gevo":13941,"uitz":13942,"ificatie":13943,"schaps":13944,"woonde":13945,"Breakfast":13946,"rog":13947,"Graf":13948,"609":13949,"regime":13950,"MEISJE":13951,"Kuiper":13952,"geïsoleerd":13953,"BIN":13954,"sticht":13955,"lau":13956,"Variant":13957,"2900":13958,"jal":13959,"woningbouw":13960,"kasteel":13961,"Mw":13962,"lines":13963,"Dt":13964,"283":13965,"STUDIO":13966,"iking":13967,"platteland":13968,"FRANK":13969,"terreinen":13970,"broken":13971,"%\"":13972,"Prel":13973,"erkenning":13974,"467":13975,"Chr":13976,"aktiviteiten":13977,"Hervorm":13978,"gaaf":13979,"YAMAHA":13980,"musical":13981,"AMER":13982,"arbeidsongeschikt":13983,"poot":13984,"spoilers":13985,"XS":13986,"onderlinge":13987,"aads":13988,"-«":13989,"ASION":13990,"601":13991,"Chic":13992,"Olden":13993,"broeken":13994,"herinneringen":13995,"betrouwbaar":13996,"scheppen":13997,"1850":13998,"voegde":13999,"registratie":14000,"ifi":14001,"Meg":14002,"voertuigen":14003,"sik":14004,"BP":14005,"Autosport":14006,">*":14007,"Wassenaar":14008,"class":14009,"693":14010,"Bie":14011,"Tet":14012,"eenkomst":14013,"nichten":14014,"controleren":14015,"Azië":14016,"alleenstaanden":14017,"Aer":14018,"betrouwbare":14019,"6400":14020,"oorspronkelijke":14021,".)\"":14022,"overtuiging":14023,"gestopt":14024,"ICHTING":14025,"specifieke":14026,"hed":14027,"zilveren":14028,";'":14029,"ieserie":14030,"RIJK":14031,"Bug":14032,"Telefax":14033,"entiële":14034,"Colle":14035,"757":14036,"gedraa":14037,"Kopen":14038,"afgerond":14039,"Uitslagen":14040,"Ei":14041,"GOS":14042,"Bedum":14043,"Gogh":14044,"Kraj":14045,"2610":14046,"Elsevier":14047,"HULP":14048,"apar":14049,"samenstelling":14050,"Scandinav":14051,"Toon":14052,"Vlaard":14053,"kels":14054,";\"":14055,"daadwerkelijk":14056,"plaatsje":14057,"aanwijzingen":14058,"row":14059,"Jager":14060,"^—":14061,"geaccepteerd":14062,"central":14063,"1966":14064,"Leidse":14065,"Documentaire":14066,"brachten":14067,"Druk":14068,"Pontiac":14069,"uitstel":14070,"oogst":14071,"Vuur":14072,"timmer":14073,"sympath":14074,"uitkomen":14075,"JW":14076,"denberg":14077,"slpk":14078,"Carr":14079,"bewegen":14080,"versloeg":14081,"590":14082,"raham":14083,"belangrijker":14084,"ül":14085,"icket":14086,"flu":14087,"deskundig":14088,"droef":14089,"KKER":14090,"Romein":14091,"lezer":14092,"gelov":14093,"vante":14094,"ingestraat":14095,"htl":14096,"~.":14097,"uitgev":14098,"masse":14099,"vgf":14100,"Arafat":14101,"hing":14102,"Targa":14103,"yi":14104,"meegenomen":14105,"betrekkingen":14106,"Telstar":14107,"vroege":14108,"pony":14109,"Kontakt":14110,"troch":14111,"contr":14112,"royal":14113,"Vrie":14114,"bestuurslid":14115,"ateau":14116,"CIA":14117,"poly":14118,"Kooistra":14119,"geschikte":14120,"Servië":14121,"Rabin":14122,"gym":14123,"Piccolo":14124,"slaagde":14125,"stevige":14126,"schree":14127,"icaanse":14128,"umph":14129,"DAAL":14130,"Orion":14131,"4drs":14132,"ierde":14133,"j_":14134,"wekelijkse":14135,"gerestau":14136,"Gij":14137,"occ":14138,"ankelijk":14139,"MATIE":14140,"Heracles":14141,"FER":14142,"Starlet":14143,"uchten":14144,"stunt":14145,"Wimbledon":14146,"omstreeks":14147,"MITSUBISHI":14148,"elson":14149,"Badhoevedorp":14150,"Robin":14151,"première":14152,"gie":14153,"Bunde":14154,"kopie":14155,"SCHIL":14156,"Zeg":14157,"maatschappelijk":14158,"democraten":14159,"inaal":14160,"spark":14161,"tegendeel":14162,"gemann":14163,"alaan":14164,"hadow":14165,"Studenten":14166,"Pens":14167,"TY":14168,"696":14169,"Aker":14170,"filiaal":14171,"problematiek":14172,"paleis":14173,"DGX":14174,"chtend":14175,"rends":14176,"vruchten":14177,"voldoet":14178,"begla":14179,"vergeef":14180,"derie":14181,"garant":14182,"gedreven":14183,"watersport":14184,"mezelf":14185,"REL":14186,"One":14187,"DONDER":14188,"oers":14189,"love":14190,"512":14191,"container":14192,":^":14193,"NAT":14194,"verkoper":14195,"Colum":14196,"01820":14197,"LICHT":14198,"verliest":14199,"onte":14200,"series":14201,"Werkt":14202,"bepal":14203,"restaurants":14204,"verslaaf":14205,"Skoda":14206,"days":14207,"lastig":14208,"werknemer":14209,"profiel":14210,"Frysl":14211,"pui":14212,"2607":14213,"5x":14214,"patro":14215,"Koeweit":14216,"OCCASION":14217,"kolleg":14218,"moedig":14219,"cadeau":14220,"Gulpen":14221,"verandert":14222,"UEF":14223,"ermee":14224,"bogen":14225,"concurrent":14226,"03495":14227,"drukke":14228,"moeilijker":14229,"annonce":14230,"Call":14231,"Um":14232,"opknap":14233,"opdrachtgever":14234,"gebruikelijke":14235,"geringe":14236,"accu":14237,"opgelet":14238,"Warschau":14239,"Zut":14240,"ution":14241,"origineel":14242,"IEL":14243,"Paris":14244,"Willems":14245,"353":14246,"Pie":14247,"357":14248,"gelukt":14249,"gelooft":14250,"cultureel":14251,"369":14252,"woede":14253,"KENS":14254,"uitgerust":14255,"VORK":14256,"thee":14257,"atelier":14258,"dtop":14259,"gevoelig":14260,"443":14261,"Jij":14262,"TIJ":14263,"treffers":14264,"design":14265,"vertrouwde":14266,"topman":14267,"wijde":14268,"afwezig":14269,"overn":14270,"Amicit":14271,"717":14272,"versterken":14273,"Elf":14274,"boys":14275,"—'":14276,"Pun":14277,"Speciaal":14278,"steuropese":14279,"Pep":14280,"ards":14281,"Ministerie":14282,"Prachtige":14283,"gegarandeerd":14284,"ierse":14285,"854":14286,"pir":14287,"delings":14288,"-\\":14289,"mear":14290,"antracietgrijs":14291,"PIE":14292,"Veenendaal":14293,"weigeren":14294,"Verhuur":14295,"dichten":14296,"weigert":14297,"Consult":14298,"Qui":14299,"verval":14300,"mmingen":14301,"Speed":14302,"overleven":14303,"auteur":14304,"BUREAU":14305,"647":14306,"SG":14307,"biza":14308,"stadium":14309,"Dist":14310,"Zol":14311,"Duitser":14312,"jongeman":14313,"AME":14314,"usen":14315,"onderste":14316,"Rozen":14317,".?":14318,"linger":14319,"medewerkster":14320,"wb":14321,"champagne":14322,"verhuizen":14323,"striping":14324,"oria":14325,"606":14326,"toestellen":14327,"PRINS":14328,"onderweg":14329,"verzorgde":14330,"Amig":14331,"feestdagen":14332,"££":14333,"treft":14334,"Joh":14335,"Langs":14336,"PAK":14337,"ïi":14338,"Winsum":14339,"INGE":14340,"Cra":14341,"Juliana":14342,"Actualiteiten":14343,"moeiz":14344,"thuisclub":14345,"RESTA":14346,"VIDEO":14347,"L_":14348,"713":14349,"big":14350,"Harder":14351,"Beu":14352,"261":14353,"ssss":14354,"reerde":14355,"ischer":14356,"bepaalt":14357,"cards":14358,"role":14359,"Alg":14360,"Wj":14361,"DERIJ":14362,"FOND":14363,"341":14364,"HORE":14365,".):":14366,"kit":14367,"wouden":14368,"Veronique":14369,"dij":14370,"Made":14371,"any":14372,"Heerlense":14373,"equi":14374,"teef":14375,"WINTER":14376,"zeren":14377,"cum":14378,"545":14379,"\"\")":14380,"transacties":14381,"Eems":14382,"zondagavond":14383,"KAN":14384,"ballen":14385,"prior":14386,"aliseerde":14387,"wert":14388,"proeven":14389,"vrouwtjes":14390,"GEEN":14391,"05905":14392,"automaten":14393,"orten":14394,"inschrijving":14395,"schoen":14396,"KNP":14397,"kantine":14398,"dader":14399,"bekendheid":14400,"schoonmoeder":14401,"vinger":14402,"William":14403,"voornaamste":14404,"verleend":14405,"philips":14406,"energ":14407,"Ruiter":14408,"schaduw":14409,"baat":14410,"tram":14411,"yle":14412,"MD":14413,"262":14414,"angers":14415,"lans":14416,"scollege":14417,"bewegingen":14418,"willige":14419,"ooker":14420,"906":14421,"boyen":14422,"schijnt":14423,"beraad":14424,"parken":14425,"kne":14426,"late":14427,"Manta":14428,"stier":14429,"jonger":14430,"exploitatie":14431,"Diam":14432,"Carl":14433,"tok":14434,"criter":14435,"Help":14436,"712":14437,"spat":14438,"vlam":14439,"menselijk":14440,"wandelen":14441,"nm":14442,"tanks":14443,"duurde":14444,"'\\":14445,"mededelingen":14446,"det":14447,"kaj":14448,"imo":14449,"gepubliceerd":14450,"364":14451,"Company":14452,"zwanger":14453,"imago":14454,"Gravenhage":14455,"spelletjes":14456,"Transporter":14457,"gart":14458,"ume":14459,"mmW":14460,"Poort":14461,"meubil":14462,"gedegen":14463,"ener":14464,"moeders":14465,"persoonlijkheid":14466,"islamitische":14467,"ima":14468,"Telecom":14469,"gewaarschuw":14470,"herzien":14471,"hanger":14472,"xc":14473,"STICHTING":14474,"opgeheven":14475,"teleurgesteld":14476,"debuut":14477,"lonen":14478,"andy":14479,"SPR":14480,"totdat":14481,"vertrekt":14482,"irlpool":14483,"kart":14484,"1944":14485,"scholieren":14486,"BEDRIJFS":14487,"Emmel":14488,"sterkste":14489,"!*":14490,"TAIN":14491,"zwe":14492,"lets":14493,"planning":14494,"reizigers":14495,"TIEN":14496,"UEFA":14497,"Vlaamse":14498,"sollicitatiebrief":14499,"projekt":14500,"Bran":14501,"BUR":14502,"touringcar":14503,"opzetten":14504,"rusten":14505,"bundel":14506,"Alpen":14507,"manieren":14508,"p1":14509,"__H":14510,"Inform":14511,"Hay":14512,"Arm":14513,"Mocht":14514,"'?":14515,"Bell":14516,"lokaal":14517,"vacatures":14518,"Ree":14519,"Akkrum":14520,"zijdige":14521,"That":14522,"Scheep":14523,"cci":14524,"Weekend":14525,"brink":14526,"Abonne":14527,"Zich":14528,"Chinees":14529,"kantoorruimte":14530,"mk":14531,"onderscheiden":14532,"608":14533,"woonachtig":14534,"tsje":14535,"Prakt":14536,"ulde":14537,"Sin":14538,"coördinator":14539,"DONDERDAG":14540,"arkt":14541,"&&":14542,",:":14543,"979":14544,"felle":14545,"Smits":14546,"ruimten":14547,"WU":14548,"_3":14549,"rukken":14550,"vanzelfsprekend":14551,"verklaringen":14552,"zuivel":14553,"1350":14554,"~-":14555,"vergroten":14556,"Bes":14557,"GENS":14558,"Aktuelle":14559,"aaa":14560,"acon":14561,"valu":14562,"Kwart":14563,"symb":14564,"SUNNY":14565,"begrijpelijk":14566,"accepteren":14567,"scholing":14568,"arrangementen":14569,"bosrijke":14570,"SHOF":14571,"huizer":14572,"overschot":14573,"Stefan":14574,"Kool":14575,"Momenteel":14576,"Domin":14577,"rijpe":14578,"PEL":14579,"vakant":14580,"394":14581,"Prince":14582,"spolitie":14583,"Ket":14584,"spoel":14585,"continu":14586,"adverteren":14587,"Isl":14588,"digdheden":14589,"ookt":14590,"donderdagavond":14591,"gok":14592,"RESTAURANT":14593,"SLAG":14594,"dete":14595,"opmerkelijk":14596,"call":14597,"achteraf":14598,"blz":14599,"Manager":14600,"dealers":14601,"verdienste":14602,"uns":14603,"slen":14604,"03418":14605,"teruggenomen":14606,"Prop":14607,"ée":14608,"looptijd":14609,"behandelen":14610,"Douglas":14611,"Stutt":14612,"iël":14613,"beurzen":14614,"paper":14615,"Barneveld":14616,"ademisch":14617,"Ring":14618,"Att":14619,"syst":14620,"opeens":14621,"Vj":14622,"derhalve":14623,"Nelson":14624,"zelfst":14625,"personeelsleden":14626,"Texel":14627,"775":14628,"Schaap":14629,"pure":14630,"wachting":14631,"verrast":14632,"centimeter":14633,"peloton":14634,"MEL":14635,"geerde":14636,"vastgelegd":14637,"nak":14638,"geestelijk":14639,"esa":14640,"Life":14641,"Bast":14642,"tere":14643,"verwar":14644,"KEMA":14645,"documentaires":14646,"ioren":14647,"1940":14648,"Ferrari":14649,"714":14650,"nf":14651,"moede":14652,"ketel":14653,"Dankbaar":14654,"Cyprus":14655,"Schotland":14656,"houdelijk":14657,"dai":14658,"BRAND":14659,"IKON":14660,"711":14661,"stijgt":14662,"Venet":14663,"Vli":14664,"^|":14665,"meegemaakt":14666,"langzamer":14667,"verteld":14668,"Rod":14669,"Nova":14670,"perspectief":14671,"RID":14672,"STEEN":14673,"durven":14674,"Litouwen":14675,"tische":14676,"Hongkong":14677,"xon":14678,"Ent":14679,"Vrienden":14680,"gekost":14681,"Binnenkort":14682,"Interesse":14683,"stapte":14684,"OV":14685,"jezelf":14686,"Personen":14687,"muren":14688,"stech":14689,"spand":14690,"t_":14691,"blo":14692,"SCHAP":14693,"Rook":14694,"bestemmingsplan":14695,"historisch":14696,"cast":14697,"Event":14698,"fabrieks":14699,"ADAM":14700,"schakelen":14701,"5O":14702,"Nobel":14703,"Hamburg":14704,"AKZ":14705,"vrolijk":14706,"godsdienst":14707,"slijn":14708,"trof":14709,"Vaak":14710,"0596":14711,"geall":14712,"BES":14713,"gist":14714,"Aken":14715,"RAN":14716,"Stap":14717,"Zwi":14718,"analyse":14719,"vergaderingen":14720,"richtingen":14721,"slanke":14722,"koploper":14723,"uses":14724,"atletiek":14725,"■»":14726,"PAU":14727,"lire":14728,"TEX":14729,"aangezien":14730,"iu":14731,"valuta":14732,"gewapende":14733,"Israë":14734,"ROEST":14735,"fic":14736,"schoonheid":14737,"bespreek":14738,"Persoon":14739,"Bernhard":14740,"mul":14741,"886":14742,"schik":14743,"nagenoeg":14744,"alg":14745,"CIVIC":14746,"aanwezige":14747,"tema":14748,"riante":14749,"kado":14750,"troost":14751,"flessen":14752,"nder":14753,"___l":14754,"discrimin":14755,"Lijn":14756,"geert":14757,"jL":14758,"rijder":14759,"keram":14760,"GRAND":14761,"ACHTER":14762,"Uitste":14763,"Vander":14764,"middelbare":14765,"Hogeschool":14766,"GROEN":14767,"f3":14768,"verwijderd":14769,"745":14770,"oere":14771,"Road":14772,"Pacific":14773,"ingsdienst":14774,"Finland":14775,"opkomst":14776,"Stol":14777,"PAP":14778,"chol":14779,"liefdevolle":14780,"Purmerend":14781,"iëring":14782,"Bü":14783,"panden":14784,"center":14785,"wijzigd":14786,"sparen":14787,"Ibiza":14788,"709":14789,"Engl":14790,"confrontatie":14791,"verdwijnt":14792,"Pt":14793,"zz":14794,"verzekeraars":14795,"Kil":14796,"icek":14797,"millimeter":14798,"zef":14799,"OFF":14800,"sman":14801,"Heere":14802,"etnische":14803,"iseerd":14804,"IGING":14805,"Cn":14806,"Stationsweg":14807,"Scheveningen":14808,"wart":14809,"maandagavond":14810,"LIG":14811,"soep":14812,"gebles":14813,"remmen":14814,"TELEAC":14815,"atl":14816,"inleveren":14817,"bewuste":14818,"Soe":14819,"Recreatie":14820,"ILVER":14821,"Sonja":14822,"architectuur":14823,"industrieterrein":14824,"work":14825,"WAG":14826,"illon":14827,"~,":14828,"\"\"«":14829,"Vink":14830,"tweemaal":14831,"Emma":14832,"Text":14833,"voorzit":14834,"ronics":14835,"First":14836,"hoeken":14837,"5280":14838,"FRANS":14839,"aanvaller":14840,"Services":14841,"kalveren":14842,"Schaesberg":14843,"HEND":14844,"klagen":14845,"Heilige":14846,"gesteund":14847,"alisatie":14848,"Fro":14849,"Britten":14850,"verlenging":14851,"2O":14852,"Alders":14853,"ondeu":14854,"ASE":14855,"VK":14856,"opmerking":14857,"FRIES":14858,"editie":14859,"mise":14860,"Gooi":14861,"fem":14862,"schuil":14863,"AARS":14864,"stalige":14865,"IJsselmeer":14866,"infra":14867,"human":14868,"GEREN":14869,"Watersport":14870,"genl":14871,"containers":14872,"Denk":14873,"vattingen":14874,"woest":14875,"gewaarschuwd":14876,"BAS":14877,"Hagen":14878,"South":14879,"drit":14880,"Zwaagwe":14881,"twe":14882,"geschorst":14883,"vijver":14884,"Ear":14885,"beschuldigd":14886,"Deutsch":14887,"pokt":14888,"ental":14889,"Verre":14890,"euro":14891,"02979":14892,"iff":14893,"heus":14894,"674":14895,"Ges":14896,"ML":14897,"790":14898,"Buren":14899,"trainen":14900,"wold":14901,"Nü":14902,"Zou":14903,"Oc":14904,"rijst":14905,"vergeleken":14906,"02975":14907,"Tin":14908,"zzo":14909,"opwin":14910,"TUIN":14911,"Mees":14912,"Vlaardingen":14913,"pert":14914,"Ii":14915,"Ochtend":14916,"orven":14917,"Bremen":14918,"representatieve":14919,"ïti":14920,"Stockholm":14921,"moeara":14922,"nas":14923,"yf":14924,"otter":14925,"neger":14926,"Mom":14927,"936":14928,"Telekolleg":14929,"Jum":14930,"Vul":14931,"Aanbiedingen":14932,"KEVER":14933,"„.":14934,"SECRE":14935,"Balk":14936,"wettelijke":14937,"invest":14938,"Keulen":14939,"780":14940,"verstrekken":14941,"geacht":14942,"HOOR":14943,"__B":14944,"branden":14945,"Provinciale":14946,"Bree":14947,"Matt":14948,"728":14949,"Tn":14950,"Ducat":14951,"vliegreis":14952,"kozijnen":14953,"Zorg":14954,"Mall":14955,"faillissement":14956,"viool":14957,"Henry":14958,"Sesamstraat":14959,"ƒ6950":14960,"formulier":14961,"TOURS":14962,"beppe":14963,"PON":14964,"bollen":14965,"inwoner":14966,"LAAN":14967,"776":14968,"öl":14969,"voetballen":14970,"organisatoren":14971,"fut":14972,"uitl":14973,"indi":14974,"gesneden":14975,"figuren":14976,"Oer":14977,"overgrootmoeder":14978,"accent":14979,"Versch":14980,"verbeterd":14981,"uiken":14982,"comf":14983,"Nedlloyd":14984,"Jongeren":14985,"tena":14986,"beslissingen":14987,"bouwers":14988,"zonw":14989,"JAP":14990,"elektriciteit":14991,"Drachtster":14992,"Mam":14993,"Gab":14994,"ildren":14995,"WOENS":14996,"worst":14997,"behalen":14998,"virus":14999,"Computers":15000,"music":15001,"dith":15002,"zetel":15003,"RAM":15004,"speciaalzaak":15005,"INFORMATIE":15006,"brandt":15007,"durft":15008,"jongere":15009,"Italiaans":15010,"TEMENT":15011,"REKORD":15012,"jm":15013,"sso":15014,"brands":15015,"Maatschappij":15016,"verko":15017,"DAGEN":15018,"Marse":15019,"effekt":15020,"OREN":15021,"beveiliging":15022,"fle":15023,"ENGEL":15024,"akket":15025,"luchtmacht":15026,"verbaasd":15027,"honor":15028,"Sony":15029,"reinig":15030,
[...]
