{"<s>":0,"<pad>":1,"</s>":2,"<unk>":3,"<mask>":4,"!":5,"\"":6,"#":7,"$":8,"%":9,"&":10,"'":11,"(":12,")":13,"*":14,"+":15,",":16,"-":17,".":18,"/":19,"0":20,"1":21,"2":22,"3":23,"4":24,"5":25,"6":26,"7":27,"8":28,"9":29,":":30,";":31,"<":32,"=":33,">":34,"?":35,"@":36,"A":37,"B":38,"C":39,"D":40,"E":41,"F":42,"G":43,"H":44,"I":45,"J":46,"K":47,"L":48,"M":49,"N":50,"O":51,"P":52,"Q":53,"R":54,"S":55,"T":56,"U":57,"V":58,"W":59,"X":60,"Y":61,"Z":62,"[":63,"\\":64,"]":65,"^":66,"_":67,"`":68,"a":69,"b":70,"c":71,"d":72,"e":73,"f":74,"g":75,"h":76,"i":77,"j":78,"k":79,"l":80,"m":81,"n":82,"o":83,"p":84,"q":85,"r":86,"s":87,"t":88,"u":89,"v":90,"w":91,"x":92,"y":93,"z":94,"{":95,"|":96,"}":97,"~":98,"¡":99,"¢":100,"£":101,"¤":102,"¥":103,"¦":104,"§":105,"¨":106,"©":107,"ª":108,"«":109,"¬":110,"®":111,"¯":112,"°":113,"±":114,"²":115,"³":116,"´":117,"µ":118,"¶":119,"·":120,"¸":121,"¹":122,"º":123,"»":124,"¼":125,"½":126,"¾":127,"¿":128,"À":129,"Á":130,"Â":131,"Ã":132,"Ä":133,"Å":134,"Æ":135,"Ç":136,"È":137,"É":138,"Ê":139,"Ë":140,"Ì":141,"Í":142,"Î":143,"Ï":144,"Ð":145,"Ñ":146,"Ò":147,"Ó":148,"Ô":149,"Õ":150,"Ö":151,"×":152,"Ø":153,"Ù":154,"Ú":155,"Û":156,"Ü":157,"Ý":158,"Þ":159,"ß":160,"à":161,"á":162,"â":163,"ã":164,"ä":165,"å":166,"æ":167,"ç":168,"è":169,"é":170,"ê":171,"ë":172,"ì":173,"í":174,"î":175,"ï":176,"ð":177,"ñ":178,"ò":179,"ó":180,"ô":181,"õ":182,"ö":183,"÷":184,"ø":185,"ù":186,"ú":187,"û":188,"ü":189,"ý":190,"þ":191,"ÿ":192,"Ā":193,"ā":194,"Ă":195,"ă":196,"Ą":197,"ą":198,"Ć":199,"ć":200,"Ĉ":201,"ĉ":202,"Ċ":203,"ċ":204,"Č":205,"č":206,"Ď":207,"ď":208,"Đ":209,"đ":210,"Ē":211,"ē":212,"Ĕ":213,"ĕ":214,"Ė":215,"ė":216,"Ę":217,"ę":218,"Ě":219,"ě":220,"Ĝ":221,"ĝ":222,"Ğ":223,"ğ":224,"Ġ":225,"ġ":226,"Ģ":227,"ģ":228,"Ĥ":229,"ĥ":230,"Ħ":231,"ħ":232,"Ĩ":233,"ĩ":234,"Ī":235,"ī":236,"Ĭ":237,"ĭ":238,"Į":239,"į":240,"İ":241,"ı":242,"Ĳ":243,"ĳ":244,"Ĵ":245,"ĵ":246,"Ķ":247,"ķ":248,"ĸ":249,"Ĺ":250,"ĺ":251,"Ļ":252,"ļ":253,"Ľ":254,"ľ":255,"Ŀ":256,"ŀ":257,"Ł":258,"ł":259,"Ń":260,"er":261,"en":262,"ar":263,"de":264,"DD":265,"19":266,"le":267,"an":268,"da":269,"10":270,"199":271,"st":272,"Ġv":273,"on":274,"in":275,"DDD":276,"te":277,"ti":278,"et":279,"010":280,"ra":281,"ij":282,"or":283,"Ġde":284,"el":285,"ers":286,"1990":287,"Ġm":288,"Ġh":289,"0106":290,"ov":291,"dat":292,"del":293,"Ġb":294,"ist":295,"ch":296,"ard":297,"Ġg":298,"00":299,"war":300,"Ġ/":301,"arti":302,"xt":303,"ph":304,"Ġp":305,"ida":306,"ml":307,"sers":308,"ware":309,"dev":310,"lete":311,"artic":312,"data":313,"xml":314,"raw":315,"Hist":316,"pher":317,"leon":318,"Users":319,"Aware":320,"ardov":321,"delpher":322,"HistAware":323,"leonardov":324,"leonardovida":325,"letext":326,"articletext":327,"Ġw":328,"Ġa":329,"Ġ1":330,"Ġo":331,"Ġz":332,"ie":333,"01":334,"Ġvan":335,"Ġe":336,"Ġd":337,"Ġn":338,"Ġk":339,"Ġin":340,"Ġ2":341,"oor":342,"Ġen":343,"is":344,"ing":345,"it":346,"re":347,"ĠD":348,"Ġt":349,"al":350,"02":351,"Ġs":352,"at":353,"aar":354,"ro":355,"Ġge":356,"Ġhet":357,"den":358,"Ġeen":359,"Ġ\"":360,"ĠA":361,"ĠB":362,"05":363,"ĠS":364,"der":365,"ĠDDD":366,"ge":367,"Ġ3":368,"ĠH":369,"03":370,"ur":371,"01064":372,"gen":373,"ĠT":374,"04":375,"Ġte":376,"Ġop":377,"Ġ199":378,"Ġu":379,"ĠV":380,"ĠM":381,"oe":382,"23":383,"ol":384,"ee":385,"cht":386,"06":387,"Ġl":388,"Ġbe":389,"0110":390,"Ġvoor":391,"ĠI":392,"om":393,"12":394,"il":395,"50":396,"Ġver":397,"11":398,"ijk":399,"tie":400,"ĠN":401,"Ġ'":402,"ken":403,"ĠG":404,"Ġmet":405,"ot":406,"and":407,"Ġf":408,"ĠP":409,"Ġj":410,"Ġc":411,"__":412,"07":413,"Ġon":414,"ĠE":415,"ĠC":416,"âĢ":417,"am":418,"Ġst":419,"56":420,"uw":421,"la":422,"08":423,"ijn":424,"eer":425,".\"":426,"09":427,"Ġal":428,"ig":429,"oo":430,"ĠW":431,"id":432,"22":433,"37":434,"ĠL":435,"ĠR":436,"Ġaan":437,"Ġ(":438,"Ġis":439,"Ġ4":440,"un":441,"ĠK":442,"rij":443,"se":444,"010646":445,"91":446,"ĠDe":447,"ĠO":448,"iet":449,"ak":450,"ĠJ":451,"Ġdat":452,"30":453,"as":454,"55":455,"28":456,"ÆĴ":457,"Ġ6":458,"\"\"":459,"ĠÆĴ":460,"20":461,"ĠF":462,"14":463,"ent":464,".,":465,"13":466,"24":467,"15":468,"us":469,"ik":470,"Ġ-":471,"he":472,"010623":473,"1994":474,"Ġ9":475,"1993":476,"ou":477,"ru":478,"ĠâĢ":479,"Ġ5":480,"Ġuit":481,"Ġzijn":482,"1991":483,"Ġ10":484,"sch":485,"ma":486,"1992":487,"og":488,"16":489,"Ġ8":490,"es":491,"Ġdie":492,"17":493,"96":494,"Ġti":495,"erk":496,"18":497,"ven":498,"ER":499,"011019":500,"aan":501,"Ġ7":502,"ad":503,"ag":504,"25":505,"over":506,"ok":507,"ft":508,"EN":509,"26":510,"29":511,"ten":512,"01056":513,"Ġre":514,"27":515,"010637":516,"Ġhe":517,"ste":518,"ze":519,"op":520,"ĠZ":521,"Ġniet":522,"ri":523,"ul":524,"eren":525,"sen":526,"Ġom":527,"Ġ19":528,"Ġover":529,"âĸ":530,"eg":531,"ingen":532,"âĸł":533,"010567":534,"ĠIn":535,"Ġwor":536,"Ġer":537,"38":538,"dag":539,"be":540,"010691":541,"Ġ1990":542,"eld":543,"aat":544,"ut":545,"ap":546,"ond":547,"len":548,"Ġle":549,"Ġbij":550,"ver":551,"48":552,"36":553,"ien":554,"elijk":555,"45":556,"Ġsp":557,"35":558,"sp":559,"47":560,"ic":561,"em":562,"92":563,"Ġi":564,"land":565,"ele":566,"tle":567,"Ġsch":568,"nen":569,"86":570,"01102":571,"ant":572,"46":573,"Ġtitle":574,"ter":575,"000":576,"ier":577,"oen":578,"ang":579,"uur":580,"aal":581,"Ġof":582,"40":583,"Ġ1991":584,"88":585,"21":586,"Ġdoor":587,"je":588,"Ġ1993":589,"ort":590,"Ġ1994":591,"kt":592,"ieuw":593,"ve":594,"49":595,"Ġtot":596,"Ġ1992":597,"Ġaf":598,"87":599,"im":600,"Ġals":601,"010622":602,"AN":603,"ke":604,"____":605,"uit":606,"Ġ02":607,"Ġda":608,"dt":609,"85":610,"ige":611,"Ġmo":612,"Ġonder":613,"Ġna":614,"Ã©":615,"ĠU":616,"um":617,"eeft":618,"atie":619,"39":620,"75":621,"ed":622,"eel":623,"Ġr":624,"89":625,"Ġuur":626,"Ġheeft":627,"Ġook":628,"bb":629,"..":630,"zen":631,"Ġ05":632,"ich":633,"80":634,"os":635,"Ã«":636,"oon":637,"rie":638,"ĠâĢŀ":639,"76":640,"90":641,"Ġnaar":642,"Ġze":643,"Â»":644,"Ġpro":645,"ast":646,"erd":647,"isch":648,"Ġjaar":649,"44":650,"Ġ16":651,"Ġdan":652,"Ġgro":653,"Ġmaar":654,"ui":655,"ĠHet":656,"95":657,"lijk":658,"bo":659,"Ġ*":660,"31":661,"heid":662,"Ġworden":663,"01055":664,"pen":665,"70":666,"01096":667,"ber":668,"Ġme":669,"Ġnog":670,"Ġ\"\"":671,"Ġ18":672,"Ġwe":673,"33":674,"me":675,"ost":676,"66":677,"wee":678,"77":679,"af":680,",-":681,"Ġ15":682,"icht":683,"Ġalle":684,"IN":685,"Ġma":686,"ĠNe":687,"oop":688,"Ġwaar":689,"oek":690,"ac":691,"Ġzo":692,"EL":693,"ia":694,"^^":695,"Ġwas":696,"ec":697,"Ġâĸł":698,"34":699,"oed":700,"99":701,"ker":702,"Ġ.":703,"gel":704,"Ġ17":705,"omen":706,"AR":707,"Ġhij":708,"ff":709,"Ġ14":710,"uis":711,"ster":712,"ĠAl":713,"ĠAm":714,"men":715,"Ġvol":716,"ere":717,"end":718,"ST":719,"ĠSt":720,"Ġ12":721,"ran":722,"'s":723,"dam":724,"60":725,"Ġ20":726,"Ġkun":727,"vo":728,"Ġnieuw":729,"bben":730,"ep":731,"84":732,"Ġ13":733,"Ġdi":734,"laat":735,"ub":736,"Ġont":737,"ĠTele":738,"Ġmoet":739,"Ġwordt":740,"OO":741,"Ġje":742,"onder":743,"Ġmeer":744,"derland":745,"011005":746,"ite":747,"sl":748,"ind":749,"Ġ0":750,"ir":751,"Ġ11":752,"Â«":753,"Ġhebben":754,"gens":755,"man":756,"ater":757,"stra":758,"94":759,"ĠâĢĶ":760,"ron":761,"Ġ04":762,"Ġzich":763,"010628":764,"010692":765,"art":766,"97":767,"ische":768,"Ġ06":769,"jd":770,"65":771,"Ġkan":772,"010645":773,"od":774,"oord":775,"elf":776,"ont":777,"Ġro":778,"itie":779,"Ġik":780,"ander":781,"ĠâĢ¢":782,"ĠNederland":783,"tel":784,"uk":785,"Ġter":786,"ĠTel":787,"ĠTelef":788,"ug":789,"ĠVan":790,"010644":791,"83":792,"ell":793,"tion":794,"Ġwil":795,"iÃ«":796,"chter":797,"we":798,"De":799,").":800,"res":801,"93":802,"rijs":803,"sel":804,"Ġeer":805,"âĢĶ":806,"raag":807,"rouw":808,"org":809,"igen":810,"Ġper":811,"Ġwel":812,"ON":813,"ab":814,"Ġdaar":815,"wa":816,"Ġgeb":817,"Ġmin":818,"Ġ25":819,"een":820,"Ġgev":821,"Ġwerk":822,"IE":823,"Ġtwee":824,"ale":825,"oc":826,"hou":827,"Ġtegen":828,"ne":829,"Ġmen":830,"Ġgeen":831,"Ġnu":832,"Ġdeze":833,"Ġkm":834,"Ġ020":835,"Ġcom":836,"mm":837,"jes":838,"pr":839,"ank":840,"67":841,"uto":842,"ĠSch":843,"iek":844,"Ġra":845,"57":846,"ĠOp":847,"32":848,"ger":849,"ine":850,"Ġbed":851,"av":852,"au":853,"950":854,"ctie":855,"Ġ22":856,"98":857,"rek":858,"aten":859,"Ġbel":860,"ek":861,"Ġbl":862,"delijk":863,"elen":864,"Ġbet":865,"io":866,"ud":867,"est":868,"Ġvrij":869,"ĠSp":870,"weg":871,"CH":872,"Ġto":873,"43":874,"na":875,"Ġ,":876,"--":877,"Ġ23":878,"cl":879,"Ġzal":880,"chten":881,"Ġ21":882,"Ġru":883,"Ġder":884,"Â°":885,"ĠEn":886,"82":887,"ings":888,"Ġwer":889,"gra":890,"innen":891,"laats":892,"ink":893,"500":894,"Ġtoe":895,"Ġwerd":896,"las":897,"age":898,"wij":899,"ren":900,"42":901,"ct":902,"OR":903,"aren":904,"werk":905,"ert":906,"ip":907,"Ġverk":908,"Ġ_":909,"Ġonze":910,"010638":911,"Ġhoo":912,"Ġdit":913,"Ġ03":914,"Ġmil":915,"eek":916,"Ġmog":917,"IJ":918,"amen":919,"Ġveel":920,"Ġbj":921,"ust":922,"âĢ¢":923,"akt":924,"ĠVoor":925,"fd":926,"all":927,"Ġwat":928,"81":929,"erie":930,"ĠEen":931,"Ġ100":932,"huis":933,"),":934,"tig":935,"ei":936,"Ġ\\":937,"Ġman":938,"Ġhad":939,"uren":940,"Ã¯":941,"Ġvers":942,"Ġander":943,"Ġmee":944,"Ã¼":945,"Ġwij":946,"**":947,"Ġhun":948,"erv":949,"cent":950,"ho":951,"Ġkunnen":952,"aard":953,"Ġ50":954,"ef":955,"rijf":956,"ade":957,"Ġbest":958,"oren":959,"andel":960,"iteit":961,"01069":962,"Ġ24":963,".-":964,"Ġ|":965,"eu":966,"ord":967,"RA":968,"Ġzou":969,"Ġ27":970,"Ġgoed":971,"pe":972,"pl":973,"ĠBel":974,"gev":975,"uro":976,"ĠTe":977,"DA":978,"mer":979,"ai":980,"ING":981,"41":982,"Ġtel":983,"ussen":984,"Ġ26":985,"amp":986,"Ġbez":987,"Ġtele":988,"onden":989,"ĠAn":990,"Ġkle":991,"Ġhaar":992,"lie":993,"co":994,"leid":995,"Ġpl":996,"open":997,"schap":998,"iss":999,"79":1000,"rs":1001,"ouw":1002,"Ġons":1003,"320":1004,"leg":1005,"orm":1006,"urg":1007,"urs":1008,"Ġnieuwe":1009,"voor":1010,"Ġgez":1011,"Ġeigen":1012,"-'":1013,"ass":1014,"0106919":1015,"oet":1016,"Ġel":1017,"ĠMa":1018,"RO":1019,"ĠDat":1020,"ment":1021,".:":1022,"fl":1023,"Ġex":1024,"78":1025,"iv":1026,"AT":1027,"Ġstaat":1028,"straat":1029,"Ġ01":1030,"Ġweer":1031,"aanse":1032,"53":1033,"tijd":1034,"ente":1035,"74":1036,"per":1037,"ĠMar":1038,"oel":1039,"kend":1040,"uiten":1041,"bouw":1042,"Ġgen":1043,"anc":1044,"Ġgew":1045,"DE":1046,".\"\"":1047,"baar":1048,"nem":1049,"AL":1050,"Ġplaats":1051,"Ġzelf":1052,"Ġbeg":1053,"Ġ07":1054,"van":1055,"Ġcon":1056,"73":1057,"oven":1058,"54":1059,"inder":1060,"ĠDie":1061,"68":1062,"amer":1063,"ood":1064,"ijf":1065,"ĠNieuw":1066,"ll":1067,"Ġdag":1068,"Ġ30":1069,"IS":1070,"Ġzon":1071,"Ġpol":1072,"Ġkw":1073,"sten":1074,"58":1075,"59":1076,"ss":1077,"ure":1078,"Ġeerste":1079,"UR":1080,"bij":1081,"69":1082,"ĠAP":1083,"72":1084,"010559":1085,"tal":1086,"racht":1087,"aak":1088,"lag":1089,"ans":1090,"elijke":1091,"ĠGe":1092,"63":1093,"________":1094,"64":1095,"int":1096,"Ġet":1097,"Ġmoe":1098,"alen":1099,"52":1100,"ĠVol":1101,"ĠCh":1102,"010624":1103,"LE":1104,"ies":1105,"Ġkomen":1106,"0110202":1107,"Ġpers":1108,"uid":1109,"anden":1110,"Ġkom":1111,"eerd":1112,"lo":1113,"62":1114,"Ġtelef":1115,"oten":1116,"geb":1117,"Ġandere":1118,"iden":1119,"Ġmilj":1120,"Ġ28":1121,"enn":1122,"Ġad":1123,"ong":1124,"0106916":1125,"ax":1126,"Ġgrote":1127,"ĠMaar":1128,"els":1129,"ief":1130,"pp":1131,"ĠGron":1132,"Ġgele":1133,"IT":1134,"ion":1135,"750":1136,"Ġ29":1137,"ult":1138,"Ġinter":1139,"ĠVer":1140,"Ġ00":1141,"gt":1142,"burg":1143,"con":1144,"Ġuw":1145,"\"\",":1146,"ĠAmer":1147,"ce":1148,"Ġauto":1149,"ĠNa":1150,"Ġkl":1151,"ister":1152,"vol":1153,"0110200":1154,"Ġmoeten":1155,"ool":1156,"51":1157,"Ġâ":1158,"ĠAPK":1159,"iddel":1160,"Ġlang":1161,"71":1162,"orma":1163,"zet":1164,"stel":1165,"ĠHij":1166,"antie":1167,"AG":1168,"of":1169,"bl":1170,"mp":1171,"Ġmensen":1172,"als":1173,"0106466":1174,"rijk":1175,"Ġbinnen":1176,"nel":1177,"ĠFran":1178,"ĠInl":1179,"Ġlaat":1180,"Ġgroot":1181,"ens":1182,"Ġhou":1183,"Ġtussen":1184,"ET":1185,"Ġgaat":1186,"Ġopen":1187,"ding":1188,"wer":1189,"ĠÂ«":1190,"ari":1191,"sche":1192,"Ġpr":1193,"Ġtijd":1194,"ds":1195,"010963":1196,"Ġsl":1197,"Ġgaan":1198,"cc":1199,"ĠMet":1200,"0106917":1201,"ĠBr":1202,"Ġzij":1203,"ide":1204,"ach":1205,"61":1206,"ĠBe":1207,"Ġvrouw":1208,"pro":1209,"pm":1210,"sterdam":1211,"ga":1212,"eeuw":1213,"ins":1214,".\"\"\"":1215,"Ġ&":1216,"aken":1217,"iel":1218,"stand":1219,"0110203":1220,"Ġ35":1221,"bed":1222,"Ġben":1223,"our":1224,"OL":1225,"Ġar":1226,"0106465":1227,"oll":1228,"lijke":1229,"Ġland":1230,"Ġpolitie":1231,"Ġbeh":1232,"oeg":1233,"ES":1234,"oede":1235,"ĠEuro":1236,"ii":1237,"uz":1238,"Het":1239,"ĠAmsterdam":1240,"atuur":1241,"ark":1242,"Ġgel":1243,"0109636":1244,"0106915":1245,"ĠOn":1246,"sk":1247,"ruik":1248,"Ġmogelijk":1249,"ann":1250,"...":1251,"ĠAmerik":1252,"Ġ08":1253,"eten":1254,"Â£":1255,"UT":1256,"Ġalleen":1257,"ex":1258,"uin":1259,"Ġwar":1260,"voer":1261,"Ġmaan":1262,"Ġlu":1263,"Ġzeer":1264,"ĺħ":1265,"Ġgra":1266,"Ġzeg":1267,"ĠBo":1268,"ienst":1269,"Ġinf":1270,"Ġdrie":1271,"PG":1272,"ĠRo":1273,"gram":1274,"Ġ37":1275,"ess":1276,"arden":1277,"ERS":1278,"Ġhem":1279,"Ġcont":1280,"kel":1281,"ĠOok":1282,"allen":1283,"Ġden":1284,"dens":1285,"Ġmaken":1286,"heden":1287,"stell":1288,"rum":1289,"Ġachter":1290,"ĠEr":1291,"Ġie":1292,"its":1293,"Ġbesch":1294,"Ġkrij":1295,"1995":1296,"___":1297,"maal":1298,"Ġch":1299,"Ã©n":1300,"Ġwit":1301,"utom":1302,"Ġterug":1303,"AM":1304,"Ġ045":1305,"0110196":1306,"âĢŀ":1307,"kom":1308,"ties":1309,"unt":1310,"Ġweek":1311,"ill":1312,"anis":1313,"0106918":1314,"ĠThe":1315,"IL":1316,"019":1317,"ĠGL":1318,"wart":1319,"ĠGro":1320,"ilm":1321,"ĠLPG":1322,"ĠGroningen":1323,"Ġweg":1324,"dig":1325,"let":1326,"Ġruim":1327,"ĠÃ":1328,"artij":1329,"ders":1330,"aterdag":1331,"drs":1332,"Ġget":1333,"ĠDaar":1334,"0110201":1335,"ks":1336,"zoek":1337,"Ġfin":1338,"ĠAr":1339,"Ġmiljoen":1340,"Ġgr":1341,"Ġhoofd":1342,"Ġgeme":1343,"Ġdiv":1344,"Ġ36":1345,"Ġtij":1346,"Ġ33":1347,"0110195":1348,"DEN":1349,"aart":1350,"isteren":1351,"orp":1352,"Ġsle":1353,"Ġmoo":1354,"Ġzw":1355,"OS":1356,"tre":1357,"Ġ40":1358,"houden":1359,"ern":1360,"ĠIk":1361,"0109635":1362,"ullen":1363,"Ġhoe":1364,"tis":1365,"Ġsamen":1366,"Ġblij":1367,"geven":1368,"gramma":1369,"yn":1370,"chts":1371,"ĠHeer":1372,"0109":1373,"0110197":1374,"Ġbew":1375,"Ġverd":1376,"ruk":1377,"Ġdeel":1378,"Ġgek":1379,"Ġext":1380,"Ġsla":1381,"RE":1382,"Ġâĺħ":1383,"ina":1384,"ied":1385,"123":1386,"Ġhoog":1387,"Ġbuiten":1388,"Ġleven":1389,"bar":1390,"mee":1391,"lauw":1392,"âĸłâĸł":1393,"Ġgar":1394,"Ġaange":1395,"vel":1396,"Ġprijs":1397,"ĠLeeuw":1398,"./":1399,"Ġ+":1400,"Ġ010":1401,"ame":1402,"SS":1403,"if":1404,"oto":1405,"les":1406,"Ġthe":1407,"Ġvin":1408,"ÃĬ":1409,"ĠÃ©":1410,"100":1411,"Ġkoop":1412,"Ġdire":1413,"ĠDuit":1414,"Ġbelang":1415,"uizen":1416,"Ġvor":1417,"Ġtra":1418,"Ġhuis":1419,"Ġvr":1420,"Ġversch":1421,"iets":1422,"ĠWe":1423,"organis":1424,"ende":1425,"ble":1426,"rijd":1427,"Ġgeld":1428,"Ġber":1429,"oem":1430,"gro":1431,"off":1432,"Ġ34":1433,"ĠNederlandse":1434,"Ġvak":1435,"TT":1436,"Ġeven":1437,"ral":1438,"Ġhier":1439,"sc":1440,"AND":1441,"oning":1442,"oeken":1443,"Ġ09":1444,"0110204":1445,"Ġkomt":1446,"ts":1447,"orgen":1448,"Ġheb":1449,"min":1450,"Ġten":1451,"ha":1452,"ple":1453,"za":1454,"UW":1455,"ĠBij":1456,"oog":1457,"erde":1458,"Ġgoede":1459,"Ġ:":1460,"eem":1461,"aties":1462,"Ġnw":1463,"ocht":1464,"Ġsport":1465,"deel":1466,"eerde":1467,"Ġhal":1468,"Ġpre":1469,"0106464":1470,"ormatie":1471,"wel":1472,"Ġfe":1473,"Ġ32":1474,"Ġ38":1475,"qu":1476,"omm":1477,"Ġmijn":1478,"Ġho":1479,"inn":1480,"zien":1481,"!!":1482,"Ġtoen":1483,"Ã¶":1484,"DER":1485,"rak":1486,"iging":1487,"ragen":1488,"und":1489,"0106377":1490,"Ġcent":1491,"Ġeens":1492,"oot":1493,"ck":1494,"richt":1495,"Ġdoen":1496,"Ġwoon":1497,"ĠHa":1498,"Ġextra":1499,"Ġun":1500,"0106226":1501,"Ġsnel":1502,"aris":1503,"Ġnet":1504,"Ġheel":1505,"0110199":1506,"osten":1507,"Ġzaterdag":1508,"Ġvier":1509,"Ġwaren":1510,"ĠDE":1511,"0106467":1512,"ries":1513,"ĠWij":1514,"Ġlig":1515,"Ġgisteren":1516,"middel":1517,"Ġger":1518,"Ġ60":1519,"0105675":1520,"Ġam":1521,"Ġne":1522,"oort":1523,"inderen":1524,"chte":1525,"ĠLe":1526,"leiding":1527,"Ġbedrijf":1528,"Ġomdat":1529,"ĠY":1530,"Ġprocent":1531,"ĠZe":1532,"teur":1533,"ĠX":1534,"Ġvijf":1535,"010629":1536,"EK":1537,"eter":1538,"ĠAan":1539,"Ġgesch":1540,"Ġ39":1541,"ude":1542,"010948":1543,"gaan":1544,"Ġgest":1545,"mo":1546,"ati":1547,"Ġher":1548,"Ġbesl":1549,"Ġ90":1550,"Ġaantal":1551,"Ġgebruik":1552,"ys":1553,"dere":1554,"tt":1555,"ĠRot":1556,"ĠÃ©Ã©n":1557,"Ġzit":1558,"Ġtoch":1559,"inde":1560,"stelling":1561,"EM":1562,"stig":1563,"Ġverb":1564,"Ġelk":1565,"0106463":1566,"Ġjaren":1567,"Ġor":1568,"ĠAmerikaanse":1569,"ire":1570,"ĠMe":1571,"ĠJan":1572,"Ġ80":1573,"Ġgeh":1574,"Ġkant":1575,"oh":1576,"Ġdagen":1577,"onds":1578,"zelf":1579,"riv":1580,"Ġfl":1581,"kende":1582,"Ġuitge":1583,"0106376":1584,"CHT":1585,"Ġ059":1586,"avond":1587,",-.":1588,"ids":1589,"Ġ31":1590,"Ġhel":1591,"ĠOpel":1592,"ĠPost":1593,"kele":1594,"Ġ~":1595,"Ġzullen":1596,"ĠRe":1597,"In":1598,"ob":1599,"dus":1600,"ĠAls":1601,"Ġand":1602,"ĠHe":1603,"Ġwereld":1604,"Ġcpm":1605,"Van":1606,"Ġopge":1607,"ow":1608,"Ġjon":1609,"olle":1610,"0106237":1611,"ive":1612,"OM":1613,"Ġ45":1614,"Ġstee":1615,"Ġdu":1616,"0106375":1617,"pers":1618,"rijzen":1619,"rand":1620,"Ġlaatste":1621,"Ġgul":1622,"0106225":1623,"aring":1624,"Ġva":1625,"Ġ200":1626,"Ġmei":1627,"OT":1628,"Ġvraag":1629,"Ġmag":1630,"Ġvanaf":1631,"eert":1632,"ation":1633,"erse":1634,"ĠFord":1635,"king":1636,"aliteit":1637,"Ġokt":1638,"Ġvoo":1639,"Ġvert":1640,"OOR":1641,"Ġverh":1642,"Ġ75":1643,"rik":1644,"rok":1645,"ennis":1646,"how":1647,"Ġhand":1648,"ĠWil":1649,"Ġged":1650,"ĠUn":1651,"Ġele":1652,"terdam":1653,"ry":1654,"Ġaldus":1655,"met":1656,"0110198":1657,"oos":1658,",\"\"":1659,"ĠST":1660,"lu":1661,"chn":1662,"ĠNieuws":1663,"Ġzien":1664,"Ġwillen":1665,"des":1666,"Ġmede":1667,"Ġlaten":1668,"itt":1669,"Ġglas":1670,"rijven":1671,"enten":1672,"Ġy":1673,"ĠIN":1674,"Ġ55":1675,"0105676":1676,"Ġkunt":1677,"arkt":1678,"maakt":1679,"Ġspeel":1680,"gr":1681,"xe":1682,"Ġsu":1683,"Ġbere":1684,"komen":1685,"isten":1686,"ieden":1687,"Ã¨":1688,"Ġapr":1689,"Ã³":1690,"ĠEl":1691,"Ġjan":1692,"0106236":1693,"Ġserie":1694,"ĠLeeuwarden":1695,"ĠAN":1696,"pa":1697,"MW":1698,"Ġmetall":1699,"Ġspec":1700,"Ġhele":1701,"staan":1702,"ĠVW":1703,"AK":1704,"Ġrood":1705,"ler":1706,"ĠAuto":1707,"Ġpartij":1708,"woord":1709,"Ġzonder":1710,"inst":1711,"Ġmis":1712,"Ġbo":1713,"ay":1714,"ĠÂ":1715,"vang":1716,"ĠRotterdam":1717,"Ġechter":1718,"onen":1719,"Ġverz":1720,"Ġ99":1721,"IC":1722,"gende":1723,"che":1724,"Ġgesp":1725,"Ġtijdens":1726,"Ġenkele":1727,"Ġetc":1728,"edst":1729,"ta":1730,"olf":1731,"leden":1732,"ĠDiesel":1733,"ĠUit":1734,"to":1735,"ian":1736,"Ġvolgens":1737,"Ġx":1738,"ember":1739,"Ġkeu":1740,"bal":1741,"Ġgehe":1742,"Ġnr":1743,"Ġmeis":1744,"ĠVAN":1745,"0105674":1746,"Ġverl":1747,"raak":1748,"jar":1749,"az":1750,"du":1751,"deling":1752,"ENT":1753,"Ġstel":1754,"Ġ;":1755,"ED":1756,"Ġfun":1757,"Ġgulden":1758,"daag":1759,"Ġ92":1760,"aire":1761,"iale":1762,"Ġind":1763,"Ġoud":1764,"kr":1765,"berg":1766,"ĠCar":1767,"bus":1768,"ÃŁ":1769,"',":1770,"Ġrond":1771,"wik":1772,"vis":1773,"ate":1774,"bak":1775,"Ġjr":1776,"Ġjul":1777,"Ġ89":1778,"Ġstra":1779,"ĠQ":1780,"ĠDen":1781,"Ġsteeds":1782,"bare":1783,"AD":1784,".'":1785,"ĠBer":1786,"nd":1787,"ret":1788,"nation":1789,"Ġ91":1790,"Ġerv":1791,"Ġvrijdag":1792,"Ġinge":1793,"th":1794,"BO":1795,"ĠÂ°":1796,"otor":1797,"0110193":1798,"bedrijf":1799,"0110194":1800,"Ġstaan":1801,"Ġlie":1802,"Ġ!":1803,"0106229":1804,"Ġalles":1805,"amil":1806,"Ãī":1807,"oekt":1808,"tige":1809,"ĠInd":1810,"Ġtweede":1811,"Ġkon":1812,"Ġzegt":1813,"pel":1814,"ĠIs":1815,"Ġab":1816,"wacht":1817,"ice":1818,"Ġ1995":1819,"ĠMer":1820,"delen":1821,"kamer":1822,"Ġgeven":1823,"ial":1824,"Ã«n":1825,"0106379":1826,"Ġdus":1827,"ĠLu":1828,"250":1829,"akk":1830,"AS":1831,"AAR":1832,"handel":1833,"Ġiets":1834,"odig":1835,"Ġ<":1836,"ĠPro":1837,"291":1838,"RU":1839,"str":1840,"erm":1841,"raagd":1842,"emen":1843,"ĠJe":1844,"oens":1845,"ijs":1846,"Ġkwam":1847,"ubl":1848,"arm":1849,"lad":1850,"ĠSP":1851,"0106234":1852,"ĠOost":1853,"^^^^":1854,"ĠOm":1855,"aars":1856,"ĠBMW":1857,"par":1858,"Ġbouw":1859,"och":1860,"ba":1861,"Ġrij":1862,"ca":1863,"0106228":1864,"ons":1865,"0106423":1866,"Ġkinderen":1867,"wijs":1868,"Ġ__":1869,"ĠAUT":1870,"Ġgemeente":1871,"Ġste":1872,"Ġweten":1873,"Ġecht":1874,".)":1875,"oneel":1876,"eur":1877,"Ġafge":1878,"Ġnatuur":1879,"zit":1880,"0106447":1881,"beeld":1882,"Ġwerden":1883,"Ġblauw":1884,"RI":1885,"delijke":1886,"Ġzoals":1887,"Ġstad":1888,"veen":1889,"Ġaanv":1890,"inds":1891,"Ġmcl":1892,"Ġla":1893,"ositie":1894,"Ġkre":1895,"isc":1896,"Ġeind":1897,"0106233":1898,"Ġ44":1899,"0106446":1900,"olen":1901,"inc":1902,"Ġ70":1903,"Ġinformatie":1904,"gels":1905,"igheid":1906,"slag":1907,"lub":1908,"kl":1909,"lem":1910,"angen":1911,"ĠÂ»":1912,"Ġstuk":1913,"act":1914,"ourn":1915,"ees":1916,"ĠZo":1917,"ering":1918,"ĠAdam":1919,"Ġpar":1920,"ĠGT":1921,"Ġzei":1922,"akte":1923,"Ġproble":1924,"gelopen":1925,"Ġmaandag":1926,"EG":1927,"gang":1928,"annen":1929,"Ik":1930,"Ġbekend":1931,"sla":1932,"vers":1933,"ura":1934,"Ġkeer":1935,"0106448":1936,"ijnen":1937,"0106378":1938,"Ġwa":1939,"uss":1940,"Ġorganis":1941,"0106374":1942,"ĠHol":1943,"Ġ93":1944,"Ġble":1945,"ieren":1946,"Ġ050":1947,"deren":1948,"iding":1949,"yp":1950,"Ġ97":1951,"fin":1952,"EER":1953,"prijs":1954,"VER":1955,"Ġbep":1956,"Ġzwart":1957,"ĠNoord":1958,"eft":1959,"ĠRen":1960,"Ġ47":1961,"Ġboek":1962,"Ġ88":1963,"ikt":1964,"ioen":1965,"Ġvooral":1966,"Ħ¢":1967,"Ġaltijd":1968,"rag":1969,"ĠSte":1970,"uziek":1971,"Ġ94":1972,"Ġacht":1973,"Ġ>":1974,"0105673":1975,"ĠTur":1976,"Ġ46":1977,"STER":1978,"Ġeig":1979,"waar":1980,"Ġkop":1981,"zicht":1982,"ĠZuid":1983,"Ġbeste":1984,"Ġan":1985,"tje":1986,"uni":1987,"roe":1988,"Ġfinanc":1989,"oorden":1990,"raad":1991,"0105677":1992,"Ġvast":1993,"ĠCor":1994,"rein":1995,"Ġ96":1996,"Ġ98":1997,"Ġdo":1998,"Ġav":1999,"stad":2000,"Ġko":2001,"onde":2002,"Ġgeda":2003,"Ġkrijgen":2004,"rivÃ©":2005,"Ġoor":2006,"jarige":2007,"Ġautom":2008,"bel":2009,"Ġ300":2010,"veren":2011,"ANT":2012,"ĠDit":2013,"Ġnov":2014,"hal":2015,"bank":2016,"Ġboven":2017,"Ġgrond":2018,"iti":2019,"\"\".":2020,"Ġelkaar":2021,"Ġreg":2022,"ĠJoh":2023,"her":2024,"eil":2025,"Ġsterk":2026,"Ġ95":2027,"DAM":2028,"ĠInf":2029,"Ġvia":2030,"igde":2031,"Ġpas":2032,"UN":2033,"Ġrecht":2034,"unten":2035,"900":2036,"Ġvoet":2037,"ssen":2038,"Ġenz":2039,"ree":2040,"nieuw":2041,"roeg":2042,"Ġ56":2043,"Ġverder":2044,"Ġple":2045,"film":2046,"onderdag":2047,"Ġminder":2048,"Ġgere":2049,"mand":2050,"won":2051,"iaal":2052,"ureau":2053,"Ġmij":2054,"ium":2055,"ĠInter":2056,"Ġmid":2057,"EC":2058,"Ġwerken":2059,"ĠBV":2060,"aa":2061,"Ġgelegen":2062,"Ġkort":2063,"itu":2064,"Ġ48":2065,"port":2066,"ieke":2067,"Ġstuur":2068,"orte":2069,"Ġspel":2070,"Ġvri":2071,"oy":2072,"Ġnemen":2073,"Ġres":2074,"Ġvrouwen":2075,"ting":2076,"iÃ«le":2077,"zer":2078,"0105600":2079,"0105596":2080,"vens":2081,"aald":2082,"ĠVolgens":2083,"ĠOver":2084,"ĠAd":2085,"Ġzondag":2086,"Ġdui":2087,"conom":2088,"Ġ42":2089,"ĠWest":2090,"illen":2091,"Ġlief":2092,"ĠAB":2093,"Ġpres":2094,"AP":2095,"ummer":2096,"UM":2097,"cteur":2098,"ging":2099,"Ġzaken":2100,"Ġzeker":2101,"ulp":2102,"Ġvindt":2103,"ĠAlle":2104,"0106286":2105,"0106373":2106,"Ġonderzoek":2107,"Ġkerk":2108,"Ġapp":2109,"Ġbelangrijk":2110,"ĠVr":2111,"stre":2112,"Ġrel":2113,"verten":2114,"Ġdienst":2115,"Ġsec":2116,"Ġ65":2117,"ĠHoo":2118,"ijna":2119,"RIJ":2120,"BB":2121,"Ġcomp":2122,"tem":2123,"wikkel":2124,"elijks":2125,"Ġleef":2126,"gar":2127,"Ġ034":2128,"Ġsep":2129,"Ġ85":2130,"US":2131,"Ġvre":2132,"Ġklas":2133,"Ġaug":2134,"Ġreger":2135,"ieken":2136,"LA":2137,"uist":2138,"0106287":2139,"jaar":2140,"Ġbur":2141,"ident":2142,"ante":2143,"Ġminister":2144,"rokken":2145,"Ġhalf":2146,"val":2147,"zaam":2148,"Ġtop":2149,"inkel":2150,"anten":2151,"ling":2152,"ĠZij":2153,"137":2154,"ung":2155,"Ġverg":2156,"ĠCom":2157,"ore":2158,"Ġwant":2159,"0106238":2160,"200":2161,"Ġ..":2162,"nemers":2163,"0106227":2164,"ĠHeerlen":2165,"Ġprijzen":2166,"Ġthuis":2167,"Al":2168,"Ġ43":2169,"ette":2170,"Ġkennis":2171,"zitter":2172,"âĢĶâĢĶ":2173,"Ġ058":2174,"inden":2175,"Ġint":2176,"0106449":2177,"imburg":2178,"Ġverm":2179,"Ġsex":2180,"ps":2181,"inig":2182,"Ġluxe":2183,"ĠPr":2184,"Ġgemaakt":2185,"Ġhouden":2186,"Ġenige":2187,"ĠDeze":2188,"Ġgeleden":2189,"Ġbro":2190,"duk":2191,"Ġgem":2192,"Ġ____":2193,"iz":2194,"Ġmr":2195,"110":2196,"Ġwedst":2197,"ĠHo":2198,"Ġlicht":2199,"01086":2200,"Ġniets":2201,"oud":2202,"com":2203,"wijk":2204,"Ġzoekt":2205,"rachten":2206,"0106456":2207,"Ġoff":2208,"Ġmaat":2209,"ORT":2210,"Ġbev":2211,"Ġ49":2212,"ĠDoor":2213,"sland":2214,"ator":2215,"Ġgratis":2216,"Ġ%":2217,"Ġschui":2218,"ieu":2219,"Ġ023":2220,"Ġcomm":2221,"aas":2222,"etten":2223,"Ġbad":2224,"Ġslechts":2225,"ld":2226,"ange":2227,"Ġieder":2228,"schapp":2229,"amilie":2230,"ĠHer":2231,"Ġelekt":2232,"Ġ86":2233,"Ġverkoop":2234,"Ġ320":2235,"ooi":2236,"Ġgebe":2237,"Ġjuni":2238,"zij":2239,"Ġwater":2240,"bru":2241,"Ġ500":2242,"ĠGra":2243,"Ġpra":2244,"Ġwaarin":2245,"scort":2246,"Ġactie":2247,"Ġbren":2248,"Ġ66":2249,"INGEN":2250,"teken":2251,"tij":2252,"Ġza":2253,"AC":2254,"Ġblijk":2255,"ERK":2256,"ooit":2257,"Ġvel":2258,"one":2259,"vl":2260,"orn":2261,"Ġmooie":2262,"ratie":2263,"0106235":2264,"lij":2265,"Ġvo":2266,"oensdag":2267,"AV":2268,"Ġmaand":2269,"ĠZw":2270,"ruim":2271,"Ġafgelopen":2272,"Ġvele":2273,"ider":2274,"log":2275,"IM":2276,"Ġgrijs":2277,"tische":2278,"Ġmaanden":2279,"ĠSport":2280,"igd":2281,"ager":2282,"Ġkn":2283,"Ġging":2284,"Ġconc":2285,"IG":2286,"ruil":2287,"ĠBar":2288,"Ġtuin":2289,"Ġgroep":2290,"Ġtelefoon":2291,"Ġ64":2292,"Ġtrek":2293,"Ġgep":2294,"ĠCL":2295,"Ġhuur":2296,"Ġblijven":2297,"genomen":2298,"erst":2299,"125":2300,"zonder":2301,"gd":2302,"dak":2303,"ĠEurope":2304,"Ġfax":2305,"Ġvoort":2306,"Ġdec":2307,"plaats":2308,"keur":2309,"HO":2310,"chtig":2311,"ĠInr":2312,"landse":2313,"clus":2314,"Ġ1989":2315,"ĠAf":2316,"Ġrec":2317,"Ġdonderdag":2318,"ersch":2319,"igh":2320,"ĠKerk":2321,"ĠHar":2322,"laatsen":2323,"Ġbijna":2324,"insdag":2325,"Ġnodig":2326,"anen":2327,"bre":2328,"Ġweinig":2329,"get":2330,"room":2331,"ĠBra":2332,"ĠLa":2333,"iat":2334,"Ġtien":2335,"II":2336,"asis":2337,"Ġkeuken":2338,",Â»":2339,"ly":2340,"ĠTh":2341,"Ġbestuur":2342,"Ġaut":2343,"0106445":2344,"TW":2345,"Ġzelfs":2346,"ijken":2347,"Ġac":2348,"Ġwoord":2349,"0106462":2350,"0105595":2351,"Ġ025":2352,"Ġdoel":2353,"ĠPar":2354,"houd":2355,"EE":2356,"doen":2357,"ĠCent":2358,"ĠBos":2359,"Ġgehouden":2360,"01123":2361,"Ġtw":2362,"orden":2363,"Ã«l":2364,"Ġhadden":2365,"ick":2366,"ĠEN":2367,"Ġ?":2368,"Ġcar":2369,"ute":2370,"geving":2371,"centrum":2372,"Ġgevol":2373,"ws":2374,"Ġzes":2375,"Ġzorg":2376,"Ġ54":2377,"Ġbank":2378,"Ġheer":2379,"sloten":2380,"St":2381,"ner":2382,"tien":2383,"Ġverw":2384,"Ġgevraagd":2385,"ovend":2386,"eest":2387,"Ġleeftijd":2388,"Ġwie":2389,"leven":2390,"Ġrad":2391,"out":2392,"uari":2393,"komst":2394,"Ġ101":2395,"ichte":2396,"Ġslaap":2397,"Ġapril":2398,"Ġmaakt":2399,"veld":2400,"ĠAL":2401,"bro":2402,"pt":2403,"wijl":2404,"sport":2405,"ĠHaag":2406,"rio":2407,"Ġvolle":2408,"iteiten":2409,"126":2410,"erend":2411,"0106291":2412,"ja":2413,"kam":2414,"805":2415,"Ġjonge":2416,"Ġweken":2417,"ampioen":2418,"\"\"\"\"":2419,"ĠDuitse":2420,"Ġ87":2421,"ĠAM":2422,"120":2423,"Ġmotor":2424,"ĠRa":2425,"Ġnooit":2426,"ock":2427,"âĢ¢âĢ¢":2428,"elden":2429,"ĠNu":2430,"ĠWat":2431,"hol":2432,"vr":2433,"Ġ41":2434,"Ġkrijgt":2435,"^_":2436,"Ġrest":2437,"Ġ52":2438,"LAND":2439,"uil":2440,"OP":2441,"Ġregering":2442,"Ġsc":2443,"fte":2444,"bert":2445,"Ġmeisjes":2446,"issie":2447,"Ġjong":2448,"programma":2449,"Ġmodel":2450,"ĠIsra":2451,"Ġ67":2452,"jj":2453,"ĠII":2454,"Ġinternation":2455,"Ġant":2456,"Ġwoensdag":2457,"ĠPostbus":2458,"oss":2459,"ĠOP":2460,"tiv":2461,"ĠTwee":2462,"Ġdubb":2463,"recht":2464,"Ġeerst":2465,"Ġ53":2466,"urt":2467,"zelfde":2468,"GR":2469,"ĠAutom":2470,"up":2471,"ĠTer":2472,"Een":2473,"Ġds":2474,"Ġmoest":2475,"erken":2476,"ovendien":2477,"werking":2478,"119":2479,"ĠVolvo":2480,"0106289":2481,"ĠBre":2482,"ĠEngel":2483,"ĠBO":2484,"spraak":2485,"ita":2486,"hi":2487,"Ġjuli":2488,"rist":2489,"bekr":2490,"Ġmom":2491,"ĠGolf":2492,"gend":2493,"iner":2494,"iers":2495,"use":2496,"staat":2497,"ervice":2498,"Ġcre":2499,"Ġri":2500,"weest":2501,"ober":2502,"vent":2503,"iken":2504,"Ġervaring":2505,"aler":2506,"EV":2507,"enen":2508,"Ġduidelijk":2509,"Ġca":2510,"Ġeconom":2511,"Ġweet":2512,"Ġ1988":2513,"Ġinst":2514,"ets":2515,"ĠLimburg":2516,"erende":2517,"AF":2518,"ĠBl":2519,"ĠTelefoon":2520,"Ġdinsdag":2521,"Ġzoeken":2522,"ĠÂ£":2523,"Ġgeheel":2524,"Ġmooi":2525,"ene":2526,"cedes":2527,"Ġwon":2528,"verk":2529,"Ġnieuws":2530,"Ġdr":2531,"Ġair":2532,"anda":2533,"0105599":2534,"Ġblijft":2535,"Ġpart":2536,"Ġjanuari":2537,"UL":2538,"ris":2539,"Ġ59":2540,"ĠPa":2541,"spec":2542,"ota":2543,"ĠSCH":2544,"li":2545,"Ġmaart":2546,"-,":2547,"Ġkleine":2548,"MA":2549,"stellen":2550,"ĠLand":2551,"Ġgeweest":2552,"hof":2553,"ijkt":2554,"ĠNOS":2555,"Ġdra":2556,"Ġvinden":2557,"alt":2558,"steld":2559,"IJK":2560,"01047":2561,"Ġsinds":2562,"fa":2563,"Ġ63":2564,"EUR":2565,"ĠItal":2566,"ĠÃ¼":2567,"Ġ51":2568,"Ġ57":2569,"Ġonbe":2570,"Ġtechn":2571,"Ġ070":2572,"opend":2573,"105":2574,"sh":2575,"âĦ¢":2576,"Ġdruk":2577,"lak":2578,"ichting":2579,"'.":2580,"155":2581,"Ġ250":2582,"Ġlever":2583,"spel":2584,"rief":2585,"older":2586,"Ġprogramma":2587,"ĠAfl":2588,"Ġvlie":2589,"ĠGer":2590,"ument":2591,"Ġloop":2592,"Ġit":2593,"ĠBelg":2594,"Ġkr":2595,"reven":2596,"ENS":2597,"Ġlater":2598,"Ġkantoor":2599,"Ġprof":2600,"ĠMercedes":2601,"akel":2602,"ĠOr":2603,"ĠEx":2604,"ovinc":2605,"Ġ150":2606,"maat":2607,"ĠIsraÃ«l":2608,"ĠHA":2609,"ĠprivÃ©":2610,"Ġgeeft":2611,"Ġlucht":2612,"riek":2613,"tiek":2614,"Ġverwacht":2615,"Ġha":2616,"eiz":2617,"Ġ111":2618,"Ġoude":2619,"Ġhotel":2620,"ournaal":2621,"Ġzeven":2622,"gn":2623,"Ġrol":2624,"ruis":2625,"gez":2626,"Ġnam":2627,"Ġmeest":2628,"spro":2629,"Ġhen":2630,"Ġvorm":2631,"Ġzouden":2632,"HE":2633,"ib":2634,"iÃ«n":2635,"Ġ110":2636,"ĠBTW":2637,"Ġ[":2638,"mid":2639,"mal":2640,"Ġzwaar":2641,"ĠKl":2642,"aalde":2643,"ilver":2644,"Ġ$":2645,"zeker":2646,"ĠEscort":2647,"omst":2648,"dienst":2649,"EST":2650,"Ġwee":2651,"ĠFrank":2652,"Ġhandel":2653,"reden":2654,"ĠAUTO":2655,"Ġ\"âĸł":2656,"TS":2657,"ĠCit":2658,"Ġpost":2659,"Ġligt":2660,"ĠOnder":2661,"ĠFries":2662,"Ġamb":2663,"ader":2664,"ault":2665,"Ġsn":2666,"ĠBB":2667,"Ġramen":2668,"onn":2669,"^^^":2670,"Ġvorig":2671,"rouwen":2672,"regel":2673,"boden":2674,"ats":2675,"wol":2676,"Ġdiesel":2677,"voerd":2678,"Ġgrootste":2679,"Ġregel":2680,"ĠRu":2681,"127":2682,"amb":2683,"adett":2684,"enk":2685,"Ãľ":2686,"sse":2687,"Ġvroeg":2688,"ĠUw":2689,"Ġwaard":2690,"ĠSh":2691,"Ġ\"âĢŀ":2692,"'d":2693,"Ġkil":2694,"ĠSe":2695,"Ġontwikkel":2696,"vaart":2697,"ieten":2698,"Ġgebied":2699,"Ġverschillen":2700,"UI":2701,"ĠEuropa":2702,"Ġbestaan":2703,"116":2704,"laan":2705,"Ġkwaliteit":2706,"dacht":2707,"ĠVeren":2708,"blad":2709,"0106288":2710,"Ġ58":2711,"Ġgegeven":2712,"Ġbus":2713,"ĠGR":2714,"ress":2715,"Ġbeter":2716,"atief":2717,"ĠVraag":2718,"Ġpubl":2719,"Ġdiverse":2720,"IES":2721,"vrij":2722,"Ġkent":2723,"0105601":2724,"yst":2725,"Ġbezoek":2726,"kker":2727,"ĠBen":2728,"Ġ1987":2729,"Ġco":2730,"117":2731,"Ġtoek":2732,"ages":2733,"-\"":2734,"Ġ029":2735,"Ġmeter":2736,"trecht":2737,"tember":2738,"ĠKadett":2739,"SV":2740,"ica":2741,"wez":2742,"ĠPh":2743,"Ġ1000":2744,"106":2745,"Ġkreeg":2746,"Ġ68":2747,"Ġ83":2748,"Ġpaar":2749,"Ġoktober":2750,"Ġanders":2751,"ollar":2752,"01085":2753,"reken":2754,"0105597":2755,"waard":2756,"ĠHaar":2757,"Ġstem":2758,"ĠEuropese":2759,"ĠRenault":2760,"punt":2761,"geme":2762,"Ġklein":2763,"ĠSc":2764,"Ġdien":2765,"euge":2766,"Ġzeggen":2767,"Ġvolgende":2768,"Ġsoc":2769,"Ġmoment":2770,"Ãª":2771,"Ġgelijk":2772,"Ġarbe":2773,"onnen":2774,"lan":2775,"113":2776,"assen":2777,"ome":2778,",-;":2779,"Ġ77":2780,"Ġstand":2781,"Ġminu":2782,"Ġas":2783,"330":2784,"Ġ62":2785,"rug":2786,"dem":2787,"Ġdoet":2788,"eiden":2789,"Ġschool":2790,"iez":2791,"ĠSn":2792,"eugeot":2793,"156":2794,"ĠMin":2795,"Ġ73":2796,"asten":2797,"graaf":2798,"Ġwoning":2799,"Ġmarkt":2800,"Ġkans":2801,"Ġbeschik":2802,"wj":2803,"Ãĭ":2804,"iste":2805,"Ġfilm":2806,"Ġacc":2807,"Ġfra":2808,"Ãı":2809,"Ġpersoon":2810,"bureau":2811,"ĠVeen":2812,"Ġmm":2813,"Ġ\"âĢ¢":2814,"Ġfan":2815,"oms":2816,"lement":2817,"vertentie":2818,"Ġdisc":2819,"Ġ84":2820,"ving":2821,"lever":2822,"Ġseptember":2823,"koop":2824,"0106239":2825,"Ġongev":2826,"Ġelektr":2827,"159":2828,"Ġnaam":2829,"129":2830,"Ġreken":2831,"icit":2832,"138":2833,"Ġ190":2834,"aam":2835,"Ġ205":2836,"car":2837,"Ġgeval":2838,"inter":2839,"Ġ018":2840,"Ġkoers":2841,"mans":2842,"ugd":2843,"red":2844,"124":2845,"ille":2846,"340":2847,"oemde":2848,"115":2849,"ton":2850,"Ġdecember":2851,"ko":2852,"0109634":2853,"fen":2854,"ieel":2855,"ĠHoe":2856,"Ġwen":2857,"ico":2858,"Ġvragen":2859,"olog":2860,"Ġproblemen":2861,"Ġ69":2862,"fi":2863,"ĠMA":2864,"107":2865,"ijen":2866,"sluit":2867,"Ġverlie":2868,"Ġ103":2869,"Ġeerder":2870,"iode":2871,"iter":2872,"IP":2873,"rijden":2874,"103":2875,"ĠDan":2876,"uurt":2877,"hr":2878,"Ġfunctie":2879,"-\"\"":2880,"Ġbegin":2881,"issen":2882,"Ġfamilie":2883,"Ġlanden":2884,"Ġvertel":2885,"ĠDuitsland":2886,"ĠDag":2887,"Ġlieve":2888,"auto":2889,"ĠNed":2890,"Ġbasis":2891,"oemen":2892,"hoven":2893,"ns":2894,"Ġpri":2895,"cces":2896,"ĠSu":2897,"Ġdam":2898,"IA":2899,"Ġverkl":2900,"Ġcv":2901,"ull":2902,"Ġschade":2903,"Ġproduk":2904,"ĠPeugeot":2905,"TL":2906,"Ġzaak":2907,"tr":2908,"ĠJap":2909,"uter":2910,"Ġmuziek":2911,"unn":2912,"onderd":2913,"onda":2914,"Ġclub":2915,"We":2916,"iveau":2917,"oep":2918,"Ġwedstrijd":2919,"Ġperf":2920,"Ġvakantie":2921,"Ġmedewerk":2922,"ĠPrijs":2923,"ĠSti":2924,"ric":2925,"Ġvaak":2926,"ĠUtrecht":2927,"114":2928,"ane":2929,"middels":2930,"Ġgedaan":2931,"heids":2932,".Â»":2933,"104":2934,"rol":2935,"akken":2936,"Ġ79":2937,"eizoen":2938,"150":2939,"ook":2940,"Ġelke":2941,"Ġminist":2942,"SE":2943,"ffen":2944,"Ġterwijl":2945,"Ġmed":2946,"uden":2947,"LO":2948,"Ġlid":2949,"ĠTurbo":2950,"Ġpresident":2951,"________________":2952,"ors":2953,"Ġmar":2954,"Ġbal":2955,"uig":2956,"158":2957,"ĠNL":2958,"Ġhard":2959,"issan":2960,"abin":2961,"ĠMaz":2962,"ĠTot":2963,"euw":2964,"nr":2965,"0106439":2966,"rale":2967,"Ġzitten":2968,"Ġleer":2969,"Ġtoekomst":2970,"Ġshow":2971,"Ġvl":2972,"Ġhoge":2973,"Ġkunst":2974,"0109489":2975,"Ġvriend":2976,"ilijk":2977,"markt":2978,"antw":2979,"Ġjuist":2980,"Ġreis":2981,"ilet":2982,"app":2983,"Ġhulp":2984,"Ġderde":2985,"ack":2986,"Ġ=":2987,"eed":2988,"135":2989,"Ġ78":2990,"ĠÂ±":2991,"Ġbre":2992,"Ġbwj":2993,"0105672":2994,"groep":2995,"ĠCura":2996,"Ġcol":2997,"Ġveil":2998,"ĠNederlands":2999,"''":3000,"oof":3001,"ĠAut":3002,"Ġprem":3003,"Ġ\"\"\"":3004,"Ġ76":3005,"128":3006,"ĠFiat":3007,"arte":3008,"Ġleg":3009,"Ġpersoneel":3010,"146":3011,"avan":3012,"ruimte":3013,"bi":3014,"Ġide":3015,"TE":3016,"ĠReg":3017,"Ġdes":3018,"Ġaanwez":3019,"Ġ102":3020,"loop":3021,"136":3022,"Ġ1986":3023,"SC":3024,"ald":3025,"ustus":3026,"chtige":3027,"ĠFoto":3028,"Ġdood":3029,"GE":3030,"Ġmannen":3031,"vest":3032,"Ġblijkt":3033,"Ġfoto":3034,"Ġ74":3035,"Ġnovember":3036,"Ġseizoen":3037,"ĠDr":3038,"ips":3039,"oper":3040,"laag":3041,"ĠNissan":3042,"Ġtro":3043,"kant":3044,"ĠVrij":3045,"trek":3046,"Ġ120":3047,"Ġbent":3048,"0106232":3049,"ĠPer":3050,"merk":3051,"ĠFl":3052,"rans":3053,"133":3054,"ĠMan":3055,"Ġplan":3056,"etje":3057,"lang":3058,"IER":3059,"Ġvandaag":3060,"part":3061,"Ġkosten":3062,"Ġvoorzien":3063,"109":3064,"Ġ105":3065,"Ġbrengen":3066,"Ġou":3067,"Ġteken":3068,"vangen":3069,"EEN":3070,"vd":3071,"145":3072,"\\\\":3073,"ĠMaast":3074,"Ġmoeilijk":3075,"108":3076,"Ġpositie":3077,".).":3078,"ĠRO":3079,"Ġbedrijfs":3080,"ankelijk":3081,"vrouw":3082,"ĠÃ¯":3083,"Ġsucces":3084,"240":3085,"iep":3086,"Ġlangs":3087,"udi":3088,"ĠGele":3089,"::":3090,"best":3091,"Ġonver":3092,"ivers":3093,"old":3094,"DAG":3095,"br":3096,"ĠHel":3097,"Ġprovinc":3098,"ilder":3099,"Ġ72":3100,"ĠJong":3101,"inger":3102,"Ġmaakte":3103,"Ġbeide":3104,").\"":3105,"zo":3106,"Ġwilde":3107,"Ġdou":3108,"kk":3109,"ject":3110,"Ġzat":3111,"Ġ017":3112,"ijks":3113,"Ġ\"(":3114,"Ġ...":3115,"Ġ61":3116,"Ġsoort":3117,"Ġhoudt":3118,"Ġty":3119,"erg":3120,"0110052":3121,"Ġaugustus":3122,"Ġvorige":3123,"Ġheen":3124,"ĠOpen":3125,"EU":3126,"Ġverschillende":3127,"nemen":3128,"0106444":3129,"jet":3130,"ĠIJ":3131,"Ġ125":3132,"ĠStation":3133,"epen":3134,"LEN":3135,"Ġbek":3136,"Ġrust":3137,"ĠMazda":3138,"Ġdirect":3139,"ĠGar":3140,"Ġschuif":3141,"ork":3142,"ula":3143,"Ġ**":3144,"Ġbedrijven":3145,"dactie":3146,"Ġopleiding":3147,"Ġoffic":3148,"MM":3149,"ĠFriesland":3150,"Ġleden":3151,"que":3152,"Ġvanuit":3153,"Ġzee":3154,"serie":3155,"ase":3156,"oorn":3157,"Ġvader":3158,"rac":3159,"meester":3160,"gele":3161,"richting":3162,"Ġvraagt":3163,"ĠKamer":3164,"Ġnatuurlijk":3165,"ART":3166,"Ġgren":3167,"ĠMo":3168,"Ġmetallic":3169,"139":3170,"Ġ104":3171,"gemeen":3172,"144":3173,"Ġkleur":3174,")\"":3175,"Ġ___":3176,"ollicit":3177,"dra":3178,"ĠAb":3179,"Ġstuurbekr":3180,"eemt":3181,"tor":3182,"werkt":3183,"iedt":3184,"Ġbaan":3185,"mmmm":3186,"ĠBro":3187,"ID":3188,"resp":3189,"IV":3190,"asting":3191,"stij":3192,"mak":3193,"Ġongeveer":3194,"form":3195,"280":3196,"Ġtre":3197,"Ġgister":3198,"bad":3199,"0109637":3200,"enveen":3201,"Ġhuid":3202,"ĠStaten":3203,"Ã¯n":3204,"voerder":3205,"ĠRad":3206,"****":3207,"issel":3208,"Ġverander":3209,"rip":3210,"zorg":3211,"huizen":3212,"Ġerg":3213,"raf":3214,"Ġairco":3215,"Ġ030":3216,"uld":3217,"ĠPol":3218,"ue":3219,"Ġga":3220,"ĠJon":3221,"ĠWel":3222,"rit":3223,"0106453":3224,"bruari":3225,"Ġcontact":3226,"Ġzom":3227,"Ġgewoon":3228,"Ġpark":3229,"ysteem":3230,"schau":3231,"ĠHans":3232,"ielen":3233,"Ġkorte":3234,"Ġorganisatie":3235,"Ġtek":3236,"uele":3237,"Ġwet":3238,"Ġgraag":3239,"ĠWer":3240,"antwoor":3241,"JE":3242,"Ġziek":3243,"Ġmiljard":3244,"Ġkap":3245,"bericht":3246,"rifte":3247,"Ġradio":3248,"Ġstart":3249,"BER":3250,"Ġschoon":3251,"134":3252,"157":3253,"ĠHAAG":3254,"Ġopl":3255,"OU":3256,"fe":3257,"Ġtotaal":3258,"Ġken":3259,"0105593":3260,"Ġwinkel":3261,"154":3262,"118":3263,"Ġmnd":3264,"ign":3265,"Ġlijkt":3266,"istische":3267,"Ġhog":3268,"230":3269,"Ġbeteken":3270,"Ġmoeder":3271,"ath":3272,"fc":3273,"oth":3274,"NE":3275,"Ġspelen":3276,"tegen":3277,"rade":3278,"ĠWit":3279,"Ġvervol":3280,"Ġwinst":3281,"Ġbetre":3282,"Ġresult":3283,"Ne":3284,"aarde":3285,"ĠSa":3286,"Ġfebruari":3287,"ĠMaastricht":3288,"-^":3289,"vdA":3290,"menten":3291,"Dat":3292,"Ġgarantie":3293,"Ġonge":3294,"ĠJa":3295,"zaak":3296,"anneer":3297,"Ġbieden":3298,"legd":3299,"Ġherv":3300,"507":3301,"Ġ400":3302,"ara":3303,"Ġ82":3304,"Ġnauw":3305,"Ġmanier":3306,"ustrie":3307,"ĠCo":3308,"oppen":3309,"illa":3310,"Ġtoilet":3311,"Ġke":3312,"bod":3313,"IO":3314,"Ġkomende":3315,"Ġli":3316,"standig":3317,"Ġbrand":3318,"STERDAM":3319,"Ġgenomen":3320,"0106424":3321,"tjes":3322,"Ġbrief":3323,"visie":3324,"afel":3325,"ÃĬÃĬ":3326,"bet":3327,"ĠCitro":3328,"Ġcond":3329,"slagen":3330,"eks":3331,"555":3332,"ĠVOOR":3333,"gebied":3334,"OOP":3335,"Ġstellen":3336,"alis":3337,"feer":3338,"aur":3339,"Ġteam":3340,"0105594":3341,"Ġmiddel":3342,"schappen":3343,"ect":3344,"480":3345,"178":3346,"teerd":3347,"ĠBed":3348,"ĠZijn":3349,"Ġraad":3350,"ĠHoofd":3351,"ĠHonda":3352,"Ġstij":3353,"ters":3354,"Ġversn":3355,"132":3356,"Ġziet":3357,"voering":3358,"Ġruime":3359,"ĠInfo":3360,"260":3361,"END":3362,"Ġnood":3363,"Ġhoop":3364,"195":3365,"era":3366,"EDE":3367,"Ġzieken":3368,"ĠWie":3369,"Ġgebouw":3370,"igens":3371,"Ġklasse":3372,"MAN":3373,"anks":3374,"167":3375,"wezen":3376,"mers":3377,"isie":3378,"Ġkost":3379,"indelijk":3380,"Ġbestaat":3381,"tisch":3382,"Ġinmiddels":3383,"Ġpap":3384,"ras":3385,"ction":3386,"ĠPiet":3387,"Ġaller":3388,"Ġ323":3389,"148":3390,"Ġprob":3391,"goed":3392,"499":3393,"zine":3394,"urn":3395,"dering":3396,"244":3397,"0106443":3398,"Ġcor":3399,"lijn":3400,"Ġvoetbal":3401,"vallen":3402,"ije":3403,"responden":3404,"112":3405,"rift":3406,"Ġorig":3407,"Ġdoc":3408,"mijn":3409,"uigen":3410,"ix":3411,"ĠAru":3412,"Ġgesprek":3413,"ĠJournaal":3414,"495":3415,"ĠPhil":3416,"Ġgevr":3417,"Ġliet":3418,"Ġplaatsen":3419,"vies":3420,"ĠDel":3421,"Ġwaarbij":3422,"Ġmeisje":3423,"290":3424,"Ġdank":3425,"ĠMid":3426,"AB":3427,"153":3428,"Ġavond":3429,"Ġ106":3430,"Ġvoorzitter":3431,"Ġslecht":3432,"UIS":3433,"raal":3434,"ĠKon":3435,"mmen":3436,"102":3437,"Ġcm":3438,"ĠPl":3439,"iger":3440,"Ġuitgeb":3441,"Ġstap":3442,"Ġhelemaal":3443,"hem":3444,"0106459":3445,"Ġpunten":3446,"....":3447,"STRA":3448,"Ġdem":3449,"Ġgroen":3450,"chting":3451,"ĠFranse":3452,"ĠHeerenveen":3453,"gesch":3454,"west":3455,"0105598":3456,"voorbeeld":3457,"anken":3458,"elle":3459,"246":3460,"Op":3461,"190":3462,"350":3463,"ces":3464,"196":3465,"Ġpolitieke":3466,"IR":3467,"ept":3468,"Ġdon":3469,"aarden":3470,"Ġstud":3471,"ĠSm":3472,"Ġmilieu":3473,"Ġgeworden":3474,"eens":3475,"147":3476,"ĠVries":3477,"Ġkamer":3478,"Ġgarage":3479,"Ġarti":3480,"iland":3481,"reek":3482,"Ġno":3483,"club":3484,"Ġhoogte":3485,"enden":3486,"Ġleiding":3487,"ĠNiet":3488,"bin":3489,"orst":3490,"SP":3491,"Ġcamp":3492,"igingen":3493,"Ġspoed":3494,"Ġduur":3495,"ĠCAR":3496,"ĠMen":3497,"staande":3498,"ĠBerg":3499,"unst":3500,"Ġcolle":3501,"blij":3502,"Ġ040":3503,"Ġ81":3504,"Ġbezig":3505,"middag":3506,"TER":3507,"meer":3508,"Ġstrijd":3509,"zend":3510,"111":3511,"Ġploeg":3512,"Voor":3513,"ight":3514,"ĠMeer":3515,"iaanse":3516,"233":3517,"Ġcons":3518,"zing":3519,"ĠVal":3520,"doende":3521,"ĠHO":3522,"ĠNIE":3523,"ĠTEL":3524,"Ġhelft":3525,"Ġaard":3526,"ĠWillem":3527,"ĠPeter":3528,"122":3529,"uldig":3530,"di":3531,"IK":3532,"Ġzowel":3533,"Ġlange":3534,"175":3535,"Ġbijzonder":3536,"lingen":3537,"oup":3538,"tionale":3539,"Ġdames":3540,"ĠToy":3541,"232":3542,"sj":3543,"285":3544,"Ġcentrum":3545,"166":3546,"Ġnl":3547,"Ġbiedt":3548,"ĠMon":3549,"Ġadres":3550,"235":3551,"Ġ\"'":3552,"ĠSE":3553,"ĠJapan":3554,"OK":3555,"Ġoverleg":3556,"068":3557,"Ġgevo":3558,"ĠKle":3559,"Ġallemaal":3560,"aling":3561,"ĠMil":3562,"til":3563,"Ġmon":3564,"bren":3565,"Ġtv":3566,"oemd":3567,"Ġing":3568,"Ġlij":3569,"Ġruimte":3570,"ĠFin":3571,"Ġdirecteur":3572,"ĠNew":3573,"moet":3574,"Ġopnieuw":3575,"Ġstond":3576,"ĠSov":3577,"ĠON":3578,"220":3579,"Ġverst":3580,"Ġgebruikt":3581,"143":3582,"ĠPvdA":3583,"LEM":3584,"ĠVerenigde":3585,"pport":3586,"234":3587,"blauw":3588,"Ġnacht":3589,"Ġall":3590,"Ġgeopend":3591,"comm":3592,"486":3593,"ichtingen":3594,"Ġ309":3595,"isen":3596,"142":3597,"raat":3598,"Ġvaste":3599,"ĠBK":3600,"Ġkabin":3601,"Ġmidden":3602,"ĠMart":3603,"Ġse":3604,"565":3605,"566":3606,"kn":3607,"Ġinfo":3608,"ĠZon":3609,"edan":3610,"deeld":3611,"ĠAs":3612,"Ġgezien":3613,"Ġperiode":3614,"ana":3615,"roep":3616,"Ġgelegenheid":3617,"Ġverantwoor":3618,"erecht":3619,"wagen":3620,"Ġfor":3621,"Ġnwe":3622,"177":3623,"Ġheren":3624,"Ġkind":3625,"Ġdollar":3626,"cel":3627,"Ġministerie":3628,"Ġexcl":3629,"385":3630,"ieve":3631,"ĠNieuwe":3632,"Ġth":3633,"130":3634,"resent":3635,"ONINGEN":3636,"Ġoog":3637,"dien":3638,"Ġeff":3639,"ise":3640,"ĠJac":3641,"165":3642,"Ġleid":3643,",,":3644,"esse":3645,"useum":3646,"ĠAu":3647,"yl":3648,"En":3649,"boek":3650,"ĠSex":3651,"ĠTevens":3652,"heer":3653,"Ġcompl":3654,"ĠCon":3655,".-.":3656,"SCH":3657,"minist":3658,"185":3659,"0104723":3660,"dek":3661,"ĠVER":3662,"225":3663,"066":3664,"275":3665,"genheid":3666,"Ġbehandel":3667,"Ġreden":3668,"Ġhanden":3669,"Ġmass":3670,"Ġafdeling":3671,"Ġwaarsch":3672,"Ġtoege":3673,"-_":3674,"sn":3675,"Ġiedereen":3676,"Ġat":3677,"oer":3678,"zel":3679,"IJN":3680,"ega":3681,"AST":3682,"Ġwaarvan":3683,"lex":3684,"Ġsitu":3685,"ĠAudi":3686,"oit":3687,"ym":3688,"567":3689,"rank":3690,"ĠNij":3691,"Ġmorgen":3692,"Ġopd":3693,"regen":3694,"warte":3695,"Ġzwem":3696,"ktie":3697,"152":3698,"Ġ1985":3699,"Ġhuidige":3700,"Ġoorlog":3701,"ĠCl":3702,"ĠKar":3703,"366":3704,"Ġzoek":3705,"011239":3706,"Ġzilver":3707,"UIT":3708,"183":3709,"Ġbeeld":3710,"Ġbleek":3711,"186":3712,"Ġbetrokken":3713,"OON":3714,"ĠMits":3715,"ĠDrachten":3716,"name":3717,"0001":3718,"Ġbos":3719,"Ġkla":3720,"ĠRTL":3721,"Ġiemand":3722,"kens":3723,"ĠPaul":3724,"Ġdre":3725,"rest":3726,"176":3727,"ĠCol":3728,"ĠFrans":3729,"schien":3730,"229":3731,"ĠEind":3732,"265":3733,"ustitie":3734,"yen":3735,"Ġprima":3736,"ĠJohn":3737,"ĠFax":3738,"ADE":3739,"020":3740,"Ġdicht":3741,"Ġnummer":3742,"kan":3743,"295":3744,");":3745,"kamers":3746,"Ġabs":3747,"Ġmoder":3748,"475":3749,"Ġbuitenland":3750,"Ġdak":3751,"ION":3752,"are":3753,"ĠFrie":3754,"clusief":3755,"werken":3756,"Ġgekomen":3757,"Ġplaatsv":3758,"Ġ71":3759,"Als":3760,"Ġvlu":3761,"ĠHoog":3762,"ĠToyota":3763,"veel":3764,"Ġparlement":3765,"akker":3766,"ĠDam":3767,"ĠPers":3768,"Ġ316":3769,"Ġuite":3770,"raken":3771,"ĠSM":3772,"Ġminuten":3773,"Ġuiter":3774,"ring":3775,"Ġ2000":3776,"broek":3777,"Ġlopen":3778,"zegd":3779,"ĠDijk":3780,"baan":3781,"Ġtoer":3782,"490":3783,"sy":3784,"226":3785,"ĠSl":3786,"Ġkrant":3787,"Ġinternationale":3788,"sa":3789,"465":3790,"Ġvoorl":3791,"Ġ115":3792,"Ġso":3793,"498":3794,"ĠMich":3795,"484":3796,"vaard":3797,"unde":3798,"325":3799,"266":3800,"mming":3801,"ama":3802,"uiden":3803,"):":3804,"Ġprodu":3805,"elde":3806,"ĠCDA":3807,"maga":3808,"ĠVN":3809,"489":3810,"ĠOf":3811,"477":3812,"tele":3813,"ĠVl":3814,"Ġlok":3815,"ming":3816,"otte":3817,"ĠFe":3818,"mann":3819,"169":3820,"retaris":3821,"Ġverzorg":3822,"193":3823,"245":3824,"ĠTE":3825,"557":3826,"mene":3827,"ĠTweede":3828,"Ġomzet":3829,"ĠAR":3830,"malige":3831,"ĠEd":3832,"ĠTij":3833,"274":3834,"RAN":3835,"Ġogen":3836,"Ġyn":3837,"179":3838,"Ġondernem":3839,"ĠBus":3840,"Ġkinder":3841,"intig":3842,"mach":3843,"ona":3844,"Ġmogen":3845,"563":3846,"Ġeeuw":3847,"Ġpubliek":3848,"Ġprak":3849,"ĠCitroen":3850,"Ġoverheid":3851,"Ġ112":3852,"Ġlos":3853,"ĠFC":3854,"Ġpartijen":3855,"Ġaandacht":3856,"zak":3857,"149":3858,"ogelijk":3859,"ines":3860,"Ġliggen":3861,"Ġrente":3862,"030":3863,"role":3864,"ln":3865,"ZEN":3866,"ĠAutobedrijf":3867,"483":3868,"pleet":3869,"kelijk":3870,"263":3871,"Ġil":3872,"alla":3873,"Ġrep":3874,"ance":3875,"ĠSovjet":3876,"Ġveroor":3877,"Ġsollicit":3878,"Ġmeeste":3879,"nam":3880,"Ġmerk":3881,"gg":3882,"verb":3883,"Vol":3884,"Ġleu":3885,"ĠGroot":3886,"Ġstuden":3887,"Ġomgeving":3888,"Ġbijvoorbeeld":3889,"ĠBovendien":3890,"isse":3891,"Ġspie":3892,"Ġgas":3893,"ĠGod":3894,"Ġ107":3895,"imaal":3896,"rem":3897,"kelen":3898,"Ġsal":3899,"werp":3900,"oma":3901,"Ġja":3902,"Ġij":3903,"184":3904,"Ġmax":3905,"dagen":3906,"positie":3907,"ÃĪ":3908,"Ġverslag":3909,"lass":3910,"751":3911,"Ġwinnen":3912,"lav":3913,"arts":3914,"ĠBon":3915,"192":3916,"reis":3917,"Ġond":3918,"atieve":3919,"Ġvelgen":3920,"197":3921,"aurant":3922,"actie":3923,"oveel":3924,"270":3925,"kle":3926,"lega":3927,"569":3928,"uwe":3929,"daad":3930,"Ġaanb":3931,"***":3932,"478":3933,"Ġbeleid":3934,"Ġkand":3935,"Ġvest":3936,"Ġneemt":3937,"387":3938,"ktu":3939,"Ġsteun":3940,"Ġjeugd":3941,"227":3942,"ĠCH":3943,"286":3944,"375":3945,"Maar":3946,"180":3947,"Ġbru":3948,"gemene":3949,"gelijk":3950,"269":3951,"Ġeinde":3952,"isme":3953,"Ġtype":3954,"237":3955,"Ġlekker":3956,"vestig":3957,"Ġwerkzaam":3958,"Ġgesloten":3959,"Ġfab":3960,"Ġwelke":3961,"una":3962,"187":3963,"Ġlen":3964,"bu":3965,"487":3966,"Ġzetten":3967,"ĠAnd":3968,"258":3969,"Ġton":3970,"Ġterecht":3971,"ĠKom":3972,"Ġkleuren":3973,"_____":3974,"Ġbetalen":3975,"Ġkam":3976,"Ġkilom":3977,"ĠHier":3978,"562":3979,"Ġopties":3980,"ĠEngelse":3981,"Ġonderwijs":3982,"IEK":3983,"239":3984,"454":3985,"\"\".\"":3986,"376":3987,"170":3988,"Ġtoon":3989,"173":3990,"'/":3991,"Ġvertrek":3992,"ernooi":3993,"ime":3994,"Ġbesp":3995,"arde":3996,"088":3997,"ile":3998,"Ġdaarom":3999,"SM":4000,"ĠWK":4001,"Ġaanwezig":4002,"476":4003,"Ġoverleden":4004,"lymp":4005,"UWAR":4006,"winn":4007,"553":4008,"ĠAV":4009,"erder":4010,"Ġov":4011,"gevers":4012,"kamp":4013,"roken":4014,"do":4015,"ĠfinanciÃ«le":4016,"VV":4017,"Ġnegen":4018,"Ġkabinet":4019,"ars":4020,"ittard":4021,"395":4022,"ĠGen":4023,"ĠHB":4024,"OND":4025,"568":4026,"ONT":4027,"Ġarbeids":4028,"485":4029,"164":4030,"UP":4031,"EF":4032,"bele":4033,"0106437":4034,"ĠDire":4035,"188":4036,"ĠQu":4037,"AO":4038,"Ġalarm":4039,"ande":4040,"ĠKL":4041,"merc":4042,"hand":4043,"Ġvond":4044,"Ġsk":4045,"ĠBrit":4046,"ĠStad":4047,"ARK":4048,"236":4049,"waarden":4050,"ĠWaar":4051,"Ġfeit":4052,"Ġ049":4053,"ĠWant":4054,"ĠServ":4055,"ĠHandel":4056,"weer":4057,"Ġtal":4058,"Ġdouche":4059,"tiviteiten":4060,"Ġschrifte":4061,"tra":4062,"267":4063,"Ġmens":4064,"ĠSim":4065,"ĠGr":4066,"Ġ135":4067,"iering":4068,"ĠTra":4069,"sters":4070,"277":4071,"Ġtermijn":4072,"Ġvoorraad":4073,"ĠClub":4074,"Ġspeciale":4075,"Ġgenoeg":4076,"264":4077,"757":4078,"248":4079,"erp":4080,"Ġpunt":4081,"izen":4082,"ranje":4083,"Ġzoveel":4084,"080":4085,"Ġsa":4086,"onie":4087,"Ġvalt":4088,"het":4089,"497":4090,"Ġgl":4091,"wit":4092,"avans":4093,"mede":4094,"*^":4095,"380":4096,"Ġmark":4097,"Ġgaf":4098,"ĠAruba":4099,"Ãĸ":4100,"Ġkeuze":4101,"Ġpersonen":4102,"WB":4103,"Ġ305":4104,"ishi":4105,"Ġuitste":4106,"160":4107,"ursus":4108,"INK":4109,"121":4110,"ĠWor":4111,"Ġâĸłâĸł":4112,"Nederland":4113,"ben":4114,"ĠGem":4115,"Ġnaast":4116,"arie":4117,"ĠEX":4118,"ĠDu":4119,"Ġbar":4120,"sta":4121,"508":4122,"Ġkar":4123,"ĠCD":4124,"Ġneer":4125,"Ġkwart":4126,"agina":4127,"ĠMB":4128,"ĠRadio":4129,"Ġdaarna":4130,"273":4131,"haven":4132,"Ned":4133,"Ġbr":4134,"Ġ600":4135,"azine":4136,"ĠNIEUW":4137,"466":4138,"268":4139,"TV":4140,"Ġronde":4141,"nie":4142,"opp":4143,"228":4144,"Ġdenken":4145,"276":4146,"Ġkri":4147,"On":4148,"BUR":4149,"Ġstere":4150,"Ġdeed":4151,"Ġ114":4152,"ĠRE":4153,"Ġziekte":4154,"247":4155,"pk":4156,"oi":4157,"ouden":4158,"Ġwegens":4159,"uizend":4160,"zaken":4161,"GEN":4162,"chtoff":4163,"ĠRijks":4164,"ĠVS":4165,"Ġgevolg":4166,"Ġspeelfilm":4167,"Ġkwamen":4168,"IEN":4169,"Ġtrekh":4170,"fonds":4171,"Er":4172,"Ġontvangen":4173,"bond":4174,"168":4175,"Ġsituatie":4176,"Ġfinale":4177,"Ġhart":4178,"Ġgesteld":4179,"0106454":4180,"388":4181,"morgen":4182,"ĠGrote":4183,"Ġnadat":4184,"ELD":4185,"OLF":4186,"222":4187,"297":4188,"493":4189,"768":4190,"ĠDaarna":4191,"Ġverantwoordelijk":4192,"'\"":4193,"gever":4194,"377":4195,"rake":4196,"stellingen":4197,"ontakt":4198,"ĠTw":4199,"085":4200,"386":4201,"otheek":4202,"Ġass":4203,"ĠDiv":4204,"ĠArn":4205,"559":4206,"school":4207,"schappij":4208,"ubishi":4209,"ijnlijk":4210,"ĠHolland":4211,"-.":4212,"Ġwijze":4213,"Ġouders":4214,"lei":4215,"194":4216,"Ġvis":4217,"ĠÆĴl":4218,"238":4219,"384":4220,"ini":4221,"Ġverdien":4222,"172":4223,"Ġdezelfde":4224,"VO":4225,"050":4226,"Ġbellen":4227,"ijfers":4228,"ĠKro":4229,"Ġdaarbij":4230,"Ġvoorkomen":4231,"Ġgroter":4232,"Ġcult":4233,"orec":4234,"ukk":4235,"243":4236,"orie":4237,"Ġbereid":4238,"467":4239,"294":4240,"Ġdgn":4241,"Â§":4242,"ĠAC":4243,"333":4244,"ose":4245,"ichten":4246,"Ġpa":4247,"252":4248,"time":4249,"453":4250,"289":4251,"278":4252,"162":4253,"354":4254,"okk":4255,"eenkomst":4256,"tegenwoord":4257,"vie":4258,"ash":4259,"Ġprovincie":4260,"daten":4261,"198":4262,"Ġgebeur":4263,"UWARDEN":4264,"Ġveer":4265,"lasse":4266,"Ġrekening":4267,"nummer":4268,"ĠGeen":4269,"ĠBest":4270,"kort":4271,"Ġverkiez":4272,"766":4273,"ĠRuss":4274,"048":4275,"074":4276,"564":4277,"257":4278,"cte":4279,"Ġ#":4280,"schouw":4281,"Ġiedere":4282,"Ġdiep":4283,"teen":4284,"458":4285,"163":4286,"matig":4287,"254":4288,"Ġkra":4289,"ĠME":4290,"Ġmogelijkheden":4291,"397":4292,"Ġsol":4293,"Ġbi":4294,"Ġplaatsvinden":4295,"ĠBank":4296,"ĠGLX":4297,"Ġ109":4298,"875":4299,"blijven":4300,"Ġreed":4301,"Ġstereo":4302,"oes":4303,"ĠBuiten":4304,"gere":4305,"Ġmerken":4306,"Ġoverigens":4307,"363":4308,"253":4309,"ĠAlleen":4310,"242":4311,"ĠHotel":4312,"aalt":4313,"474":4314,"Ġjongens":4315,"473":4316,"Ġeigenlijk":4317,"ĠEG":4318,"Ġimp":4319,"ueel":4320,"Ġbetreft":4321,"ĠChrist":4322,"389":4323,"865":4324,"Ġ035":4325,"stuk":4326,"189":4327,"gemeester":4328,"Ġregen":4329,"365":4330,"icatie":4331,"Ġ)":4332,"wege":4333,"Ġpk":4334,"NV":4335,"Ġbung":4336,"Ġkg":4337,"Ġwaarop":4338,"cont":4339,"Ġprobleem":4340,"Ġeconomische":4341,"393":4342,"Ġspeelt":4343,"191":4344,"897":4345,"Ġamro":4346,"370":4347,".;":4348,"||":4349,"558":4350,"494":4351,"062":4352,"roepen":4353,"water":4354,"yk":4355,"067":4356,"Ġwensen":4357,"Ġvrije":4358,"Ġvide":4359,"Ġverv":4360,"Ġpolitiek":4361,"879":4362,"Ġdeur":4363,"457":4364,"Ġern":4365,"Ġdaarmee":4366,"ĠBoer":4367,"ĠHenk":4368,"ĠFrankrijk":4369,"Ġgeweld":4370,"Ġ626":4371,"Ġgevangen":4372,"werpen":4373,"Ġ________":4374,"ĠStichting":4375,"ĠToen":4376,"agen":4377,"wedst":4378,"086":4379,"ĠNeder":4380,"Ã³r":4381,"leider":4382,"ĠNoor":4383,"Ġkampioen":4384,"Ġwerkt":4385,"079":4386,"360":4387,"alow":4388,"tl":4389,"KER":4390,"atiÃ«n":4391,"Ġtev":4392,"daan":4393,"wet":4394,"inks":4395,"oeien":4396,"druk":4397,"ĠVerk":4398,"Ġ046":4399,"Sch":4400,"bere":4401,"754":4402,"akantie":4403,"885":4404,"oude":4405,"Ġ750":4406,"Ġ113":4407,"279":4408,"Ġkilometer":4409,"ĠPet":4410,"Ġolie":4411,"Ġ108":4412,"459":4413,"ĠSittard":4414,"398":4415,"374":4416,"ĠBelgiÃ«":4417,"ĠMitsubishi":4418,"elling":4419,"att":4420,"ĠSuz":4421,"Ġbedrag":4422,"tier":4423,"ĠAssen":4424,"OE":4425,"ĠSpec":4426,"055":4427,"Ġfeest":4428,"ĠSal":4429,"ĠWol":4430,"akket":4431,"378":4432,"665":4433,"genoot":4434,"057":4435,"161":4436,"ĠTV":4437,"dorp":4438,"288":4439,"reekt":4440,"075":4441,"443":4442,"Ġdro":4443,"Ġaandelen":4444,"Ġslag":4445,"Ġtrain":4446,"Ġverzeker":4447,"oelen":4448,"Ġontvang":4449,"Ġbegint":4450,"Ġcollega":4451,"063":4452,"284":4453,"016":4454,"rieven":4455,"stru":4456,"182":4457,"Ġleuke":4458,"va":4459,"Ġgezell":4460,"Ġaangeboden":4461,"ote":4462,"Ġ240":4463,"Ġkie":4464,"ANP":4465,"ield":4466,"hel":4467,"ministratie":4468,"ĠABS":4469,"ossing":4470,"Ġschrij":4471,"Ġuitgebre":4472,"aarten":4473,"ĠOl":4474,"Ġdrs":4475,"Ġkoff":4476,"Ġ130":4477,"afÃ©":4478,"ĠHE":4479,"299":4480,"akkelijk":4481,"cten":4482,"Ġverband":4483,"Ġslot":4484,"ng":4485,"test":4486,"Ġgebracht":4487,"Ġniveau":4488,"444":4489,"358":4490,"bbers":4491,"ino":4492,"Ġtaal":4493,"sma":4494,"adres":4495,"isser":4496,"erkt":4497,"Ġ116":4498,"045":4499,"ĠSedan":4500,"OC":4501,"oging":4502,"*.":4503,"HH":4504,"ĠOranje":4505,"gesteld":4506,"ĠWereld":4507,"ĠMos":4508,"ĠKe":4509,"ĠABN":4510,"sluitend":4511,"049":4512,"ĠInternation":4513,"880":4514,"rong":4515,"Ġzin":4516,"Ġtitel":4517,"SA":4518,"488":4519,"287":4520,"224":4521,"ĠTD":4522,"ERC":4523,"Ġstraf":4524,"399":4525,"abel":4526,"Ġkracht":4527,"259":4528,"ĠCab":4529,"Ġkijken":4530,"yd":4531,"0108606":4532,"Ġcir":4533,"390":4534,"174":4535,"Ġnamen":4536,"âĸłâĸłâĸłâĸł":4537,"!!!":4538,"037":4539,"Ġsprake":4540,"767":4541,"Ġvoorbeeld":4542,"rt":4543,"eef":4544,"Te":4545,"323":4546,"Ġdagelijks":4547,"regelen":4548,"ĠAlfa":4549,"UUR":4550,"ĠDer":4551,"ĠKerkrade":4552,"vt":4553,"teel":4554,"oorten":4555,"ĠNE":4556,"urende":4557,"eide":4558,"*\"\"":4559,"uki":4560,"ĠAnt":4561,"Ġster":4562,"grond":4563,"765":4564,"Ġsamenwerking":4565,"Ġplannen":4566,"Ġidee":4567,"itair":4568,"249":4569,"titie":4570,"ĠSier":4571,"iemand":4572,"379":4573,"0106415":4574,"Ġgede":4575,"Ġ340":4576,"777":4577,"Ġsociale":4578,"Ġechte":4579,"Ġcentr":4580,"027":4581,"Ġbetekent":4582,"Ġ350":4583,"069":4584,"383":4585,"feren":4586,"Ġgezegd":4587,"054":4588,"ĠSur":4589,"554":4590,"Ġhoger":4591,"Ġtwintig":4592,"wi":4593,"anje":4594,"0002":4595,"060":4596,"oegen":4597,"367":4598,"ĠGOLF":4599,"140":4600,"Ġ175":4601,"364":4602,"rab":4603,"tic":4604,"Ġbesloten":4605,"iiii":4606,"ĠVerder":4607,"ours":4608,"094":4609,"866":4610,"Ġhalen":4611,"101":4612,"ĠSuper":4613,"Ġvoel":4614,"293":4615,"ĠPat":4616,"Ġbevol":4617,"059":4618,"Ġdonker":4619,"kerk":4620,"lijden":4621,"wagens":4622,"ĠBinnen":4623,"Ġontwikkeling":4624,"hang":4625,"0106450":4626,"ĠRaad":4627,"gew":4628,"Ġscha":4629,"ĠSL":4630,"065":4631,"tijk":4632,"agesschau":4633,"aalf":4634,"treden":4635,"Ġ1984":4636,"Ġsub":4637,"452":4638,"oar":4639,"Ġspelers":4640,"ĠMag":4641,"HUIS":4642,"Ã³Ã³r":4643,"552":4644,"ĠPort":4645,"tens":4646,"373":4647,"Ġlive":4648,"hout":4649,"ournal":4650,"342":4651,"077":4652,"131":4653,"loos":4654,"778":4655,"ĠComp":4656,"Ġdenk":4657,"park":4658,"Ġent":4659,"368":4660,"Ġgetint":4661,"Ġuitv":4662,"Ġpass":4663,"ĠBouw":4664,"gadering":4665,"TEN":4666,"025":4667,"ĠgeÃ¯n":4668,"Ġgeldt":4669,"Ġleder":4670,"ipl":4671,"gelijke":4672,"Ġveren":4673,"Ġwanneer":4674,"0108596":4675,"560":4676,"Ġwind":4677,"oleren":4678,"Ġwaardoor":4679,"Ġleuk":4680,"Ġkaart":4681,"ĠHeu":4682,"Ġverra":4683,"Ġsoms":4684,"867":4685,"899":4686,"kw":4687,"Ġmeld":4688,"RACHT":4689,"Ġbeetje":4690,"394":4691,"ĠAv":4692,"015":4693,"Ġplus":4694,"Ġschilder":4695,"pleeg":4696,"gebouw":4697,"561":4698,"Ġbezit":4699,"298":4700,"352":4701,"231":4702,"463":4703,"087":4704,"ĠGE":4705,"igers":4706,"aans":4707,"334":4708,"Ġabn":4709,"451":4710,"668":4711,"895":4712,"Ġservice":4713,"UD":4714,"iler":4715,"372":4716,"cert":4717,"sm":4718,"357":4719,"STE":4720,"ĠHaarlem":4721,"099":4722,"tief":4723,"rom":4724,"ilen":4725,"272":4726,"igt":4727,"grijs":4728,"759":4729,"/'":4730,"reet":4731,"509":4732,"verh":4733,"Ġleger":4734,"Ġslachtoff":4735,"scheid":4736,"ĠLi":4737,"097":4738,"door":4739,"Ġ140":4740,"ĠSC":4741,"wegen":4742,"voc":4743,"Ġbuitenlandse":4744,"Ġinruil":4745,"ike":4746,"ĠFr":4747,"OOO":4748,"Ġbelangstelling":4749,"fort":4750,"ĠZaken":4751,"'-":4752,"061":4753,"sex":4754,"ĠTagesschau":4755,"Ġvolledig":4756,"479":4757,"Ġmedewerkers":4758,"Ġzomer":4759,"761":4760,"551":4761,"houder":4762,"ĠComm":4763,"arder":4764,"Ġstelt":4765,"gegaan":4766,"869":4767,"271":4768,"Ġbelangrijke":4769,"hankelijk":4770,"Ġstraat":4771,"0108604":4772,"758":4773,"040":4774,"Ġlan":4775,"283":4776,"Â®":4777,"181":4778,"Ġname":4779,"rn":4780,"Ġgroe":4781,"Ġhebt":4782,"oupÃ©":4783,"BURG":4784,"760":4785,"ĠPas":4786,"Ġklaar":4787,"houders":4788,"877":4789,"ĠHuis":4790,"915":4791,"Ġnabij":4792,"uurd":4793,"663":4794,"Ġjongeren":4795,"Ġzorgen":4796,"Ġverdw":4797,"ĠHil":4798,"VEN":4799,"ĠÃľ":4800,"332":4801,"035":4802,"Ġkol":4803,"gers":4804,"oeder":4805,"043":4806,"tif":4807,"Ġred":4808,"Ġrustig":4809,"ORD":4810,"Ġrijk":4811,"Ġliefst":4812,"elk":4813,"alle":4814,"ĠWim":4815,"Ġrichten":4816,"itaire":4817,"wijf":4818,"Ġdorp":4819,"ival":4820,"BA":4821,"281":4822,"hoek":4823,"Volgens":4824,"Ġ123":4825,"_.":4826,"Ġ1600":4827,"854":4828,"ĠVert":4829,"096":4830,"Ġ1500":4831,"Ġ117":4832,"343":4833,"262":4834,"organisatie":4835,"Ġ]":4836,"Ġgehad":4837,"atten":4838,"ĠKn":4839,"Ġtevens":4840,"sych":4841,"Ġapart":4842,"Ġevent":4843,"acties":4844,"ora":4845,"Ã¨re":4846,"Ġgezond":4847,"punten":4848,"Ġbleef":4849,"Ġaanw":4850,"868":4851,"Ġlag":4852,"071":4853,"Ġliter":4854,"fr":4855,"FF":4856,"Ġcondoleren":4857,"ĠPri":4858,"0100":4859,"0106422":4860,"Ġbuurt":4861,"764":4862,"Ġimm":4863,"ĠâĦ¢":4864,"083":4865,"369":4866,"oofd":4867,"udio":4868,"ĠBu":4869,"VR":4870,"ĠGor":4871,"dan":4872,"_^":4873,"662":4874,"Ġzodat":4875,"ah":4876,"Ġopdracht":4877,"ĠBE":4878,"partij":4879,"382":4880,"ĠAD":4881,"dealer":4882,"Ġwaarmee":4883,"'t":4884,"Ġbehoe":4885,"ATER":4886,"774":4887,"Ġoper":4888,"Ġsuper":4889,"dijk":4890,"EDRIJ":4891,"Ġdaarvan":4892,"Ġmiddag":4893,"Ġanderen":4894,"cties":4895,"nw":4896,"666":4897,"beleid":4898,"Ġregio":4899,"Ġact":4900,"Ġ119":4901,"bestuur":4902,"ique":4903,"ĠIS":4904,"apen":4905,"464":4906,"469":4907,"Ġlaag":4908,"oze":4909,"Ġproduktie":4910,"Ġadvies":4911,"Ġcommun":4912,"Ġsfeer":4913,"plein":4914,"Ġbelasting":4915,"ĠEindhoven":4916,"056":4917,"Ġbeginnen":4918,"ĠAAN":4919,"ĠSierra":4920,"Ġnauwelijks":4921,"058":4922,"Ġ118":4923,"Ġovert":4924,"Ġgevallen":4925,"Ġsh":4926,"Ġpop":4927,"*'":4928,"AI":4929,"mogelijk":4930,"860":4931,"Ġwerknemers":4932,"ĠFriese":4933,"044":4934,"095":4935,"oorlog":4936,"Ġvoormalige":4937,"Ġbeschouw":4938,"jan":4939,"353":4940,"Ġpremier":4941,"Ġgevoel":4942,"462":4943,"air":4944,"tim":4945,"241":4946,"359":4947,"Ġhete":4948,"Ġve":4949,"rd":4950,"ĠMul":4951,"171":4952,"Af":4953,"ĠKoop":4954,"960":4955,"dige":4956,"Ġlet":4957,"BE":4958,"iversiteit":4959,"ĠBR":4960,"^'":4961,"geld":4962,"076":4963,"031":4964,"sid":4965,"858":4966,"ĠSneek":4967,"ĠBritse":4968,"kers":4969,"763":4970,"Ġval":4971,"Ġafspraak":4972,"voorzitter":4973,"tes":4974,"Ġredactie":4975,"delingen":4976,"ius":4977,"Ġgevaar":4978,"magazine":4979,"Ġbesluit":4980,"578":4981,"ĠBrun":4982,"ions":4983,"iam":4984,"Ġ127":4985,"ĠFam":4986,"reep":4987,"eep":4988,"072":4989,"887":4990,"verlen":4991,"Ġterrein":4992,"084":4993,"gebracht":4994,"Ġrelatie":4995,"Ġbanden":4996,"762":4997,"772":4998,"ĠTro":4999,"Ġzie":5000,"ĠGal":5001,"Ġverhaal":5002,"ĠSuzuki":5003,"Ġtran":5004,"hous":5005,"Ġwoordvoerder":5006,"zijn":5007,"Ġonderhandel":5008,"Ġhoren":5009,"ake":5010,"ijer":5011,"Ġbegra":5012,"vorm":5013,"0108":5014,"888":5015,"ged":5016,"Ġheet":5017,"070":5018,"Ġtelefon":5019,"890":5020,"nis":5021,"hoog":5022,"0112394":5023,"nt":5024,"\"\"'":5025,"ĠDrent":5026,"ham":5027,"Ġrechter":5028,"999":5029,"lagen":5030,"282":5031,"ELEN":5032,"kantoor":5033,"090":5034,"Ġwest":5035,"300":5036,"022":5037,"ĠMAR":5038,"ĠBal":5039,"----":5040,"bber":5041,"Ġdoe":5042,"679":5043,"Ġcompleet":5044,"Ġwoorden":5045,"Ġresultaat":5046,"Ġvormen":5047,"047":5048,"akten":5049,"buro":5050,"Ġhoogste":5051,"Ġ129":5052,"ĠJAN":5053,"857":5054,"034":5055,"OW":5056,"zetten":5057,"Ġtrio":5058,"aste":5059,"rechter":5060,"-*":5061,"ĠOude":5062,"Ġervan":5063,"ĠPale":5064,"ĠWal":5065,"Ġhoofdst":5066,"ĠOlymp":5067,"021":5068,"HI":5069,"steun":5070,"ĠGratis":5071,"151":5072,"918":5073,"Ġtafel":5074,"Ġontstaan":5075,"Ġproject":5076,"Ġalgemeen":5077,"033":5078,"zame":5079,"441":5080,"Ġkorting":5081,"rika":5082,"073":5083,"Ġ122":5084,"iro":5085,"bby":5086,"470":5087,"gek":5088,"Ġvertegenwoord":5089,"Ġverlies":5090,"843":5091,"kosten":5092,"langs":5093,"achtig":5094,"ĠDon":5095,"ĠSPEUR":5096,"Ġkopen":5097,"Ġoverlijden":5098,"Ġzag":5099,"ĠHom":5100,"091":5101,"BS":5102,"ule":5103,"ĠTop":5104,"go":5105,"bes":5106,"Ġbereik":5107,"Ġvle":5108,"028":5109,"0106285":5110,"loer":5111,"883":5112,"stemming":5113,"Ġaantrek":5114,"ELS":5115,"ĠCuraca":5116,"hoe":5117,"916":5118,"ĠBet":5119,"ĠGel":5120,"752":5121,"Ġgang":5122,"ĠInruil":5123,"ĠUN":5124,"Ġkoel":5125,"ĠvÃ³Ã³r":5126,"stral":5127,"01069200":5128,"gave":5129,"stof":5130,"965":5131,"weging":5132,"Ġcorresponden":5133,"ĠKam":5134,"Ġzichzelf":5135,"863":5136,"velgen":5137,"0003":5138,"kampioen":5139,"Ġonderdelen":5140,"292":5141,"outen":5142,"093":5143,"ĠNV":5144,"matie":5145,"442":5146,"Ġgrens":5147,"Ġontw":5148,"iness":5149,"Ġ900":5150,"ĠPhilips":5151,"011":5152,"Ġweeke":5153,"wolkt":5154,"Met":5155,"Ġmot":5156,"Ġbadk":5157,"873":5158,"876":5159,"251":5160,"spraken":5161,"Ġlevens":5162,"STAD":5163,"ĠPe":5164,"917":5165,"umenten":5166,"Ġmater":5167,"ĠRep":5168,"ĠOnze":5169,"mi":5170,"Ġplaat":5171,"036":5172,"362":5173,"nn":5174,"Ġwachten":5175,"raagt":5176,"Ġlanger":5177,"Ġrichting":5178,"ĠWeer":5179,"Ġberoep":5180,"ĠHen":5181,"878":5182,"064":5183,"ĠBosch":5184,"Ġnamelijk":5185,"ukkig":5186,"agement":5187,"018":5188,"rood":5189,"Ġ145":5190,"ĠBol":5191,"inf":5192,"Ġhonderd":5193,"Ġby":5194,"326":5195,"ĠZeer":5196,"^-":5197,"VC":5198,"iedenis":5199,"026":5200,"?\"\"":5201,"appen":5202,"Ġtent":5203,"894":5204,"Ġkonden":5205,"oter":5206,"ulier":5207,"AAT":5208,"Ġ124":5209,"Ġcommissie":5210,"468":5211,"petitie":5212,"KEN":5213,"fenis":5214,"ĠRome":5215,"Ġloopt":5216,"ocra":5217,"ooral":5218,"ĠTR":5219,"ussel":5220,"eeld":5221,"078":5222,"alm":5223,"0105":5224,"ĠVandaag":5225,"Ġwed":5226,"052":5227,"ĠInformatie":5228,"Ġ128":5229,"acar":5230,"ozen":5231,"029":5232,"753":5233,"089":5234,"ASS":5235,"141":5236,"657":5237,"046":5238,"Ġbekende":5239,"482":5240,"Ġlijn":5241,"Ġkoppel":5242,"Ġtwaalf":5243,"ĠVeel":5244,"Ã©Ã©":5245,"bedrijven":5246,"Ġ280":5247,"CO":5248,"horen":5249,"estival":5250,"dire":5251,"Ġmisschien":5252,"0004":5253,"Ġcommerc":5254,"ĠGroep":5255,"ĠTen":5256,"ogen":5257,"Ġmeteen":5258,"ront":5259,"ĠMET":5260,"pol":5261,"rust":5262,"ball":5263,"081":5264,"ĠMaas":5265,"maken":5266,"Ġbeschikbaar":5267,"Ġdaarvoor":5268,"Ġwaarde":5269,"024":5270,"Ġvolgend":5271,"ract":5272,"Ġbege":5273,"Ġstation":5274,"371":5275,"atch":5276,"914":5277,"098":5278,"Ġgebruikte":5279,"Ġdingen":5280,"BI":5281,"Na":5282,"0104":5283,"ci":5284,"0101":5285,"Ġ160":5286,"ĠKra":5287,"Ġdcc":5288,"Ġund":5289,"Ġkeur":5290,"orten":5291,"inge":5292,"Ġstudenten":5293,"EMA":5294,"no":5295,"anning":5296,"ĠAUTOM":5297,"051":5298,"Ġvallen":5299,"isk":5300,"reg":5301,"ĠItaliÃ«":5302,"sproken":5303,"Ġwist":5304,"779":5305,"appar":5306,"Ġvoorz":5307,"ieur":5308,"______":5309,"uim":5310,"0102":5311,"Ġcl":5312,"472":5313,"Ġaanp":5314,"offen":5315,"Ġinger":5316,"913":5317,"Ġsche":5318,"Ġarm":5319,"017":5320,"Ġuitbre":5321,"Ġziekenhuis":5322,"Ġ033":5323,"Ġafstand":5324,"ĠCap":5325,"Ġpartic":5326,",--":5327,"997":5328,"853":5329,"481":5330,"Ġwo":5331,"vertenties":5332,"654":5333,"ley":5334,"pens":5335,"Ã¼n":5336,"oepen":5337,"Ġ044":5338,"EDRIJF":5339,"659":5340,"773":5341,"884":5342,"ĠSan":5343,"Ġ210":5344,"orme":5345,"Ġ405":5346,"Ġafscheid":5347,"Ġ126":5348,"Ġgekregen":5349,"Ġonbewolkt":5350,"mel":5351,"Ġlich":5352,"Ġmod":5353,"md":5354,"resentatie":5355,"jecten":5356,"Ġwacht":5357,"Ġzn":5358,"Ġvoldoende":5359,"boom":5360,"Ġbovendien":5361,"Ġenthous":5362,"Ġpagina":5363,"ĠSche":5364,"Ġgast":5365,"Ġwinn":5366,"Ġdenkt":5367,"Ġwol":5368,"ADETT":5369,"Ġkwal":5370,"Ġmogelijkheid":5371,"SL":5372,"ms":5373,"Ġprec":5374,"oenen":5375,"0111":5376,"667":5377,"Ġzoon":5378,"ĠOosten":5379,"092":5380,"ĠKO":5381,"KE":5382,"ĠANWB":5383,"889":5384,"Ġdocument":5385,"uizenden":5386,"atorium":5387,"vloed":5388,"Ġnationale":5389,"Ġvervolgens":5390,"042":5391,"lein":5392,"461":5393,"ove":5394,"techn":5395,"ĠDav":5396,"omenteel":5397,"eerden":5398,"Ġverde":5399,"ĠWorld":5400,"0103":5401,"Ġleiden":5402,"Ġbegonnen":5403,"Ġouder":5404,",'":5405,"Ġmoderne":5406,"rieken":5407,"Ġvoorkeur":5408,"unda":5409,"053":5410,"Ġrechts":5411,"oorde":5412,"ĠBi":5413,"foon":5414,"Ġkijk":5415,"sb":5416,"gemaakt":5417,"ĠOoster":5418,"Ġwonen":5419,"Ġzak":5420,"01101994":5421,"Ġconcur":5422,"ĠNews":5423,"aker":5424,"lid":5425,"082":5426,"schrift":5427,"tree":5428,"ĠLE":5429,"Ġft":5430,"Ġir":5431,"Ġbon":5432,"Ġmeub":5433,"\"\"-\"\"":5434,"Ġeigenaar":5435,"ĠDa":5436,"261":5437,"ĠChar":5438,"mond":5439,"ls":5440,"669":5441,"Ġspecial":5442,"ĠAmro":5443,"AAL":5444,"Ġslaapkamers":5445,"859":5446,"Ġvlak":5447,"769":5448,"Ġnieuwstaat":5449,"Ġinb":5450,"351":5451,"Ġleren":5452,"jax":5453,"Ġschuifdak":5454,"ingel":5455,"Ġpi":5456,"undige":5457,"daal":5458,"Ġ800":5459,"Ġren":5460,"ILLEM":5461,"ĠMal":5462,"0107":5463,"ARD":5464,"01064600":5465,"381":5466,"DERLAND":5467,"beurs":5468,"Ġvoorsp":5469,"ĠLive":5470,"Ġbevolking":5471,"Ġdirectie":5472,"0005":5473,"ĠKla":5474,"0117":5475,"898":5476,"ucht":5477,"032":5478,"veil":5479,"Ġgeschikt":5480,"Ġtelevisie":5481,"ĠKADETT":5482,"ants":5483,"Ġbu":5484,"last":5485,"324":5486,"ĠTO":5487,"Ġgezet":5488,"ĠDEN":5489,"Ġpsych":5490,"ĠCal":5491,"GA":5492,"460":5493,"//":5494,"opig":5495,"top":5496,"inne":5497,"Ġwaarna":5498,"Ġges":5499,"oest":5500,"874":5501,"Ġrapport":5502,"Ġvere":5503,"Je":5504,"966":5505,"967":5506,"ĠLet":5507,"ĠWar":5508,"aien":5509,"Br":5510,"ĠKok":5511,"AVO":5512,"023":5513,"wachten":5514,"Ġopp":5515,"ĠCabrio":5516,"llll":5517,"Ġveld":5518,"Ġboeken":5519,"Ġstil":5520,"Bel":5521,"zw":5522,"Ġgisteravond":5523,"Ġdelen":5524,"cpm":5525,"ima":5526,"400":5527,"otsel":5528,"Ġ\"\"\"\"":5529,"will":5530,"Ġ1200":5531,"Ġrijden":5532,"Ġveiligheid":5533,"Ġdirekt":5534,"Ġgroei":5535,"ses":5536,"Ġweekeinde":5537,"iten":5538,"Ġvuur":5539,"ace":5540,"Ġagen":5541,"ĠSGR":5542,"Ġtegenover":5543,"woning":5544,"653":5545,"Ġvn":5546,"Ġobl":5547,"ĠBru":5548,"uze":5549,"Wij":5550,"stein":5551,"ĠChe":5552,"chtigheid":5553,"ĠpatiÃ«n":5554,"ĠHu":5555,"Ġbron":5556,"ĠJO":5557,"ferentie":5558,"Ġeiland":5559,"ĠAp":5560,"013":5561,"Ġmagazine":5562,"864":5563,"Ġtrouw":5564,"Ġdik":5565,"ĠSchool":5566,"ietsen":5567,"038":5568,"ict":5569,"Ġhoofdstad":5570,"Ġjur":5571,"Ġbeleg":5572,"Ġkat":5573,"ĠMerc":5574,"ĠRussische":5575,"Bij":5576,"ĠWE":5577,"elt":5578,"agne":5579,"Ġonderh":5580,"ranten":5581,"ĠAMSTERDAM":5582,"968":5583,"IET":5584,"Ġvliegt":5585,"vert":5586,"Ġvind":5587,"erland":5588,"ĠSj":5589,"ĠAustral":5590,"0106442":5591,"Ġdiscuss":5592,"471":5593,"nl":5594,"tels":5595,"0114":5596,"ARA":5597,"Ġta":5598,"014":5599,"ergie":5600,"ĠHoek":5601,"0104722":5602,"ĠAmerika":5603,"Ġeet":5604,"Ġbrengt":5605,"Ġband":5606,"ĠRom":5607,"ĠMERC":5608,"AU":5609,"Ġreeds":5610,"Ġgpm":5611,"po":5612,"lopen":5613,"ĠWater":5614,"AMP":5615,"Ġtekst":5616,"0121":5617,"RV":5618,"322":5619,"Ġim":5620,"0122":5621,"oegos":5622,"ĠKa":5623,"ĠAt":5624,"664":5625,"0125":5626,"Ġbestaande":5627,"fens":5628,"0120":5629,"oden":5630,"Ġnorma":5631,"0119":5632,"Ġzware":5633,"0123":5634,"ssum":5635,"Ġwerkzaamheden":5636,"0144":5637,"ony":5638,"vestigd":5639,"Ġph":5640,"Ġvierde":5641,"Ġvlieg":5642,"Ġ1983":5643,"Ġindruk":5644,"0126":5645,"ense":5646,"uster":5647,"verd":5648,"Ġ325":5649,"ĠMad":5650,"ĠMidden":5651,".),":5652,"0006":5653,"ĠCuracao":5654,"ĠPalest":5655,"0124":5656,"Ġvrijwel":5657,"Ġweekend":5658,"Ġmoesten":5659,"Ġlast":5660,"Ge":5661,"660":5662,"881":5663,"893":5664,"ĠWerk":5665,"Ġpraten":5666,"Ġtur":5667,"0115":5668,"ĠLuxe":5669,"kest":5670,"ĠToch":5671,"0116":5672,"Ġuiteindelijk":5673,"ppen":5674,"872":5675,"Ġooit":5676,"ity":5677,"âĺħ":5678,"0118":5679,"ĠCamp":5680,"921":5681,"stal":5682,"halve":5683,"ĠCont":5684,"Ġbepaalde":5685,"ĠApp":5686,"Ġgemiddel":5687,"651":5688,"Ġstichting":5689,"Ġverzoek":5690,"Ġuitvoering":5691,"chtel":5692,"Ġzwarte":5693,"ĠNog":5694,"cretaris":5695,"0128":5696,"0112":5697,"erste":5698,"Ġbegon":5699,"ish":5700,"olu":5701,"ĠVen":5702,"039":5703,"Ġjaarlijk":5704,"wijt":5705,"Ġgevonden":5706,"Ġoptreden":5707,"ĠKLM":5708,"week":5709,"571":5710,"CT":5711,"0141":5712,"Ġbegrafenis":5713,"opt":5714,"0136":5715,"ĠBosn":5716,"volle":5717,"0113":5718,"ode":5719,"Ġoplossing":5720,"Ġhelpen":5721,"ANS":5722,"0140":5723,"schrij":5724,"ales":5725,"Ġ230":5726,"ĠGroninger":5727,"Ġ139":5728,"Ġroy":5729,"Ġlichte":5730,"sje":5731,"Ġcomputer":5732,"0133":5733,"An":5734,"Ġorde":5735,"Ġdochter":5736,"ĠAmsterdamse":5737,"ogel":5738,"ĠHeute":5739,"qui":5740,"Ġ180":5741,"Ġeconomie":5742,"Ġdipl":5743,"The":5744,"0135":5745,"Ġjustitie":5746,"maak":5747,"ringen":5748,"okken":5749,"ruiken":5750,"0150":5751,"aliteiten":5752,"963":5753,"ĠÃ¨":5754,"341":5755,"Ġafloop":5756,"0127":5757,"ĠPrivÃ©":5758,"0129":5759,"0139":5760,"011020":5761,"0138":5762,"Ġleggen":5763,"Ġontmoet":5764,"Ġhalve":5765,"0130":5766,"ĠRoo":5767,"UB":5768,"chure":5769,"Ġbeurs":5770,"anta":5771,"Ġautomaat":5772,"Ġadvis":5773,"Ġbelangrijkste":5774,"969":5775,"Ġ225":5776,"Ġ307":5777,"JES":5778,"ĠGS":5779,"0137":5780,"012":5781,"erden":5782,"0134":5783,"0147":5784,"riet":5785,"Ġovereen":5786,"houding":5787,"ĠRob":5788,"964":5789,"INA":5790,"ĠBER":5791,"Ġbadkamer":5792,"ĠSk":5793,"daagse":5794,"0106452":5795,"Ġris":5796,"998":5797,"Ġstuks":5798,"ĠJer":5799,"Ġmoeite":5800,"rimin":5801,"ĠPresentatie":5802,"ĠZondag":5803,"mis":5804,"Ġaanzien":5805,"ĠMartin":5806,"Ġsele":5807,"delige":5808,"Ġsier":5809,"VE":5810,"zers":5811,"Ġniemand":5812,"son":5813,"832":5814,"Ġwaarschijnlijk":5815,"Ġloon":5816,"ĠWester":5817,"Ġdieren":5818,"ĠSpeur":5819,"0131":5820,"orde":5821,"Ġmaatregelen":5822,"deelte":5823,"Ġschuifd":5824,"Ook":5825,"ĠRij":5826,"ures":5827,"mb":5828,"bewijs":5829,"Be":5830,"Ver":5831,"opleiding":5832,"Ġgram":5833,"laatst":5834,"Ġakk":5835,"Ġverleden":5836,"Ġport":5837,"0145":5838,"ka":5839,"0146":5840,"ĠHET":5841,"schade":5842,"Ġburgemeester":5843,"0132":5844,"ĠNatuur":5845,"Ġherinn":5846,"Ġbedoel":5847,"box":5848,"0143":5849,"ĠESC":5850,"Ġvolgen":5851,"oreca":5852,"ATIE":5853,"ges":5854,"0142":5855,"ĠLaat":5856,"Ġstudie":5857,"ĠTijdens":5858,"honderd":5859,"rad":5860,"ĠDaarom":5861,"Ġhyp":5862,"Ġeveneens":5863,"0152":5864,"Ġkerst":5865,"ĠCentrum":5866,"0149":5867,"by":5868,"iÃ«rs":5869,"Ġbloed":5870,"Ġrug":5871,"361":5872,"iks":5873,"ket":5874,"Ġantrac":5875,"Ġwelkom":5876,"ĠRus":5877,"klasse":5878,"0151":5879,"ĠTim":5880,"ĠHoll":5881,"ĠAutomaat":5882,"Ġtrekken":5883,"fab":5884,"Ġverp":5885,"dd":5886,"Ġwedstrijden":5887,"Ġdubbel":5888,"0148":5889,"Ġaccess":5890,"Ġonderhoud":5891,"dur":5892,"0155":5893,"Ġplek":5894,"IST":5895,"mogen":5896,"221":5897,"Ġ137":5898,"ĠRes":5899,"ĠÂ§":5900,"ĠGTi":5901,"ĠSam":5902,"Ġcontrole":5903,"vereniging":5904,"ĠGere":5905,"cass":5906,"Ġhoek":5907,"ones":5908,"0154":5909,"ctuur":5910,"ĠGu":5911,"\"\"-":5912,"wissel":5913,"usic":5914,"Ġvoeren":5915,"atte":5916,"Ġvooruit":5917,"ĠGroen":5918,"ersen":5919,"ific":5920,"ĠRec":5921,"Ġvergelijk":5922,"Duit":5923,"chtend":5924,"Ġvervoer":5925,"Ġavonds":5926,"ĠRK":5927,"0153":5928,"Ġwilt":5929,"orter":5930,"Ġspeciaal":5931,"Ġwitte":5932,"Ġcab":5933,"Ġgemeen":5934,"Ġ071":5935,"oond":5936,"ĠCan":5937,"ĠZwolle":5938,"Ġgener":5939,"Ġverlen":5940,"Ġvolk":5941,"Ġsysteem":5942,"0156":5943,"Ġmaal":5944,"aus":5945,"rijpen":5946,"Ġtr":5947,"Ġiniti":5948,"winning":5949,"ild":5950,"chen":5951,"ĠRos":5952,"Ġbewon":5953,"Ġsollicitatie":5954,"Ġeisen":5955,"Ġmevrouw":5956,"Ġprecies":5957,"574":5958,"gaande":5959,"Ġkamp":5960,"Ġactiviteiten":5961,",.":5962,"Ġverkopen":5963,"ĠDagblad":5964,"ĠCro":5965,"ologie":5966,"ĠHend":5967,"^.":5968,"leed":5969,"Ġ155":5970,"ĠGoed":5971,"Ġeenv":5972,"ĠZee":5973,"0096":5974,"Ġuitgevoerd":5975,"Ġwoningen":5976,"overzicht":5977,"onk":5978,"atis":5979,"ĠEEN":5980,"Ġadvertentie":5981,"Ġfil":5982,"882":5983,"Ġjj":5984,"~~":5985,"erschap":5986,"Ġ085":5987,"0157":5988,"Ġschip":5989,"lt":5990,"ĠAc":5991,"div":5992,"OST":5993,"ĠEg":5994,"ĠParijs":5995,"Ġalgemene":5996,"Ġvoed":5997,"woners":5998,"Ġcorp":5999,"ĠBoys":6000,"ĠJos":6001,"ĠInt":6002,"ĠOnt":6003,"ĠLX":6004,"862":6005,"0158":6006,"TO":6007,"Ġ_____":6008,"RECHT":6009,"Ġonaf":6010,"Ġzet":6011,"Ġbetaling":6012,"velop":6013,"binatie":6014,"ĠCOR":6015,"ĠJohan":6016,"ni":6017,"ĠHam":6018,"ots":6019,"akter":6020,"streeks":6021,"0099":6022,"Ġstacar":6023,"Ġverklaarde":6024,"Ġallerlei":6025,"Ġsalaris":6026,"uf":6027,"0159":6028,"Ġongel":6029,"kou":6030,"Ġspreken":6031,"ELL":6032,"ĠAK":6033,"041":6034,"Ġ072":6035,"net":6036,"ĠUIT":6037,"Ġbesliss":6038,"kast":6039,"Ġervaren":6040,"ICHT":6041,"Ġinl":6042,"Ġdel":6043,"idaten":6044,"Ġklass":6045,"ĠGev":6046,"zier":6047,"0097":6048,"ĠGez":6049,"0160":6050,"Ġ195":6051,"Ġantwoord":6052,"0095":6053,"Ġdertig":6054,"0098":6055,"km":6056,"ANK":6057,"Ġaandeel":6058,"ĠFund":6059,"Ġdrug":6060,"Ġverkrij":6061,"ieding":6062,"INE":6063,"678":6064,"Ġlog":6065,"0200":6066,"ommige":6067,"tieve":6068,"kelijke":6069,"CE":6070,"ith":6071,"943":6072,"reef":6073,"stelde":6074,"Ġsoorten":6075,"0163":6076,"Ġ136":6077,"573":6078,"ole":6079,"ĠEmmen":6080,"ĠTRO":6081,"Ġvreem":6082,"TTER":6083,"eling":6084,"ĠEL":6085,"870":6086,"Ġonlangs":6087,"Ġzolder":6088,"okker":6089,"0094":6090,"beek":6091,"BR":6092,"Ġ1300":6093,"ĠTHE":6094,"lam":6095,"ced":6096,"ĠCoupÃ©":6097,"ZE":6098,"Ġspiegels":6099,"TA":6100,"0170":6101,"ANN":6102,"idsrechter":6103,"0090":6104,"Ġbungalow":6105,"Ġmening":6106,"ĠHEER":6107,"Ġdient":6108,"ĠJoegos":6109,"Ġadministratie":6110,"Ġappar":6111,"Ġwith":6112,"ISS":6113,"Ġpresent":6114,"0162":6115,"wedstrijd":6116,"Ġml":6117,"Ġcomed":6118,"ĠArnhem":6119,"ERV":6120,"voet":6121,"0161":6122,"ĠIrak":6123,"ĠESCORT":6124,"Ġboot":6125,"Ġenorme":6126,"Ġjij":6127,"resident":6128,"Ġbetrek":6129,"omp":6130,"Ġcijfers":6131,"boot":6132,"Ġ185":6133,"ero":6134,"ĠBur":6135,"Ġverpl":6136,"Ġgeloof":6137,"Ġpraktijk":6138,"Ġontv":6139,"Ġ700":6140,"imum":6141,"ĠMakel":6142,"Ġverkiezingen":6143,"ĠVraagprijs":6144,"toe":6145,"iem":6146,"Ġvoordeel":6147,"uwelijk":6148,"mmm":6149,"ĠTour":6150,"0166":6151,"Ġlot":6152,"0093":6153,"ĠMr":6154,"EDES":6155,"Ġ450":6156,"Ġverloren":6157,"UK":6158,"ĠBrunssum":6159,"rijke":6160,"ĠZelf":6161,"Ġgemeenten":6162,"rop":6163,"Ġbezorg":6164,"Ġpens":6165,"0167":6166,"ĠHof":6167,"010642":6168,"ĠKN":6169,"ellen":6170,"kema":6171,"ĠPass":6172,"aie":6173,"652":6174,"ĠLonden":6175,"ĠAlles":6176,"658":6177,"ĠItaliaanse":6178,"gezet":6179,"ĠStand":6180,"gde":6181,"Ġcorrespondent":6182,"schouwers":6183,"0092":6184,"Ġgebeurt":6185,"Ġcentrale":6186,"ĠZaterdag":6187,"673":6188,"gl":6189,"ye":6190,"Ġopgenomen":6191,"0169":6192,"leidingen":6193,"Ġgoud":6194,"ĠGRA":6195,"LEE":6196,"âĢĶâĢĶâĢĶâĢĶ":6197,"ĠHOO":6198,"Ġcrem":6199,"Ġliefde":6200,"Ġapparte":6201,"pre":6202,"Ġ043":6203,"ĠBedrijf":6204,"oodse":6205,"zil":6206,"0091":6207,"674":6208,"orth":6209,"ĠMak":6210,"Ġarbeid":6211,"Ġ220":6212,"ĠNet":6213,"Ġheengegaan":6214,"AMSTERDAM":6215,"laard":6216,"ĠGre":6217,"ĠDrie":6218,"0087":6219,"ME":6220,"rieks":6221,"Ġsan":6222,"OG":6223,"Ġprodukten":6224,"Ġcc":6225,"0089":6226,"dert":6227,"bew":6228,"cil":6229,"957":6230,"01101990":6231,"0088":6232,"Ġgeest":6233,"Ġhield":6234,"0165":6235,"0164":6236,"ĠLEE":6237,"PA":6238,"ĠHun":6239,"cona":6240,"vall":6241,"oft":6242,"Ġff":6243,"Ġrepar":6244,"329":6245,"ĠSint":6246,"Ġstrand":6247,"daar":6248,"MER":6249,"Ġakkoord":6250,"ĠVOL":6251,"iano":6252,"ĠIt":6253,"Ġboe":6254,"parte":6255,"ĠVooral":6256,"ĠAss":6257,"ĠAntil":6258,"Ġ_^":6259,"ĠHan":6260,"Ġexpl":6261,"Ġarch":6262,"scha":6263,"Ġinteress":6264,"ĠSV":6265,"ĠHong":6266,"Ġrestaurant":6267,"Ġgegaan":6268,"Ġgebruiken":6269,"istri":6270,"ilj":6271,"ulen":6272,"IF":6273,"Ġ318":6274,"ĠHou":6275,"ward":6276,"572":6277,"ĠEinde":6278,"ĠKo":6279,"Ġhoeft":6280,"Ġonderz":6281,"ĠWill":6282,"Ġwerkelijk":6283,"Ġtrainer":6284,"Ġviel":6285,"Ġ05120":6286,"0080":6287,"Ġjuiste":6288,"0007":6289,"ĠMijn":6290,"0086":6291,"579":6292,"ĠEngels":6293,"schop":6294,"ĠPan":6295,"0085":6296,"Ġeffec":6297,"0174":6298,"waarde":6299,"Ġcoc":6300,"Ġ138":6301,"ĠFa":6302,"Ġharte":6303,"JJ":6304,"kon":6305,"ĠMuziek":6306,"ESS":6307,"0168":6308,"Ġcrematorium":6309,"Ġomg":6310,"anger":6311,"wolde":6312,"ram":6313,"Ġberg":6314,"0171":6315,"Ġeert":6316,"ĠShow":6317,"672":6318,"Ġâĸ":6319,"ĠSpanje":6320,"Ġvanwege":6321,"0084":6322,"cu":6323,"wereld":6324,"Ġserv":6325,"Ġ306":6326,"0172":6327,"Ġbouwen":6328,"Ġplotsel":6329,"ssel":6330,"hu":6331,"Ġblad":6332,"ĠBurg":6333,"0173":6334,"979":6335,"ĠZW":6336,"Ġnoem":6337,"press":6338,"Ġvoorbij":6339,"waren":6340,"0083":6341,"Ġleveren":6342,"Ġgemakkelijk":6343,"ĠPap":6344,"Ġdoven":6345,"671":6346,"Ġpast":6347,"Ġpe":6348,"ĠVel":6349,"ĠEngeland":6350,"ĠMoskou":6351,"0228":6352,"Ġmodellen":6353,"008":6354,"0175":6355,"Ġsterke":6356,"zin":6357,"Ġii":6358,"ĠRoy":6359,"Ġvoorstel":6360,"gest":6361,"0079":6362,"ĠBou":6363,"ession":6364,"reatie":6365,"Euro":6366,"ĠGoede":6367,"ĠEurop":6368,"fensie":6369,"ĠLes":6370,"Ġgraden":6371,"Ġspeelde":6372,"Ġgenoemd":6373,"Ġtijden":6374,"ooien":6375,"roon":6376,"annes":6377,"ijt":6378,"ĠRich":6379,"0177":6380,"Ġleider":6381,"ubliek":6382,"ĠPor":6383,"ĠHuur":6384,"Ġbereikt":6385,"0082":6386,"Ġaand":6387,"Ġgesla":6388,"0078":6389,"EREN":6390,"elder":6391,"RAAG":6392,"Sp":6393,"omin":6394,"eizen":6395,"Ġmomenteel":6396,"Ġ376":6397,"0176":6398,"kaart":6399,"ĠScha":6400,"ĠJapanse":6401,"was":6402,"0185":6403,"mmer":6404,"OED":6405,"Ġtotale":6406,"Ġ207":6407,"Ġcap":6408,"Ġdaard":6409,"Ġ149":6410,"Ġgekozen":6411,"briek":6412,"tern":6413,"yserie":6414,"Ġtax":6415,"Ġbak":6416,"0081":6417,"team":6418,"vat":6419,"okt":6420,"0075":6421,"Ġwint":6422,"ĠLanc":6423,"Ġvertelt":6424,"ĠAjax":6425,"aden":6426,"Ġgeschiedenis":6427,"Ġ***":6428,"ĠToe":6429,"teurs":6430,"loot":6431,"ĠDaarnaast":6432,"Ġelf":6433,"wn":6434,"852":6435,"ĠBert":6436,"roffen":6437,"ĠGeleen":6438,"0077":6439,"\"\"*":6440,"Ġ02159":6441,"?\"":6442,"Ġopger":6443,"Ġkritiek":6444,"ĠAir":6445,"ĠAA":6446,"uters":6447,"issaris":6448,"ĠJans":6449,"ĠHal":6450,"Ġ133":6451,"Ġonders":6452,"Ġneg":6453,"agd":6454,"Ġpersoonlijk":6455,"riÃ«":6456,"871":6457,"Ġ308":6458,"Ġhoeveel":6459,"MB":6460,"Ġmacht":6461,"Ġnot":6462,"Ġopgeven":6463,"Ġstof":6464,"ĠTurk":6465,"Ġcontract":6466,"itte":6467,"ĠBelgische":6468,"001":6469,"ĠNederlanders":6470,"Ġsy":6471,"ipp":6472,"macht":6473,"ĠBern":6474,"euken":6475,"ĠLS":6476,"ĠSPEURDER":6477,"ĠNC":6478,"Ġmilitaire":6479,"0178":6480,"01101993":6481,"istisch":6482,"oure":6483,"0179":6484,"gramm":6485,"Ġmilitair":6486,"Ġwaarom":6487,"gesp":6488,"elders":6489,"Ġprachtige":6490,"Ġvar":6491,"0181":6492,"ĠBEL":6493,"Ġpak":6494,"0108594":6495,"861":6496,"Ġ055":6497,"oeden":6498,"ĠNws":6499,"842":6500,"TTERDAM":6501,"ruit":6502,"Am":6503,"iÃ«r":6504,"wijz":6505,"GP":6506,"wen":6507,"ĠMed":6508,"Ġdaardoor":6509,"Ġ275":6510,"Ze":6511,"ser":6512,"Ġvolgt":6513,"0183":6514,"Ġdub":6515,"Ġschrijven":6516,"Ġindustrie":6517,"ĠDER":6518,"ummers":6519,"ĠVis":6520,"leving":6521,"Ġontwik":6522,"Ġsept":6523,"ĠCla":6524,"keurd":6525,"mon":6526,"foort":6527,"Ġscher":6528,"groot":6529,"0008":6530,"0180":6531,"ĠNederl":6532,"Ġ295":6533,"ĠAmstel":6534,"Ġdier":6535,"ĠÃ¶":6536,"771":6537,"Ġbracht":6538,"die":6539,"'^":6540,"ĠAll":6541,"Ġminimaal":6542,"Ġgevolgen":6543,"0076":6544,"ĠÃī":6545,"Ġwinter":6546,"Ġfa":6547,"ĠTechn":6548,"Ġbond":6549,"ĠMERCEDES":6550,"AAN":6551,"Ġdefin":6552,"ĠWeg":6553,"0187":6554,"OV":6555,"Ġaktu":6556,"standigheden":6557,"wal":6558,"tenaren":6559,"Ġfunction":6560,"fer":6561,"aakt":6562,"Ġ022":6563,"vester":6564,"URO":6565,"ĠSoc":6566,"Ġliep":6567,"plan":6568,"ĠVor":6569,"ĠNw":6570,"Ġlager":6571,"Ġ164":6572,"ĠLas":6573,"Ġ3000":6574,"state":6575,"Ġcrematie":6576,"gevallen":6577,"ĠFun":6578,"0217":6579,"voeren":6580,"Ġproef":6581,"WERK":6582,"uwen":6583,"geen":6584,"ĠRijn":6585,"Ġsm":6586,"bur":6587,"ola":6588,"0182":6589,"800":6590,"Ġform":6591,"ccas":6592,"Ġinder":6593,"wijzen":6594,"Ġzui":6595,"Ġboeren":6596,"GRONINGEN":6597,"DERS":6598,"Ġfiets":6599,"0189":6600,"Ġwarm":6601,"ĠToto":6602,"ĠJoegoslav":6603,"Ġopening":6604,"Ġschadev":6605,"Ġheden":6606,"ISCH":6607,"Ġrechtbank":6608,"ĠSerie":6609,"Ġcollectie":6610,"ecte":6611,"ĠOff":6612,"auff":6613,"fra":6614,"0071":6615,"0188":6616,"0210":6617,"borg":6618,"Ġdiscussie":6619,"Ġgingen":6620,"Ġanti":6621,"ĠRon":6622,"ituut":6623,"ĠKRO":6624,"Ġjou":6625,"vi":6626,"Ad":6627,"niveau":6628,"rÃ©":6629,"Ġunieke":6630,"ĠVertrek":6631,"Ġkarakter":6632,"Ġbureau":6633,"0184":6634,"Ġkwijt":6635,"Ġned":6636,"rijp":6637,"Ġfijn":6638,"Ġinsp":6639,"ĠFamilie":6640,"Ġstelde":6641,"geh":6642,"ĠJu":6643,"Ġaar":6644,"Ġantraciet":6645,"Ġgeste":6646,"ondsen":6647,"Ġbewoners":6648,"Ġmocht":6649,"ĠVanaf":6650,"FC":6651,"Ġmeent":6652,"Ġ188":6653,"dse":6654,"Ġproces":6655,"ĠSamen":6656,"0073":6657,"laagd":6658,"0224":6659,"ĠSy":6660,"Ġgespeeld":6661,"acten":6662,"Ġimmers":6663,"Ġ075":6664,"ĠAk":6665,"Ġ02510":6666,"lijst":6667,"Ġkern":6668,"Ġbepaald":6669,"0203":6670,"_______":6671,"Ġdienen":6672,"yenoord":6673,"ala":6674,"ĠPSV":6675,"Ġcultuur":6676,"Ġsyn":6677,"Ġdergelijke":6678,"Ġgehele":6679,"0074":6680,"ĠAT":6681,"Ġerop":6682,"ĠBla":6683,"pute":6684,"Ġ147":6685,"Ġvijftig":6686,"0186":6687,"ĠVV":6688,"0108605":6689,"Ġvoorbere":6690,"jr":6691,"0288":6692,"iele":6693,"0222":6694,"HA":6695,"ĠMc":6696,"ty":6697,"Ġopenbaar":6698,"tionele":6699,"ĠTelegraaf":6700,"kond":6701,"'\"\"":6702,"Ġbijk":6703,"ĠIsraÃ«lische":6704,"Ġverdere":6705,"Ġene":6706,"fun":6707,"Ġ134":6708,"ĠFor":6709,"Ġgereg":6710,"ĠEle":6711,"Ġjongen":6712,"win":6713,"ĠVisser":6714,"Ġprest":6715,"Ġ165":6716,"wei":6717,"Hol":6718,"Ġschitt":6719,"Ġvracht":6720,"Ġvoorlopig":6721,"derd":6722,"Ġhuizen":6723,"VAG":6724,"Ġschriftelijke":6725,"ĠWoon":6726,"Ġ057":6727,"Ġklanten":6728,"Ġvrienden":6729,"Ġrouw":6730,"iedingen":6731,"Ġnogal":6732,"Ġvrede":6733,"982":6734,"richten":6735,"Ġ\"*":6736,"Ġmor":6737,"Ġwijk":6738,"??":6739,"âĢ¢âĢ¢âĢ¢âĢ¢":6740,"inkels":6741,"Ġwoonkamer":6742,"Ġoph":6743,"Ġprotest":6744,"0009":6745,"apt":6746,"uch":6747,"oudig":6748,"ĠMax":6749,"0205":6750,"Ġweerbericht":6751,"Ġob":6752,"nacht":6753,"teit":6754,"kken":6755,"Ġlage":6756,"Ġpoliti":6757,"0070":6758,"Ġdealer":6759,"ux":6760,"ichtig":6761,"komsten":6762,"Ġproberen":6763,"Ġmuz":6764,"Ġkennen":6765,"*-":6766,"0072":6767,"ĠÂ©":6768,"Ġtevreden":6769,"plaatsen":6770,"962":6771,"Ġenig":6772,"Ġdefinitie":6773,"851":6774,"Ġinvloed":6775,"lucht":6776,"Ġadvoc":6777,"INGS":6778,"Ġhetzelfde":6779,"0202":6780,"Ġscholen":6781,"Wat":6782,"Ġvertrouwen":6783,"band":6784,"ĠBeek":6785,"Ġslechte":6786,"ĠVe":6787,"Ġreage":6788,"istor":6789,"327":6790,"bruik":6791,"954":6792,"zie":6793,"007":6794,"ĠAntillen":6795,"ĠIM":6796,"gekomen":6797,"0201":6798,"rr":6799,"ael":6800,"Ġkoning":6801,"Ġvelours":6802,"Ġverwachten":6803,"UZ":6804,"werkers":6805,"ĠLeeuwarder":6806,"Ġzelfstandig":6807,"Ġmach":6808,"ĠBlu":6809,"ĠWet":6810,"Ġnoemen":6811,"ĠNic":6812,"Ġtrein":6813,"onnem":6814,"Ġinterieur":6815,"Ġ310":6816,"Ġburger":6817,"Ġgeg":6818,"IJS":6819,"ssecretaris":6820,"ners":6821,"Ġverkocht":6822,"Ġ052":6823,"Ġ156":6824,"adruk":6825,"0204":6826,"ijden":6827,"Ġverschil":6828,"Ġgebeuren":6829,"0255":6830,"Ġvertrouw":6831,"adem":6832,"lay":6833,"Ġsturen":6834,"ĠKinder":6835,"ĠGa":6836,"ĠSle":6837,"horenden":6838,"deurs":6839,"ionaal":6840,"661":6841,"Ġkader":6842,"Ġll":6843,"ĠKoning":6844,"Ġuitgebreid":6845,"Ġricht":6846,"Ġkiezen":6847,"Ġnat":6848,"idend":6849,"Ġgedeelte":6850,"Ġbuur":6851,"Ġtennis":6852,"Ġhout":6853,"drage":6854,"LEEUWARDEN":6855,"Ġ170":6856,"Ġsluit":6857,"ĠBrussel":6858,"Ġentree":6859,"ĠKat":6860,"IB":6861,"idaat":6862,"Ġverzam":6863,"0206":6864,"0010":6865,"orf":6866,"othe":6867,"Ġdemon":6868,"Ġenkel":6869,"841":6870,"ĠgeÃ«":6871,"rukt":6872,"CC":6873,"ĠSchi":6874,"0190":6875,"ĠProf":6876,"Ġwissel":6877,"450":6878,"Ġvilla":6879,"Ġenvelop":6880,"0207":6881,"0069":6882,"Ġbegro":6883,"unny":6884,"Ġlandbouw":6885,"Ġ\"âĺħ":6886,"Ġkregen":6887,"Ġdragen":6888,"mar":6889,"0250":6890,"azz":6891,"Hij":6892,"westie":6893,"Ġbla":6894,"Ġsnelle":6895,"ĠGemeen":6896,"ONG":6897,"hard":6898,"ĠPR":6899,"0212":6900,"ollege":6901,"Ġopmerk":6902,"verlening":6903,"ĠDas":6904,"Ġmrt":6905,"006":6906,"ĠKonink":6907,"Ġsprak":6908,"Ġinkomen":6909,"Ġtelefonisch":6910,"Ġondanks":6911,"Â»Â»":6912,"ĠGrand":6913,"0066":6914,"Ġ'âĸł":6915,"0226":6916,"rysl":6917,"ĠMaria":6918,"nes":6919,"993":6920,"0068":6921,"0213":6922,"nog":6923,"0211":6924,"Ġleerlingen":6925,"Ġneder":6926,"0208":6927,"994":6928,"ĠANVR":6929,"Ġoverwinning":6930,"ĠCO":6931,"Â°Â°":6932,"rec":6933,"Ġpand":6934,"0219":6935,"Daar":6936,"Ġreport":6937,"oederen":6938,"allatie":6939,"Ġreactie":6940,"0067":6941,"Ġzogen":6942,"middelen":6943,"Ġ740":6944,"Ġslechthorenden":6945,"0065":6946,"ĠJonge":6947,"328":6948,"ĠVerd":6949,"ĠBOVAG":6950,"0216":6951,"err":6952,"ĠRuim":6953,"Ġkamers":6954,"0252":6955,"Ġstemmen":6956,"acht":6957,"Ġslaapk":6958,"zee":6959,"0223":6960,"0194":6961,"0225":6962,"Ġtechnische":6963,"Ġverda":6964,"Ġgeplaatst":6965,"Ġ2500":6966,"Ġvrijblijven":6967,"ITS":6968,"0214":6969,"ermond":6970,"0218":6971,"ĠMotor":6972,"Ġ016":6973,"Ġbroer":6974,":\"":6975,"Ġ146":6976,"Ġ1800":6977,"0227":6978,"Ġonderhouden":6979,"Ġgroeien":6980,"Ġuren":6981,"ĠVolks":6982,"eker":6983,"unie":6984,"Ġaanleiding":6985,"Dit":6986,"ĠGevr":6987,"IND":6988,"Ã©Ã©r":6989,"post":6990,"0229":6991,"eff":6992,"0235":6993,"Ġchem":6994,"tf":6995,"kering":6996,"TIE":6997,"ĠZui":6998,"Ġnoodzak":6999,"rijding":7000,"0191":7001,"Ġbetaald":7002,"0215":7003,"Ġtoernooi":7004,"0209":7005,"ĠPrijzen":7006,"ĠAutomob":7007,"'âĸł":7008,"Om":7009,"ĠJacob":7010,"0236":7011,"code":7012,"0247":7013,"Ġcomedyserie":7014,"dom":7015,"Ġinzet":7016,"Ġtaak":7017,"ĠLang":7018,"ĠVier":7019,"tv":7020,"0221":7021,"ĠMi":7022,"0244":7023,"0240":7024,"formeerde":7025,"585":7026,"Ġtemp":7027,"Ġbereiken":7028,"ĠHui":7029,"Ġaanvraag":7030,"undig":7031,"BEDRIJF":7032,"0230":7033,"600":7034,"0233":7035,"Ġbreed":7036,"0245":7037,"0249":7038,"kop":7039,"Ġparkeer":7040,"EP":7041,"ĠBrazil":7042,"0193":7043,"ĠCOM":7044,"maatschappij":7045,"0220":7046,"bergen":7047,"ĠEigen":7048,"ĠPTT":7049,"uts":7050,"Ġsubsid":7051,"jov":7052,"Ġbeslist":7053,"0269":7054,"Ġmedewerker":7055,"day":7056,"0231":7057,"tekend":7058,"ĠPart":7059,"gent":7060,"RIJS":7061,"reem":7062,"Ġspoor":7063,"0243":7064,"Ġbeheer":7065,"0237":7066,"0239":7067,"0248":7068,"Ġgericht":7069,"iJ":7070,"0261":7071,"Ġautor":7072,"Ġgegevens":7073,"Ġ1982":7074,"advertentie":7075,"Ġ'\"\"":7076,"AGEN":7077,"0257":7078,"Ġdaarop":7079,"Ġvoorbe":7080,"Ġfel":7081,"ĠTROS":7082,"0242":7083,"Ġwandel":7084,"aby":7085,"0253":7086,"Ġtient":7087,"0234":7088,"Ġresultaten":7089,"OOT":7090,"0192":7091,"ird":7092,"Ġkilo":7093,"0238":7094,"0256":7095,"Ġgezin":7096,"CL":7097,"Ġantie":7098,"0254":7099,"0195":7100,"Ġminuut":7101,"vast":7102,"itaal":7103,"Ġafst":7104,"Ġ121":7105,"0241":7106,"WW":7107,"voorwaarden":7108,"Ġtrans":7109,"Ġak":7110,"Ġcursus":7111,"ĠBrink":7112,"0196":7113,"Ġweig":7114,"Die":7115,"erderij":7116,"Ġbehandeling":7117,"ANG":7118,"ĠKoo":7119,"duc":7120,"0260":7121,"ĠNoorden":7122,"ĠDi":7123,"0265":7124,"Ġverklaring":7125,"ĠDD":7126,"ĠJo":7127,"0262":7128,"Ġzaal":7129,"0198":7130,"dal":7131,"0232":7132,"gbaar":7133,"0258":7134,"0246":7135,"0259":7136,"Ġ245":7137,"Ġrespec":7138,"INS":7139,"ĠEerste":7140,"ĠGRONINGEN":7141,"ĠHendrik":7142,"Ġ148":7143,"961":7144,"0011":7145,"ĠInst":7146,"unning":7147,"0197":7148,"0275":7149,"orpen":7150,"ĠBele":7151,"ĠJul":7152,"0251":7153,"Ġbanen":7154,"Ġbetere":7155,"0199":7156,"Ġles":7157,"komstig":7158,"apens":7159,"onderden":7160,"Ġvij":7161,"Ġaanget":7162,"942":7163,"!\"":7164,"Ġvergadering":7165,"directeur":7166,"ĠReizen":7167,"TIS":7168,"schappelijke":7169,"Ġbedre":7170,"Ġ1100":7171,"ĠTegen":7172,"Ġeten":7173,"Ġoverige":7174,"ĠUr":7175,"garantie":7176,"breng":7177,"Ġverdedig":7178,"ynam":7179,"bbel":7180,"0270":7181,"Ġallen":7182,"Ġinitiatief":7183,"0266":7184,"tijden":7185,"Ġstam":7186,"OOD":7187,"Ġbezwaar":7188,"danig":7189,"Ġbv":7190,"Duitsland":7191,"ĠKing":7192,"inken":7193,"inga":7194,"0263":7195,"Ġterugk":7196,"blijf":7197,"WEG":7198,"Ġinlichtingen":7199,"Ġvac":7200,"ĠVL":7201,"ĠKoe":7202,"Ġgeel":7203,"eth":7204,"Ġselectie":7205,"Ġreizen":7206,"ĠBa":7207,"jn":7208,"ĠLandgraaf":7209,"Ġhol":7210,"ivid":7211,"Ġgevangenis":7212,"0272":7213,"0267":7214,"Ġvloer":7215,"tw":7216,"Ġang":7217,"ftal":7218,"Ġvoordat":7219,"Ġrisico":7220,"ĠPop":7221,"dekt":7222,"nemer":7223,"959":7224,"ji":7225,"hen":7226,"Ġverke":7227,"Ġuitbreiding":7228,"Ġ05920":7229,"Ġbezuin":7230,"ĠCENT":7231,"ĠVeld":7232,"0293":7233,"ILLEMSTAD":7234,"Ġkoffie":7235,"Ġontb":7236,"Ġkandidaten":7237,"0277":7238,"ĠHoens":7239,"0274":7240,"ĠVeendam":7241,"Ġvergeten":7242,"APP":7243,"incip":7244,"ĠPieter":7245,"0268":7246,"kap":7247,"ĠRichard":7248,"cher":7249,"Ġzen":7250,"Ġartikel":7251,"derheid":7252,"Ġmond":7253,"straf":7254,"0064":7255,"vri":7256,"Ġsen":7257,"Ġbood":7258,"0264":7259,"Ġgeboren":7260,"comp":7261,"0300":7262,"Ġvijftien":7263,"puteerde":7264,"Ġuitvaart":7265,"eden":7266,"Ġqu":7267,"ĠMont":7268,"0286":7269,"Ġ187":7270,"Ġbegrip":7271,"Ġpersoneels":7272,"dragen":7273,"celona":7274,"zwart":7275,"ĠOud":7276,"ĠPark":7277,"0271":7278,"Ġkunsten":7279,"Ġstukken":7280,"bla":7281,"Ġrode":7282,"Ġfoar":7283,"Ġuitsluitend":7284,"AGE":7285,"0273":7286,"ĠVos":7287,"321":7288,"Ġblijken":7289,"Ġ159":7290,"Ġleek":7291,"Ġijs":7292,"ĠCour":7293,"Ġgezamen":7294,"lat":7295,"ĠLC":7296,"ado":7297,"komt":7298,"ormen":7299,"Ġonderneming":7300,"ĠBrand":7301,"PRO":7302,"0304":7303,"0283":7304,"roerend":7305,"ĠBakker":7306,"commissie":7307,"0278":7308,"0012":7309,"Ġpan":7310,"932":7311,"0280":7312,"0284":7313,"tiel":7314,"ĠGelegenheid":7315,"ĠInternational":7316,"station":7317,"ĠPRO":7318,"ĠDL":7319,"0276":7320,"Ġ{":7321,"atische":7322,"lev":7323,"PP":7324,"ĠBonaire":7325,"0063":7326,"Ġkolom":7327,"Ġhy":7328,"indt":7329,"ova":7330,"ney":7331,"brug":7332,"herh":7333,"ĠFinanc":7334,"!\"\"":7335,"ĠcafÃ©":7336,"duit":7337,"0279":7338,"Ġkleding":7339,"Ġstraks":7340,"Ġochtend":7341,"Ġ______":7342,"Ġ''":7343,"ĠMede":7344,"Ġtyp":7345,"ĠÃı":7346,"Ġ\\\\":7347,"Ġplotseling":7348,"Ġdhr":7349,"Ġbod":7350,"Ġpersoonlijke":7351,"Ġzuid":7352,"Ġuitvoer":7353,"sver":7354,"ĠVERK":7355,"Ġschat":7356,"ĠOmdat":7357,"DEL":7358,"Ġgeluid":7359,"Ġvroeger":7360,"WE":7361,"ualiteiten":7362,"Ġgesproken":7363,"Ġdesk":7364,"958":7365,"KS":7366,"versum":7367,"ĠSteen":7368,"0285":7369,"ĠSunny":7370,"jen":7371,"uken":7372,"Ġchrist":7373,"ils":7374,"ĠofficiÃ«le":7375,"ROUW":7376,"mW":7377,"ĠOostenrijk":7378,"0289":7379,"0281":7380,"ĠCas":7381,"wongen":7382,"Ġuitstekende":7383,"ĠHerh":7384,"werker":7385,"arten":7386,"Ġ440":7387,"yer":7388,"Ġroman":7389,"aff":7390,"Ġcirca":7391,"ĠHem":7392,"Ġcaravan":7393,"ĠGo":7394,"verband":7395,"uth":7396,"Ġvoert":7397,"Ġcomplete":7398,"Ġgedurende":7399,"Ġregels":7400,"0282":7401,"ĠNEDERLAND":7402,"pass":7403,"Ġaanbod":7404,"ĠTal":7405,"ffl":7406,"AUT":7407,"gebruik":7408,"Ġgezicht":7409,"Ġmi":7410,"oeld":7411,"Ġvermeld":7412,"Ġag":7413,"oonstelling":7414,"ĠAansl":7415,"Ġverwij":7416,"artsen":7417,"Ġrecl":7418,"ĠRusland":7419,"Ġaanhang":7420,"Nieuw":7421,"ĠMaan":7422,"Ġtrap":7423,"Ġnoemt":7424,"scherm":7425,"010691806":7426,"VERT":7427,"Ġlichaam":7428,"Ġberging":7429,"^^^^^^^^":7430,"Ġwoonhuis":7431,"ĠCons":7432,"0062":7433,"ĠScorp":7434,"Re":7435,"Ġ5000":7436,"Ġredelijk":7437,"Ġlock":7438,"953":7439,"hl":7440,"Ġama":7441,"Ġonverwacht":7442,".^":7443,"ctor":7444,"INT":7445,"Ġburg":7446,"olo":7447,"uif":7448,"inkinderen":7449,"Ġtwijf":7450,"ĠNED":7451,"uel":7452,")-":7453,"Ġbeslissing":7454,"Ġevt":7455,"ĠIV":7456,"0060":7457,"chtelingen":7458,"ĠSen":7459,"0287":7460,"ĠKunst":7461,"Ġcompetitie":7462,"ersport":7463,"ĠÃ¼s":7464,"0297":7465,"Ġregelmatig":7466,"Ġspor":7467,"ĠAmers":7468,"Ġzwembad":7469,"0061":7470,"brengen":7471,"ĠgeÃ¯":7472,"oeps":7473,"Ġtri":7474,"schoten":7475,"pakket":7476,"heen":7477,"ĠAktu":7478,"Ġrand":7479,"ORP":7480,"0295":7481,"Ġwens":7482,"som":7483,"oost":7484,"ĠKruis":7485,"Ġschriftelijk":7486,"Ġgewonnen":7487,"back":7488,"Ġdur":7489,"zending":7490,"eller":7491,"Ġnod":7492,"Ġfinancieel":7493,"IESEL":7494,"Ġexp":7495,"Ġ260":7496,"ĠDrenthe":7497,"Ġfi":7498,"ochtend":7499,"Ġenergie":7500,"0310":7501,"ĠPA":7502,"Ġdubbele":7503,"ĠTj":7504,"ĠKort":7505,"Bl":7506,"ĠPlaats":7507,"ĠANP":7508,"ialen":7509,"ain":7510,"Ġgelukkig":7511,"foto":7512,"Ġverbet":7513,"Ġfull":7514,"Ġzyn":7515,"Ġnoor":7516,"0059":7517,"ATION":7518,"ograf":7519,"Ġuniek":7520,"stander":7521,"ior":7522,"ĠDaarbij":7523,"005":7524,"aux":7525,"Ġgepro":7526,"icap":7527,"ĠArab":7528,"Ġgroepen":7529,"ionale":7530,"0055":7531,"Ġol":7532,"Ġhuwelijk":7533,"0292":7534,"Ġvolks":7535,"Ġgrotere":7536,"phol":7537,"rel":7538,"Ġelect":7539,"Ġgevestigd":7540,"ĠLux":7541,"appe":7542,"Ġdeelnemers":7543,"ULT":7544,"kra":7545,"0290":7546,"Ġzuiden":7547,"ait":7548,"0305":7549,"irt":7550,"Ġvlucht":7551,"view":7552,"Ġschrijft":7553,"0296":7554,"ĠLubbers":7555,"0058":7556,"IÃĭ":7557,"Ġlo":7558,"MS":7559,"ĠNS":7560,"ĠNat":7561,"ersp":7562,"seweg":7563,"0303":7564,"ĠBor":7565,"Ġmaten":7566,"ĠHoensbroek":7567,"oeding":7568,"Ġbescherm":7569,"ĠBil":7570,"merik":7571,"ĠLimburgs":7572,"ife":7573,"0294":7574,"0291":7575,"Ġoef":7576,"coach":7577,"Ġpapier":7578,"Ġinclusief":7579,"ĠBas":7580,"Ġaft":7581,"Ġgenieten":7582,"ĠHolding":7583,"Ġ144":7584,"ijnse":7585,"egon":7586,"Ġvereist":7587,"ient":7588,"ĠProgramma":7589,"ĠÃ³":7590,"amm":7591,"Ġverkeers":7592,"0301":7593,"Ġvertellen":7594,"Ġ1980":7595,"afdeling":7596,"ĠSpaanse":7597,"dy":7598,"Ġmogelijke":7599,"amaha":7600,"ĠTa":7601,"duizend":7602,"risis":7603,"Ġpet":7604,"Ġdiam":7605,"Ġstre":7606,"Ġ215":7607,"lende":7608,"rich":7609,"ĠMis":7610,"gener":7611,"ĠAmersfoort":7612,"ĠLem":7613,"Ġace":7614,"Ġduel":7615,"Ġwaaronder":7616,"0298":7617,"Ġluid":7618,"Ġfant":7619,"ĠKan":7620,"genoten":7621,"ĠMO":7622,"arieven":7623,"ics":7624,"Ġbelast":7625,"ĠVast":7626,"Ġstoelen":7627,"retar":7628,"Ġkwestie":7629,"0302":7630,"eurs":7631,"ĠpatiÃ«nten":7632,"Ġbele":7633,"ĠService":7634,"Ġaktuell":7635,"ĠNU":7636,"Ġindust":7637,"ĠDIESEL":7638,"Ġopgeb":7639,"Ġboekjes":7640,"schappelijk":7641,"ĠAnti":7642,"utten":7643,"Ġhaven":7644,"Ġveertig":7645,"moeder":7646,"Ġdw":7647,"Ġcontacten":7648,"âĸłâĸłâĸł":7649,"assade":7650,"Ġwiel":7651,"0013":7652,"Ġkontakt":7653,"Ġkwartaal":7654,"Ġ078":7655,"Ġbanken":7656,"Ġfolder":7657,"Ġ324":7658,"0056":7659,"Ġ157":7660,"ames":7661,"ĠBoek":7662,"Ġvideo":7663,"Ġbijdrage":7664,"ĠHaren":7665,"Ġvereniging":7666,"Ġkaarten":7667,"Ġlevert":7668,"0057":7669,"ĠTrans":7670,"Ġfc":7671,"kje":7672,"ĠBarcelona":7673,"Ġingang":7674,"Ġ208":7675,"inda":7676,"528":7677,"Ġhoor":7678,"teerde":7679,"itter":7680,"Ġcollege":7681,"Ġsi":7682,"0319":7683,"Ġkeus":7684,"Ġperfecte":7685,"ĠTsje":7686,"ĠcommerciÃ«le":7687,"Ġbinnenkort":7688,"Aan":7689,"004":7690,"peratuur":7691,"Ġ285":7692,"Ġgef":7693,"Ġblik":7694,"Ġhoopt":7695,"^*":7696,"ĠRam":7697,"plex":7698,"Ġfam":7699,"Over":7700,"Ġpartner":7701,"inke":7702,"ĠBeg":7703,"lies":7704,"ICE":7705,"ĠDus":7706,"941":7707,"0299":7708,"0306":7709,"Ġ299":7710,"aringen":7711,"ĠSinds":7712,"Ġnation":7713,"VSt":7714,"ĠHaan":7715,"Ġcamping":7716,"andaard":7717,"ĠHAR":7718,"RIES":7719,"wassen":7720,"groe":7721,"ĠFeyenoord":7722,"wartier":7723,"Ġ186":7724,"Ġsur":7725,"SSEN":7726,"PE":7727,"ĠDai":7728,"redactie":7729,"Ġfraaie":7730,"ĠING":7731,"Ġvanavond":7732,"972":7733,"Ġlijst":7734,"Ġdy":7735,"ĠGP":7736,"Ġconcert":7737,"^__":7738,"teg":7739,"ĠScorpio":7740,"ĠPC":7741,"0307":7742,"orps":7743,"Ġwy":7744,"Ġinderdaad":7745,"ubile":7746,"ox":7747,"ĠJel":7748,"ĠGevraagd":7749,"ĠRotterdamse":7750,"0308":7751,"Ġernst":7752,"ijnt":7753,"sz":7754,"ĠNationale":7755,"gelegd":7756,"ĠVrouwen":7757,"Ġkust":7758,",-,":7759,"orti":7760,"ĠEOE":7761,"ott":7762,"beg":7763,"ĠFRAN":7764,"ĠHilversum":7765,"ĠFort":7766,"Ġ176":7767,"Ġkoopavond":7768,"Ġbekl":7769,"Ġlezen":7770,"ENN":7771,"oegd":7772,"Ġ375":7773,"ĠSie":7774,"Ġmooiste":7775,"0323":7776,"ĠRobert":7777,"neming":7778,"Ġ386":7779,"ertje":7780,"ogels":7781,"Ġadvertenties":7782,"Ġflink":7783,"MO":7784,"ĠVereniging":7785,"Ã¼r":7786,"0309":7787,"Ġbezoekers":7788,"ĠPo":7789,"Ġkansen":7790,"the":7791,"arch":7792,"ĠCaravan":7793,"ĠInlichtingen":7794,"aro":7795,"Ļ¦":7796,"zoekers":7797,"OORD":7798,"denken":7799,"ĠEm":7800,"Ġvoorstellen":7801,"Ġgeref":7802,"PR":7803,"ĠStationcar":7804,"financ":7805,"Ġsportvelgen":7806,"oogd":7807,"Â».":7808,"ĠDou":7809,"MI":7810,"Ġzeil":7811,"_-":7812,"Ġmeiden":7813,"verkoop":7814,"ĠHoewel":7815,"Ġstaats":7816,"baarheid":7817,"ĠYamaha":7818,"Ġsluiten":7819,"003":7820,"ĠWh":7821,"ĠGRATIS":7822,"Ġ-^":7823,"ski":7824,"Ġonderdeel":7825,"ublie":7826,"EEL":7827,"Ġbas":7828,"teld":7829,"Ġ02990":7830,"vader":7831,"Ġ315":7832,"ĠGEV":7833,"Ġontwikkelingen":7834,"Ġmoed":7835,"Ġprodukt":7836,"ĠBreak":7837,"ĠStaat":7838,"Ġinternationaal":7839,"eldoorn":7840,"ĠHard":7841,"Ġbedoeling":7842,"ĠTr":7843,"Ġactief":7844,"onne":7845,"ĠRek":7846,"ĠDAF":7847,"ĠFlor":7848,"ĠPra":7849,"009":7850,"0311":7851,"Ġdeb":7852,"Ġzicht":7853,"conc":7854,"Ġbeperkt":7855,"Ġ206":7856,"kent":7857,"1111":7858,"Ġgewerkt":7859,"ĠKOOP":7860,"ĠNCRV":7861,"AX":7862,"ĠArbe":7863,"Ġprincip":7864,"Ġstro":7865,"teress":7866,"ĠSchiphol":7867,"0313":7868,"Ġasiel":7869,"glas":7870,"zek":7871,"ĠHy":7872,"0312":7873,"zijl":7874,"Ġbijzondere":7875,"antoor":7876,"ĠStar":7877,"0320":7878,"ĠKui":7879,"Ġjoodse":7880,"splan":7881,"iekenhuis":7882,"isjes":7883,"rdin":7884,"0054":7885,"ĠTri":7886,"ologische":7887,"0314":7888,"jl":7889,"ĠBL":7890,"ĠSw":7891,"ĠBroek":7892,"key":7893,"meub":7894,"Ar":7895,"Ġnette":7896,"Ġ....":7897,"ĠIraak":7898,"ĠZa":7899,"0053":7900,"ĠVork":7901,"Ġka":7902,"Ġmy":7903,"Ġ189":7904,"ecial":7905,"brand":7906,"ĠUitzend":7907,"Ġ217":7908,"Ġhouten":7909,"0316":7910,"Ġwoonk":7911,"strijd":7912,"Ġ244":7913,"Ġspreekt":7914,"0326":7915,"010691602":7916,"Ġbrochure":7917,"ffer":7918,"STRAAT":7919,"Ġmeestal":7920,"ĠXL":7921,"Ġpac":7922,"Ġpond":7923,"Ġnoch":7924,"levering":7925,"ĠLid":7926,"ĠOmega":7927,"Ġinvester":7928,"Ġeenmaal":7929,"ĠAlex":7930,"Ġtem":7931,"Ġbran":7932,"Ġgebr":7933,"Ġjournal":7934,"zi":7935,"Ġopa":7936,"gelegenheid":7937,"ĠTil":7938,"Ġstren":7939,"0322":7940,"Ġsign":7941,"cus":7942,"ĠLEEUWARDEN":7943,"ĠDijkstra":7944,"Ġbeelden":7945,"ĠFre":7946,"Ġfonds":7947,"Ġvoorsprong":7948,"978":7949,"Ġprofession":7950,"Ġafval":7951,"Ġtransport":7952,"0315":7953,"Ġomhoog":7954,"ĠZu":7955,"prijzen":7956,"ning":7957,"Ġ395":7958,"EURS":7959,"Ġindivid":7960,"Ġfinanciering":7961,"Ġven":7962,"Ġwinnend":7963,"Ġsommige":7964,"Ġdiensten":7965,"ĠRol":7966,"Ġslachtoffer":7967,"OTO":7968,"Ġvi":7969,"Ġei":7970,"etering":7971,"stemen":7972,"Ġschadevrij":7973,"beheer":7974,"ĠWD":7975,"ĠZonder":7976,"Hoe":7977,"Ġbloemen":7978,"Ġverhalen":7979,"Ġkandidaat":7980,"tell":7981,"0318":7982,"Ġdrugs":7983,"Ġwinnaar":7984,"Ġ3500":7985,"ĠRoermond":7986,"ĠPersoneel":7987,"oluut":7988,"Ġverhuur":7989,"Ġonmiddel":7990,"ĠIT":7991,"repen":7992,"Ġ158":7993,"Ġwerkgevers":7994,"bouwd":7995,"ĠVene":7996,"Ġuiterlijk":7997,"zinn":7998,"Ġ235":7999,"rent":8000,"zaal":8001,"inker":8002,"ALL":8003,"ĠBoe":8004,"heers":8005,"FT":8006,"Ġzkt":8007,"Ġuiterst":8008,"0325":8009,"Ġtoegang":8010,"ĠMiddel":8011,"oorte":8012,"Ġstijl":8013,"eraad":8014,"ĠREN":8015,"0324":8016,"ĠEven":8017,"ĠCV":8018,"ĠRD":8019,"Ġau":8020,"Ġmiljoenen":8021,"kracht":8022,"Ġkantooruren":8023,"Ġverwar":8024,"ĠOM":8025,"Ġcombinatie":8026,"ĠDM":8027,"usie":8028,"ĠSand":8029,"ellicht":8030,"ias":8031,"0052":8032,"0317":8033,"ageren":8034,"Ġgehand":8035,"megen":8036,"ĠWa":8037,"gs":8038,"Ġ216":8039,"ĠJean":8040,"krant":8041,"':":8042,"Ġap":8043,"CAR":8044,"ump":8045,"Ġsoft":8046,"keld":8047,"reizen":8048,"ĠHere":8049,"bats":8050,"Uit":8051,"produk":8052,"ĠBlue":8053,"Ġoveral":8054,"Ġ076":8055,"0051":8056,"ĠIr":8057,"Ġhogere":8058,"gaat":8059,"002":8060,"riÃ¨re":8061,"ĠAscona":8062,"Ġmoord":8063,"ĠNaast":8064,"0049":8065,"low":8066,"ĠChina":8067,"Ġduizenden":8068,"Ġ169":8069,"Ġinstelling":8070,"ĠRoden":8071,"range":8072,"Ġrook":8073,"Ġ080":8074,"0327":8075,"Ġoom":8076,"Ġdivisie":8077,"pool":8078,"Ġbeschikt":8079,"Ġbericht":8080,"TRA":8081,"Ġhistor":8082,"Ġsterkte":8083,"Zuid":8084,"fst":8085,"Ġgebieden":8086,"bach":8087,"Ġ223":8088,"Ġ166":8089,"Ġleverbaar":8090,"Ã©l":8091,"ĠÂ®":8092,"SK":8093,"oli":8094,"Ġ167":8095,"Ġoost":8096,"Ġ177":8097,"cedure":8098,"Her":8099,"iswaar":8100,"Ġverlaten":8101,"ippen":8102,"Ġvriendin":8103,"ĠAlbert":8104,"ĠAF":8105,"ĠTsjech":8106,"ĠBedrijfs":8107,"streek":8108,"Ġhom":8109,"ĠBreda":8110,"Ġ05130":8111,"Ã¶rdin":8112,"ĠBIJ":8113,"Ġgeschreven":8114,"ĠAVRO":8115,"ĠFilm":8116,"Zo":8117,"Ġzonne":8118,"dollar":8119,"Ġnoemde":8120,"Ġpassen":8121,"ijp":8122,"Ġsteden":8123,"ĠSla":8124,"iseerd":8125,"0321":8126,"arief":8127,"ĠHart":8128,"0050":8129,"ĠLou":8130,"Ġparticulier":8131,"Ġ\"\"^":8132,"aardij":8133,"ĠSi":8134,"Ġvoelen":8135,"olla":8136,"Ġuitspraak":8137,"Ġvolledige":8138,"undigen":8139,"ĠSEX":8140,"ĠJet":8141,"clusieve":8142,"Ġnou":8143,"Ġhang":8144,"Ġhonderden":8145,"\"\"^":8146,"count":8147,"leggen":8148,"ORG":8149,"Ġofficieel":8150,"houdt":8151,"ĠBusiness":8152,"ĠStudio":8153,"Ġbeschuldig":8154,"Ġintern":8155,"Ġincl":8156,"rid":8157,"Ġverpleeg":8158,"eeg":8159,"Ġ214":8160,"Ġgelden":8161,"ĠPorsche":8162,"974":8163,"Ġbestel":8164,"Ġ650":8165,"si":8166,"Ġ038":8167,"Ġalsmede":8168,"jarig":8169,"voorzien":8170,"itÃ©":8171,"Ġ360":8172,"Ġzelfstand":8173,"Ġzodanig":8174,"Ġinv":8175,"Ġ209":8176,"Ġgecon":8177,"staand":8178,"Ġ02158":8179,"Ġdoden":8180,"Ġzonn":8181,"RUM":8182,"Ġhotels":8183,"Ġcrimin":8184,"Ġinz":8185,"Ġlokale":8186,"Ġfietsen":8187,"ĠPac":8188,"Ġworld":8189,"Ġwaarschuw":8190,"stens":8191,"Ġnormaal":8192,"ĠKR":8193,"WILLEMSTAD":8194,"Ġrecord":8195,"omb":8196,"Ġplezier":8197,"ĠScheidsrechter":8198,"Ġfot":8199,"Ġni":8200,"oken":8201,"iana":8202,"mark":8203,"cn":8204,"ĠUno":8205,"ĠGRO":8206,"motor":8207,"ditie":8208,"Ġverle":8209,"Ġspaar":8210,"Ch":8211,"Ġpret":8212,"ĠRU":8213,"IAL":8214,"Ġwegen":8215,"Ġ197":8216,"ĠPassat":8217,"Ġ249":8218,"0048":8219,"ĠSaab":8220,"Ġfamil":8221,"Ġgewone":8222,"ĠIraakse":8223,"ĠBox":8224,"Ġdacht":8225,"scher":8226,"Ġslachtoffers":8227,"Ġverlaagd":8228,"Ġjaarlijks":8229,"Ġmat":8230,"keken":8231,"0330":8232,"Ġgevolgd":8233,"oods":8234,"Ġpublic":8235,"Gro":8236,"ANC":8237,"ĠWin":8238,"Ġverzet":8239,"verg":8240,"Ġverkrijgbaar":8241,"ĠSec":8242,"Ġbis":8243,"ington":8244,"ĠTo":8245,"ĠMichael":8246,"0328":8247,"odigd":8248,"rechte":8249,"Ġker":8250,"licht":8251,"ĠAchter":8252,"Ġvernieuw":8253,"ban":8254,"Ġindien":8255,"respondentie":8256,"Ġshowroom":8257,"Ġfund":8258,"SO":8259,"bedr":8260,"Ġcomfort":8261,"ros":8262,"agon":8263,"Ġomstandigheden":8264,"Ġinstantie":8265,"uidelijk":8266,"ĠElke":8267,"0014":8268,"Ġvern":8269,"Ġgebouwd":8270,"ĠApeldoorn":8271,"Ġbrieven":8272,"ĠNo":8273,"Ġbegraaf":8274,"inen":8275,"vak":8276,"iploma":8277,"Ġ219":8278,"Ġovertu":8279,"Ġrecente":8280,"Ġontvangt":8281,"ĠVARA":8282,"ement":8283,"Ġ212":8284,"aardig":8285,"ĠStra":8286,"ĠCa":8287,"ĠGl":8288,"ĠMuseum":8289,"Ġmeerderheid":8290,"olang":8291,"Ġkenn":8292,"BC":8293,"ĠBBC":8294,"Ġvestiging":8295,"wiel":8296,"ario":8297,"Ġernstig":8298,"rf":8299,"oul":8300,"Ġtegelijk":8301,"halen":8302,"Ġvrijblijvend":8303,"Ġkruis":8304,"Ġ227":8305,"rick":8306,"woningen":8307,"hop":8308,"batsjov":8309,"Ġpen":8310,"RICHT":8311,"ĠBestuur":8312,"gelaten":8313,"Ġmuseum":8314,"Ġonzer":8315,"SGR":8316,"apparatuur":8317,"Ġdocumentaire":8318,"*Â»":8319,"ĠGraaf":8320,"ploeg":8321,"ĠCam":8322,"ĠIJssel":8323,"gas":8324,"Ġfunktie":8325,"Jan":8326,"Ġexc":8327,"Ġrende":8328,"brief":8329,"ĠTran":8330,"Ġbelangen":8331,"ĠEuropees":8332,"jf":8333,"0045":8334,"0047":8335,"ĠSter":8336,"Ġzestig":8337,"Ġkroon":8338,"weden":8339,"ĠTon":8340,"avel":8341,"Ġdistri":8342,"0044":8343,"ĠZand":8344,"Ġontsp":8345,"Ġ204":8346,"ĠMac":8347,"Ġvoorwaarden":8348,"SSE":8349,"AKANT":8350,"Ġ255":8351,"ĠGerard":8352,"ĠFraneker":8353,"Ġbijeen":8354,"Ġliever":8355,"rede":8356,"_âĸł":8357,"Si":8358,"ĠAz":8359,"0046":8360,"ĠMark":8361,"ĠEO":8362,"ĠSN":8363,"Ġmist":8364,"naam":8365,"ĠVeron":8366,"aad":8367,"ĠDienst":8368,"0336":8369,"Ġvliegtuig":8370,"0329":8371,"ĠSo":8372,"winkel":8373,"uinen":8374,"Ġ02507":8375,"ĠRem":8376,"OTOR":8377,"ĠJansen":8378,"Ġsector":8379,"Ġwur":8380,"ieuze":8381,"Ġgeve":8382,"hyp":8383,"ĠKerst":8384,"risten":8385,"Ġharde":8386,"ĠJor":8387,"Ġbezet":8388,"stijden":8389,"aking":8390,"0333":8391,"ĠCIT":8392,"HOR":8393,"Ġconfl":8394,"951":8395,"past":8396,"verzeker":8397,"Europa":8398,"ormd":8399,"iaan":8400,"groen":8401,"Ġteleur":8402,"Ġnews":8403,"ĠKu":8404,"raan":8405,"Ġ520":8406,"ervaring":8407,"ĠBad":8408,"sem":8409,"Ġgezocht":8410,"ĠBush":8411,"ĠMinister":8412,"Gron":8413,"Ġbang":8414,"teert":8415,"BRU":8416,"yo":8417,"Ġ229":8418,"ĠVerv":8419,"Fra":8420,"heel":8421,"enst":8422,"dl":8423,"Ġechtp":8424,"ĠAdres":8425,"telijke":8426,"Ġvoelt":8427,"Ġgun":8428,"Ġjoden":8429,"Ġ1981":8430,"Ġontdek":8431,"vakantie":8432,"IDE":8433,"Ġnoodzakelijk":8434,"conferentie":8435,"Ġdc":8436,"tot":8437,"ĠMus":8438,"Ġ265":8439,"Ġambassade":8440,"Ġ143":8441,"0331":8442,"arta":8443,"Ġgeble":8444,"kontakt":8445,"omer":8446,"UPS":8447,"GRACHT":8448,"IED":8449,"ĠTRA":8450,"machine":8451,"rekken":8452,"Ġverkeer":8453,"ĠEK":8454,"ĠDO":8455,"RED":8456,"Ġfeite":8457,"Ġinwoners":8458,"ki":8459,"Ġhoreca":8460,"terrein":8461,"Ġ132":8462,"Ġgistermiddag":8463,"971":8464,"versch":8465,"Ġorg":8466,"Ġpakken":8467,"Ġvooraf":8468,"Ġuitzicht":8469,"Ġuitstekend":8470,"enteken":8471,"ERT":8472,"VAN":8473,"Ġriv":8474,"Ġterras":8475,"Ġvredes":8476,"utch":8477,"Ġletter":8478,"rang":8479,"ĠVo":8480,"mt":8481,"Door":8482,"ĠTien":8483,"Ġambtenaren":8484,"ĠLim":8485,"Ġ198":8486,"cy":8487,"iev":8488,"Ġ213":8489,"Ġbeige":8490,"motie":8491,"Ġsociaal":8492,"anada":8493,"Ġvermoe":8494,"0041":8495,"Ġschilderijen":8496,"Ġmate":8497,"NL":8498,"dapp":8499,"ĠEURO":8500,"Ġmedische":8501,"ĠWinkel":8502,"stond":8503,"0043":8504,"Ġsportw":8505,"bos":8506,"0332":8507,"Ġgesl":8508,"Ġvrijst":8509,"ory":8510,"Ġweduwe":8511,"drecht":8512,"Ġmeester":8513,"hebber":8514,"Ġescort":8515,"ĠAlgemene":8516,"Ġonderhandelingen":8517,"ĠMb":8518,"ĠVrijdag":8519,"Ġelders":8520,"rongen":8521,"ONDER":8522,"Ġ02503":8523,"AA":8524,"sluiting":8525,"ĠKLA":8526,"huur":8527,"Ġkerken":8528,"tigen":8529,"ĠHAAR":8530,"ĠJanssen":8531,"Ġoverleed":8532,"Ġontwerp":8533,"Ġbedrijfsleven":8534,"Ġsamenleving":8535,"Ġsim":8536,"ĠRover":8537,"0040":8538,"wek":8539,"Ġhoort":8540,"ĠTheo":8541,"Ġbegraafplaats":8542,"ĠWitte":8543,"Ġbehoren":8544,"ĠCorp":8545,"euze":8546,"Ġafspraken":8547,"*,":8548,"ĠSS":8549,"Ġleidt":8550,"ĠErik":8551,"tica":8552,"ĠErv":8553,"Ġgebrek":8554,"ĠRode":8555,"Ġ248":8556,"Ġmissen":8557,"Ġgepre":8558,"210":8559,"Ġ179":8560,"Ġwereldkampioen":8561,"bijt":8562,"ĠVO":8563,"Ġ154":8564,"atsu":8565,"ĠTwente":8566,"ĠJohannes":8567,"GEOT":8568,"Ġmiddelen":8569,"jo":8570,"mnd":8571,"0039":8572,"Ġorganisaties":8573,"ĠDirekt":8574,"Ġthema":8575,"ordrecht":8576,"Ġcan":8577,"Ġhum":8578,"vier":8579,"ĠBent":8580,"Me":8581,"Ġwijst":8582,"iefde":8583,"ĠIe":8584,"Ġvergr":8585,"ĠSol":8586,"ĠJoegoslaviÃ«":8587,"Ġvluchtelingen":8588,"ELE":8589,"ĠCC":8590,"Ġgeorganis":8591,"iekerk":8592,"Ġler":8593,"index":8594,"Ġclubs":8595,"genote":8596,"Ġgelegd":8597,"ĠIj":8598,"Ġtrekhaak":8599,"strekt":8600,"making":8601,"Ġeffecten":8602,"ĠLU":8603,"Ġwagen":8604,"ĠRest":8605,"ĉĉ":8606,"ĠMat":8607,"ĠWilt":8608,"akers":8609,"HEER":8610,"0042":8611,"ĠJustitie":8612,"aya":8613,"ĠDelta":8614,"ĠWijn":8615,"EUGEOT":8616,"Ġmochten":8617,"Ġ073":8618,"kundige":8619,"Â«Â«":8620,"ĠEng":8621,"CENT":8622,"Ġscherpe":8623,"0338":8624,"Ġconcurren":8625,"ĠVOLVO":8626,"Ġgehaald":8627,",\"":8628,"Ġkeren":8629,"ĠCup":8630,"NA":8631,"otoren":8632,"waardig":8633,"Ġbedien":8634,"woon":8635,"ims":8636,"KOOP":8637,"Ġ056":8638,"Ġ314":8639,"waag":8640,"organisaties":8641,"Ġcentraal":8642,"Ġgoedkoop":8643,"geveen":8644,"VEEN":8645,"0335":8646,"Ġ'^":8647,"Ġ218":8648,"Ġalum":8649,"Ġexport":8650,"ĠFNV":8651,"Ġmilitairen":8652,"Ġbeurt":8653,"Ġschreef":8654,"Ġbrede":8655,"Ġafhankelijk":8656,"Ġdaarin":8657,"ĠGi":8658,"Ġexclusief":8659,"Ġem":8660,"ht":8661,"0015":8662,"oom":8663,"ĠPull":8664,"ekt":8665,"Ġwilden":8666,"itz":8667,"agu":8668,"ĠDavid":8669,"gem":8670,"EKEN":8671,"ilanden":8672,"Ã©t":8673,"Ġfout":8674,"Ġgemeenschap":8675,"Ġ236":8676,"Ġtroepen":8677,"heim":8678,"ĠDaarmee":8679,"Ġ05150":8680,"order":8681,"outh":8682,"ards":8683,"ĠLeef":8684,"Ġlak":8685,"Ġmateriaal":8686,"0339":8687,"Ġtante":8688,"Ġstaatssecretaris":8689,"Ġprojecten":8690,"Ġverloor":8691,"essen":8692,"KT":8693,"ooie":8694,"0337":8695,"rl":8696,"ĠGou":8697,"keuken":8698,"vlg":8699,"Ġbedoeld":8700,"El":8701,"ĠMor":8702,"dik":8703,"ĠMel":8704,"Ġinstru":8705,"ĠNijmegen":8706,"Ġberoeps":8707,"Ġbereikbaar":8708,"ĠKLE":8709,"INDER":8710,"ĠDuits":8711,"autom":8712,"urele":8713,"Ġnadruk":8714,"ĠMarkt":8715,"ĠPartij":8716,"Ġpo":8717,"fde":8718,"Ġhaard":8719,"lands":8720,"ĠCentraal":8721,"VEL":8722,"Ġ345":8723,"0342":8724,"delig":8725,"Ġ196":8726,"woordig":8727,"Ġnader":8728,"Ġoccas":8729,"ĠHER":8730,"uitv":8731,"ĠWy":8732,"ĠnÃ¼":8733,"ĠValken":8734,"Ġaanbieding":8735,"Ġscherp":8736,"Ġ270":8737,"erslag":8738,"BERG":8739,"Ġpijn":8740,"ĠIndones":8741,"ursussen":8742,"Ġtoneel":8743,"mater":8744,"teldak":8745,"Ġelftal":8746,"0334":8747,"ĠLen":8748,"ELAAR":8749,"onderzoek":8750,"ĠMolen":8751,"HOF":8752,"zichte":8753,"Ġ174":8754,"kennen":8755,"blik":8756,"Ġwh":8757,"onnement":8758,"0340":8759,"ĠUW":8760,"ĠOrg":8761,"Ġlegt":8762,"Ġernstige":8763,"OB":8764,"ĠHarry":8765,"slid":8766,"973":8767,"Ġparoch":8768,"Ġbom":8769,"Ġ256":8770,"Ġklin":8771,"Ġpensioen":8772,"Ġeiken":8773,"nu":8774,"Ġvoedsel":8775,"Ġstop":8776,"Ġoma":8777,"Ġtechnisch":8778,"maker":8779,"Ġaparte":8780,"Ġrit":8781,"Ã¯Ã¯":8782,"ĠCorsa":8783,"?'":8784,"ĠSpel":8785,"vig":8786,"ĠBrab":8787,"phen":8788,"jaars":8789,"Ġgeluk":8790,"Ġopnemen":8791,"ĠGay":8792,"IRE":8793,"0037":8794,"ĠBosniÃ«":8795,"rond":8796,"ĠVVD":8797,"Ġoblig":8798,"weet":8799,"Ġmer":8800,"Ġlach":8801,"amera":8802,"ĠPolen":8803,"Ġpraat":8804,"Ġeenvoudig":8805,"Ġpor":8806,"ĠDSM":8807,"Ġ238":8808,"Ġopv":8809,"ĠMaarten":8810,"Ġ03480":8811,"rikaanse":8812,"Ġ'.":8813,"Ġphil":8814,"952":8815,"_\\":8816,"ianen":8817,"Ġbehoor":8818,"Ġmelk":8819,"arn":8820,"Ġbg":8821,"Ġ_.":8822,"Ġwijn":8823,"0016":8824,"vin":8825,"Ġref":8826,"0038":8827,"raaf":8828,"Ġ224":8829,"Ġaanmerk":8830,"alve":8831,"minste":8832,"Ġleeg":8833,"ĠStuur":8834,"SB":8835,"Ġverdienen":8836,"ĠHoge":8837,"ĠBeheer":8838,"ĠNaam":8839,"Ġ286":8840,"Ġtijdelijk":8841,"Ġ1400":8842,"Ġmotoren":8843,"ira":8844,"half":8845,"ĠTex":8846,"Ġzege":8847,"Afrika":8848,"ĠGrieks":8849,"Ġstat":8850,"Ġklant":8851,"Ġechtgenoot":8852,"Ġinr":8853,"ĠNacht":8854,"Ġpercent":8855,"Ġboord":8856,"Ġ226":8857,"Ġret":8858,"Ġbetaal":8859,"Ġschuld":8860,"Ġvrijwill":8861,"Ġpremie":8862,"ashington":8863,"GRA":8864,"filmserie":8865,"HC":8866,"ĠLA":8867,"Ġuitzonder":8868,"Ġoverd":8869,"ĠNVM":8870,"ĠRit":8871,"010691946":8872,"journaal":8873,"ocument":8874,"ĠMAN":8875,"ĠDes":8876,"Ġser":8877,"Ġverschijnen":8878,"wikkeling":8879,"Ġonderv":8880,"ĠHP":8881,"machines":8882,"ĠGeld":8883,"Le":8884,"Ġgezellig":8885,"ĠNaar":8886,"Ġlinks":8887,"0106436":8888,"cr":8889,"fect":8890,"Ġ237":8891,"Ġdok":8892,"ĠGorbatsjov":8893,"jul":8894,"concert":8895,"hotel":8896,"0035":8897,"bonden":8898,"Ġverklaard":8899,"Ġopgebaard":8900,"Ġ131":8901,"alk":8902,"ĠâĢ¢âĢ¢":8903,"ĠSpecial":8904,"eeland":8905,"namelijk":8906,"Ġstaal":8907,"Ġbesloot":8908,"atal":8909,"aag":8910,"Ġdirecte":8911,"Ġstamb":8912,"ĠRand":8913,"Ġdiploma":8914,"Ġligbad":8915,"kla":8916,"Ġtientallen":8917,"Ġset":8918,"muziek":8919,"ĠSnel":8920,"tiende":8921,"okkum":8922,"ĠKw":8923,"Ġ850":8924,"ruc":8925,"0343":8926,"ĠNA":8927,"Ġ327":8928,"naar":8929,"Ġtraining":8930,"0350":8931,"-Â»":8932,"Ġconclus":8933,"ĠVOO":8934,"titel":8935,"Ġbrood":8936,"Ġcontrol":8937,"RAAGD":8938,"Ġvlees":8939,"0036":8940,"oires":8941,"0344":8942,"Ġvoldoen":8943,"Ġpiano":8944,"tte":8945,"spl":8946,"Ġacties":8947,"own":8948,"ĠPool":8949,"0347":8950,"ĠAmerikanen":8951,"IEL":8952,"under":8953,"Ġrijbewijs":8954,"ĠVeil":8955,"ĠVic":8956,"Ġlaad":8957,"Ġgezondheids":8958,"vlie":8959,"Ġwonder":8960,"Ġspons":8961,"Ġbegeleiding":8962,"ffi":8963,"Ġmisdaad":8964,"Ġkelder":8965,"Ġkenteken":8966,"CK":8967,"regeling":8968,"ĠDiverse":8969,"ĠPEUGEOT":8970,"rechten":8971,"ĠLange":8972,"Ġ247":8973,"ĠMorgen":8974,"ĠBrug":8975,"ques":8976,"han":8977,"Ġoppositie":8978,"ZO":8979,"industrie":8980,"Ġmakel":8981,"Ġuitgebreide":8982,"ĠDOOR":8983,"Ġaant":8984,"Ġopti":8985,"oopt":8986,"aaaa":8987,"Ġ________________":8988,"camp":8989,"Ġpot":8990,"inding":8991,"blemen":8992,"Ġfac":8993,"Ġeventueel":8994,"Ġdoorl":8995,"Ġstroom":8996,"RY":8997,"skan":8998,"hs":8999,"ĠTev":9000,"Ġbeneden":9001,"Ġ222":9002,"fs":9003,"Ġdeta":9004,"Ġ328":9005,"president":9006,"ĠZie":9007,"Ġwinkels":9008,"leveren":9009,"Ġ290":9010,"basis":9011,"Ġexper":9012,"Ġmuzik":9013,"eeps":9014,"Ġfractie":9015,"Ġburgers":9016,"Ġ246":9017,"ĠVla":9018,"Ġtrok":9019,"Ġnederlaag":9020,"Ġopenbare":9021,"Ġsecretaris":9022,"Ġjacht":9023,"ĠSeat":9024,"Ġlas":9025,"ĠIndustrie":9026,"ups":9027,"amse":9028,"ata":9029,"nk":9030,"antwoord":9031,"ĠWee":9032,"Ġonmogelijk":9033,"Ġmanagement":9034,"ĠHeren":9035,"iker":9036,"ONDEN":9037,"Ġgasten":9038,"Ġbehoefte":9039,"-/":9040,"0341":9041,"Ġraakte":9042,"ĠHoofddorp":9043,"ago":9044,"handeling":9045,"landen":9046,"hoff":9047,"ĠLancia":9048,"0351":9049,"Ġavont":9050,"Ġreclame":9051,"erts":9052,"Ġaltern":9053,"stro":9054,"Ġmusic":9055,"Ġbem":9056,"Ġwees":9057,"Ġbonds":9058,"ĠHeb":9059,"ĠPal":9060,"Ġverslaggever":9061,"vallend":9062,"ENTIE":9063,"Ġdiamant":9064,"ĠZoals":9065,"ez":9066,"Ġ168":9067,"eringen":9068,"bezoek":9069,"01101992":9070,"ELIJK":9071,"Ġaansp":9072,"Ġmtr":9073,"Ġopvol":9074,"ĠWanneer":9075,"Ġbelt":9076,"0017":9077,"rysler":9078,"ĠCX":9079,"Ġaangehouden":9080,"ĠCorrespondentie":9081,"Ġ228":9082,"0348":9083,"Ġtekort":9084,"ĠUnie":9085,"Ġbruin":9086,"model":9087,"Ġfig":9088,"Ġ178":9089,"acc":9090,"UU":9091,"Ġondersteun":9092,"Ġrealis":9093,"Ġconcern":9094,"lin":9095,"ĠZwee":9096,"iÃ«nt":9097,"ĠMaandag":9098,"Ġzogenaam":9099,"Ġstrip":9100,"schreven":9101,"RK":9102,"Ġ\"\"'":9103,"Ġprobeert":9104,"Ġreacties":9105,"ĠCentrale":9106,"...\"":9107,"0345":9108,"ĠMulder":9109,"Ġangst":9110,"zon":9111,"zijde":9112,"ĠClass":9113,"ĠDor":9114,"ĠMeijer":9115,"Ġsta":9116,"Ġheil":9117,"Ġgezellige":9118,"UE":9119,"Ġkru":9120,"Ġorigin":9121,"Ġln":9122,"Ġ550":9123,"Ġstru":9124,"Ġkwa":9125,"yc":9126,"ĠPAR":9127,"stien":9128,"ĠHarm":9129,"ĠWIL":9130,"olie":9131,"Ġ239":9132,"Ġarchite":9133,"Ġrechtstreeks":9134,"Ġhelpt":9135,"Ġgolf":9136,"ĠDir":9137,"ĠRed":9138,"Ġpostze":9139,"He":9140,"jon":9141,"Ġplaatselijke":9142,"ited":9143,"ĠDoe":9144,"ĠJaar":9145,"lll":9146,"Ġverricht":9147,"ĠGes":9148,"Ġ||":9149,"Ġongeluk":9150,"Ġkrijg":9151,"ĠHarlingen":9152,"entrum":9153,"ĠDal":9154,"Ġzwak":9155,"0033":9156,"Ġafkomstig":9157,"Ġbewol":9158,"ĠPrins":9159,"Ġmc":9160,"Ġpopula":9161,"ĠLan":9162,"Ġtoel":9163,"ĠLeeftijd":9164,"Ġnieuwste":9165,"0418":9166,"Ġvijfde":9167,"reerd":9168,"mij":9169,"ĠTUR":9170,"ĠKlaas":9171,"0018":9172,"Ġfabriek":9173,"televisie":9174,"duitse":9175,"0034":9176,"Ġreageren":9177,"ĠWad":9178,"Ġaanval":9179,"Ġlandelijke":9180,"Ġid":9181,"0346":9182,"Ġdraaien":9183,"0366":9184,"ĠBri":9185,"Ġalsnog":9186,"inton":9187,"Ã©Ã©n":9188,"Ġ('":9189,"ĠSer":9190,"ĠWegens":9191,"mmel":9192,"Ġervoor":9193,"Ġ153":9194,"ĠSmit":9195,"stukken":9196,"Ġstonden":9197,"ĠChine":9198,"waardige":9199,"Ġaanbe":9200,"Ġverzek":9201,"ĠHEERLEN":9202,"ieÃ«n":9203,"Ġintens":9204,"ĠOns":9205,"SH":9206,"orge":9207,"Ġmaximaal":9208,"Ġparen":9209,"tten":9210,"ĠEur":9211,"Ġplm":9212,"ĠMex":9213,"0030":9214,"ĠDick":9215,"ĠWilhel":9216,"0349":9217,"Ġpositief":9218,"Ġtrekt":9219,"Ġwijz":9220,"Ġrelaties":9221,"ĠCourant":9222,"ĠUl":9223,"tific":9224,"Ġ000":9225,"Mar":9226,"ONING":9227,"zeg":9228,"ogingen":9229,"Ġgeboorte":9230,"ĠLeiden":9231,"aut":9232,"gevende":9233,"ĠLam":9234,"neke":9235,"437":9236,"ĠINTER":9237,"Ġverrassen":9238,"ĠWashington":9239,"Ġbedraagt":9240,"ĠDDR":9241,"Ġdankbaar":9242,"Ġinc":9243,"Ġbeschouwen":9244,"Ġschaat":9245,"Ġkred":9246,"ĠPrin":9247,"HUI":9248,"ĠDelf":9249,"ĠLit":9250,"Ġonafhankelijk":9251,"0354":9252,"OOM":9253,"0032":9254,"ureaus":9255,"BM":9256,"HL":9257,"Ġpriv":9258,"Ã¯ne":9259,"Ġverblijf":9260,"Ġconcurrentie":9261,"Ġzorgzame":9262,"Ġstoff":9263,"Ġ276":9264,"ĠTre":9265,"groepen":9266,"OORT":9267,"Ġdoorgaan":9268,"Ġare":9269,"retaresse":9270,"tsin":9271,"urd":9272,"Ġarbeidsvoorwaarden":9273,"iii":9274,"une":9275,"619":9276,"Ġwapen":9277,"Ġgouden":9278,"Ġvermogen":9279,"Ġgeheim":9280,"Ġ266":9281,"ORM":9282,"Ġaankoop":9283,"ĠÃĬ":9284,"West":9285,"Ġprachtig":9286,"gf":9287,"xtra":9288,"ĠSab":9289,"410":9290,"Ġvoornamelijk":9291,"Ġnoorden":9292,"Ġfles":9293,"Ġvee":9294,"Ġschrijf":9295,"Ġner":9296,"Ġ329":9297,"Ġsexy":9298,"hebben":9299,"ĠHi":9300,"woude":9301,"ĠEgyp":9302,"jk":9303,"diploma":9304,"Ġbetrouw":9305,"riekse":9306,"Ġouderen":9307,"ĠAX":9308,"ERM":9309,"ĠPak":9310,"Ġmosl":9311,"Ġ6950":9312,"Ġguldens":9313,"Ġ3950":9314,"mens":9315,"ĠKamp":9316,"ĠZwits":9317,"Ġdek":9318,"ateg":9319,"ĠJack":9320,"ĠLib":9321,"Ġdynam":9322,"Ġverliezen":9323,"0031":9324,"rouwer":9325,"Ġgebeurde":9326,"Ġabsoluut":9327,"straatweg":9328,"jaarden":9329,"626":9330,"Ġnoord":9331,"iast":9332,"Ġfeb":9333,"Ġbes":9334,"0353":9335,"Ġdans":9336,"way":9337,"steen":9338,"Ġloc":9339,"Ġilleg":9340,"GL":9341,"lopende":9342,"ĠGEVRAAGD":9343,"ĠBRU":9344,"ĠZweden":9345,"ĠNEDL":9346,"speler":9347,"Ġbrug":9348,"isje":9349,"ulieren":9350,"Ġtentoonstelling":9351,"Ġvon":9352,"Ġrekenen":9353,"Ġartikelen":9354,"Ġniks":9355,"ĠVakantie":9356,"Ġgetroffen":9357,"ervlak":9358,"Ġrelax":9359,"Ġlil":9360,"Ġgesprekken":9361,"loze":9362,"Ġstoffen":9363,"ĠHul":9364,"centrale":9365,"Ġdal":9366,"ĠHall":9367,"special":9368,"uwd":9369,"ĠKM":9370,"ĠVa":9371,"ĠZwart":9372,"Ġkranten":9373,"ĠBols":9374,"ato":9375,"Ġct":9376,"ĠKE":9377,"0359":9378,"WA":9379,"loper":9380,"HOL":9381,"telefoon":9382,"ammer":9383,"Ġverwachting":9384,"Ġgeregeld":9385,"ĠDames":9386,"ĠRoel":9387,"ĠBerlijn":9388,"Ġoan":9389,"zaakt":9390,"lage":9391,"Ġkantoren":9392,"Ġgepresen":9393,"Ġ346":9394,"line":9395,"ĠAust":9396,"Ġbijkeuken":9397,"Ġachtergrond":9398,"Ġkomst":9399,"0377":9400,"errein":9401,"Ġbeschikken":9402,"Ġill":9403,"PEN":9404,"Ġbetaalt":9405,"0356":9406,"Ã«le":9407,"ASTRICHT":9408,"ĠRel":9409,"Ġverbonden":9410,"meld":9411,"Ġgemeent":9412,"ya":9413,"ĠEconom":9414,"Ġofficier":9415,"ĠFokker":9416,"letjes":9417,"advis":9418,"ĠUSA":9419,"show":9420,"ĠChev":9421,"ambuur":9422,"Ġ_______":9423,"ĠKen":9424,"0019":9425,"ieping":9426,"ĠImp":9427,"hatsu":9428,"ĠDokkum":9429,"ĠJOH":9430,"Ġinvest":9431,"Ġ_âĸł":9432,"Ġhopen":9433,"Ġbijeenkomst":9434,"ĠIntern":9435,"%.":9436,"Ġcd":9437,"bli":9438,"boer":9439,"âĢ¢âĸł":9440,"Ġek":9441,"Ġomvang":9442,"Ġtelt":9443,"Limburg":9444,"gte":9445,"Ġ5950":9446,"Ġ7950":9447,"Ġstappen":9448,"tema":9449,"ĠOVER":9450,"ĠBoven":9451,"Ġstads":9452,"Ġ298":9453,"gids":9454,"Ġ525":9455,"verz":9456,"Ġgestolen":9457,"allic":9458,"Ġoer":9459,"AMER":9460,"centra":9461,"Ġ047":9462,"Ġ287":9463,"0357":9464,"GEL":9465,"ĠMol":9466,"Ġgedrag":9467,"Ġlijken":9468,"Ġflex":9469,"Ġaanvang":9470,"Ġrecreatie":9471,"Ġplaatsing":9472,"ĠSta":9473,"HS":9474,"sper":9475,"Ġgemiddelde":9476,"Ġpat":9477,"vering":9478,"ilever":9479,"Ġnieuwst":9480,"Ġspannen":9481,"ĠHBO":9482,"Ġondernemers":9483,"Ġgoederen":9484,"slotte":9485,"emburg":9486,"heide":9487,"Ġann":9488,"-:":9489,"IIII":9490,"belasting":9491,"Ġbewust":9492,"Ġverzorgen":9493,"Ġjun":9494,"Ġ142":9495,"leverd":9496,"service":9497,"618":9498,"rep":9499,"niet":9500,"ĠNicol":9501,"Sl":9502,"Ġtaken":9503,"Ġrubriek":9504,"Gr":9505,"0025":9506,"Ġfr":9507,"itas":9508,"ĠWeerbericht":9509,"iaste":9510,"ĠTem":9511,"*_":9512,"Ġwellicht":9513,"ĠSovjetunie":9514,"010691818":9515,"0368":9516,"hoofd":9517,"anke":9518,"plechtigheid":9519,"ĠHout":9520,"uderen":9521,"hulp":9522,"0358":9523,"spr":9524,"Ġdoordat":9525,"ĠRay":9526,"Ġnut":9527,"ĠSIER":9528,"Ġafgesloten":9529,"Ġinhoud":9530,"Ġzette":9531,"Ġverzorging":9532,"Ġwapens":9533,"breken":9534,"Ġlijk":9535,"Ġ288":9536,"kade":9537,"Ġzi":9538,"UST":9539,"Ġverantwoordelijkheid":9540,"Ġdis":9541,"Ġregerings":9542,"remier":9543,"ĠToeschouwers":9544,"Ġprov":9545,"Ġadvocaat":9546,"ĠKlein":9547,"elens":9548,"achtige":9549,"Ġweliswaar":9550,"Ġbehalve":9551,"Ġveront":9552,"ĠSPORT":9553,"Ã«nt":9554,"ocratische":9555,"Ġdeuren":9556,"oster":9557,"Ġbeschikking":9558,"0372":9559,"ĠBeet":9560,"ĠSpeurder":9561,"stratie":9562,"ugen":9563,"HOVEN":9564,"ĠDem":9565,"seiz":9566,"Ġgespecial":9567,"0355":9568,"Ġministers":9569,"Ġmanager":9570,"oef":9571,"0362":9572,"Ġdringen":9573,"Ġverspre":9574,"Ġ317":9575,"0020":9576,"ooster":9577,"ĠZO":9578,"ĠNation":9579,"enny":9580,"pakt":9581,"0352":9582,"ZA":9583,"Ġtege":9584,"Ġvacat":9585,"iving":9586,"Ġopgegeven":9587,"Ġvaker":9588,"lijnen":9589,"Ġbenzine":9590,"etra":9591,"Holland":9592,"HIL":9593,"mentaar":9594,"ĠEff":9595,"Ġgewond":9596,"Ġtachtig":9597,"koper":9598,"tussen":9599,"schrijving":9600,"ĠCari":9601,"systeem":9602,"Ġmaatschappij":9603,"bil":9604,"dr":9605,"Ġonmiddellijk":9606,"Ġwaarvoor":9607,"Pr":9608,"Ġchauff":9609,"Ġimport":9610,"ĠDra":9611,"ffende":9612,"sels":9613,"ĠSad":9614,"ĠTOP":9615,"ĠDX":9616,"rey":9617,"bosch":9618,"Ġkond":9619,"0361":9620,"Ġ385":9621,"Ġmode":9622,"Ġnodige":9623,"beweging":9624,"ĠKap":9625,"hagen":9626,"rive":9627,"Ġmd":9628,"Ġzul":9629,"Ġappartementen":9630,"Ġmeege":9631,"0029":9632,"Ġgemiddeld":9633,"ĠKor":9634,"Ġsteeg":9635,"ĠDelft":9636,"Ġactualiteiten":9637,"Ġpoging":9638,"Ġsem":9639,"Ġuitst":9640,"Tele":9641,"Ġbehoort":9642,"alitie":9643,"Ġzekerheid":9644,"ĠBeide":9645,"pand":9646,"versn":9647,"ockey":9648,"ĠObl":9649,"even":9650,"Ġduizend":9651,"413":9652,"ĠJoure":9653,"Ġovername":9654,"Bi":9655,"oei":9656,"Ġaarde":9657,"Ġautomob":9658,"Ġ304":9659,"Ġgedachten":9660,"ria":9661,"Ġ338":9662,"ĠBall":9663,"techniek":9664,"JA":9665,"Ġ950":9666,"Ġonderwerp":9667,"Ġtoepass":9668,"Ġverboden":9669,"mogelijkheden":9670,"Ġ211":9671,"ĠSon":9672,"endelijk":9673,"Ġbeslag":9674,"ulden":9675,"Ġbalkon":9676,"0028":9677,"ĠCity":9678,"ĠLT":9679,"Ġzestien":9680,"ANDA":9681,"ao":9682,"hebbers":9683,"Ġ380":9684,"ERVICE":9685,"Ġtradi":9686,"ĠJJ":9687,"Ġeventuele":9688,"ĠNee":9689,"Ġtheater":9690,"Ġbodem":9691,"ĠAS":9692,"ĠHoogeveen":9693,"Ġaanpak":9694,"ĠSurin":9695,"Ġtex":9696,"PER":9697,"front":9698,"Ġrijdt":9699,"well":9700,"stoffen":9701,"Ġmul":9702,"inr":9703,"Ġmont":9704,"PORT":9705,"URA":9706,"berichten":9707,"ĠBart":9708,"BAL":9709,"Ġoml":9710,"Ġinn":9711,"ĠAnton":9712,"ĠVRIJ":9713,"ĠJONG":9714,"arissen":9715,"ĠBelang":9716,"0365":9717,"Ġzorgt":9718,"pap":9719,"ison":9720,"IEF":9721,"ORK":9722,"Ġhobby":9723,"Ġyou":9724,"voort":9725,"Ġaanleg":9726,"0367":9727,"Ġbeperk":9728,"Ġaccept":9729,"poort":9730,"Ġweder":9731,"Ġmedia":9732,"Ġbehandeld":9733,"Ġiden":9734,"rekingen":9735,"Ġdrama":9736,"ĠLimburgse":9737,"Ġtrouwens":9738,"ĠTi":9739,"Ġreser":9740,"ĠZON":9741,"ĠDank":9742,"Ġbedragen":9743,"ĠCuraga":9744,"ĠUniversiteit":9745,"ĠAanvang":9746,"Advertentie":9747,"ĠRenÃ©":9748,"kshow":9749,"850":9750,"ĠVi":9751,"rente":9752,"ikken":9753,"ĠBOS":9754,"Heer":9755,"outer":9756,"mate":9757,"Ġwezen":9758,"ekker":9759,"Ġ296":9760,"Ġsubsidie":9761,"ail":9762,"ĠCorolla":9763,"::::":9764,"ĠAntill":9765,"Ġ347":9766,"tocht":9767,"aly":9768,"Ġ336":9769,"ĠLos":9770,"0360":9771,"ĠReport":9772,"ĠBelegg":9773,"ĠThom":9774,"Ġ505":9775,"Rad":9776,"ĠVrouw":9777,"ĠONDER":9778,"ĠJaap":9779,"ĠHOM":9780,"ĠKees":9781,"Ġverdwijnen":9782,"Ġ289":9783,"Ġhervorm":9784,"Ġgeren":9785,"Ġinstellingen":9786,"255":9787,"Ġeindelijk":9788,"YD":9789,"ito":9790,"hold":9791,"ĠDo":9792,"Ġ01720":9793,"asse":9794,"ĠTELEF":9795,"ift":9796,"boven":9797,"ingo":9798,"Ġonvol":9799,"ĠJeugd":9800,"0021":9801,"Ġvroegere":9802,"afels":9803,"wat":9804,"ĠBrieven":9805,"ĠVB":9806,"NO":9807,"Ġaanbiedingen":9808,"Ġinteresse":9809,"Ġsneeuw":9810,"ĠTH":9811,"VERS":9812,"unch":9813,"Ġexclusieve":9814,"BEL":9815,"Ġinform":9816,"Ġvoren":9817,"Ġgeraakt":9818,"0027":9819,"Ġplechtige":9820,"ĠgeÃ¯nteress":9821,"0363":9822,"ĠMarcel":9823,"Ġgebeurd":9824,"Ġregeling":9825,"ĠFil":9826,"Ġ366":9827,"Ġgraf":9828,"Ġlangdur":9829,"ĠPostcode":9830,"eting":9831,"0364":9832,"Ġ348":9833,"Ita":9834,"Ġ355":9835,"ĠGol":9836,"ouwen":9837,"Ġ279":9838,"Ġhiel":9839,"uring":9840,"Ġfer":9841,"diensten":9842,"persoon":9843,"ĠHomo":9844,"310":9845,"Ġslaag":9846,"0385":9847,"JEST":9848,"Ġrijks":9849,"ĠDaihatsu":9850,"Ġverga":9851,"ĠWIT":9852,"getrokken":9853,"Ġdreigt":9854,"Ġmodern":9855,"Ġoordeel":9856,"ĠTilburg":9857,"Ġ1979":9858,"Ġklachten":9859,"Ġveroordeeld":9860,"afd":9861,"Ġspreek":9862,"Ġbegroting":9863,"ĠWolf":9864,"ĠHAARLEM":9865,"0026":9866,"Ġapparatuur":9867,"fo":9868,"olitie":9869,"Â©":9870,"Ġtenminste":9871,"Ġoorzaak":9872,"Ġ326":9873,"Ġvoorzieningen":9874,"Ġautoriteiten":9875,"lazen":9876,"Ġgereed":9877,"^,":9878,"Ġstijging":9879,"Ġschuur":9880,"Ġopst":9881,"ĠDordrecht":9882,"anti":9883,"Ġdaad":9884,"0024":9885,"ĠOlympische":9886,"aardoor":9887,"ments":9888,"ĠBuitenlandse":9889,"AZ":9890,"0386":9891,"LET":9892,"ĠArme":9893,"ĠTS":9894,"Ġ4950":9895,"ĠGeorge":9896,"schede":9897,"urope":9898,"ĠJE":9899,"Ġbuit":9900,"Ġveilig":9901,"Pro":9902,"herap":9903,"Gra":9904,"ano":9905,"ĠAH":9906,"Ġtoenem":9907,"==":9908,"sfeer":9909,"Ja":9910,"0369":9911,"Ġ*****":9912,"Ġveertien":9913,"Ġvolwassen":9914,"ĠNieuwsblad":9915,"Ġpla":9916,"BL":9917,"ĠSchot":9918,"ĠReis":9919,"ĠGAR":9920,"Ġ184":9921,"ĠCe":9922,"Ġ8950":9923,"giÃ«":9924,"ARKT":9925,"mf":9926,"uc":9927,"yt":9928,"Ġ1250":9929,"IZ":9930,"ĠBever":9931,"^_^_":9932,"0400":9933,"ĠGTS":9934,"Ġcoach":9935,"uvel":9936,"eters":9937,"Ġtap":9938,"ĠJC":9939,"Ġwoont":9940,"0022":9941,"ĠAfrika":9942,"fractie":9943,"Ġexpositie":9944,"ĠRijk":9945,"umer":9946,"Ġvro":9947,"ĠHand":9948,"Ġdroog":9949,"bol":9950,"rouwd":9951,"tekende":9952,"ĠJj":9953,"ĠLee":9954,"Mi":9955,"NEN":9956,"ĠRegionaal":9957,"ĠWiel":9958,"ĠVoet":9959,"Ġledere":9960,"^^^^^":9961,"ĠFred":9962,"ĠLaser":9963,"ĠCanada":9964,"Ġoorsp":9965,"ĠRust":9966,"ilers":9967,"Ġhon":9968,"Ġblond":9969,"Ġuiteraard":9970,"ermeer":9971,"Ġhouding":9972,"gracht":9973,"Ġdrank":9974,"Ġprincipe":9975,"ĠHerman":9976,"Ġding":9977,"pec":9978,"Ġware":9979,"ĠRabo":9980,"ĠUS":9981,"ronden":9982,"OOL":9983,"Ġtechniek":9984,"Ġperc":9985,"Ġslaapkamer":9986,"PUPS":9987,"ĠCub":9988,"Ġportret":9989,"Ġuiteen":9990,"ĠKijk":9991,"Ġaangekond":9992,"Ġmeldde":9993,"ĠcarriÃ¨re":9994,"Ġondersch":9995,"Ġ356":9996,"ĠAmstelveen":9997,"iens":9998,"Ġzwager":9999,"SEN":10000,"Ġzogenaamde":10001,"Ġ\"-":10002,"deur":10003,"256":10004,"ĠAG":10005,"Ġ330":10006,"ugel":10007,"Ġ319":10008,"ĠMaur":10009,"ĠHOL":10010,"ĠBov":10011,"Ġuitger":10012,"ĠEB":10013,"0375":10014,"Ġherstel":10015,"Ġ312":10016,"Den":10017,"0376":10018,"ĠGeopend":10019,"ĠAcc":10020,"ĠLuc":10021,"Ġgestart":10022,"empl":10023,"Onder":10024,"Ġmeerdere":10025,"orno":10026,"atisering":10027,"ĠDom":10028,"981":10029,"kanteldak":10030,"ĠSchie":10031,"politie":10032,"Ġcass":10033,"ĠTheater":10034,"ĠSpeurders":10035,"ijl":10036,"rix":10037,"bung":10038,"Ġ349":10039,"denk":10040,"schak":10041,"gezand":10042,"010646068":10043,"Ġveranderen":10044,"ĠMini":10045,"0379":10046,"Ġ335":10047,"ĠMM":10048,"ĠDuitsers":10049,"Ġ322":10050,"ĠJeltsin":10051,"ĠALLE":10052,"itesse":10053,"Ġenorm":10054,"Ġzuster":10055,"ĠPalestijnse":10056,"0370":10057,"Ġverdwenen":10058,"Ġgenoemde":10059,"0023":10060,"asie":10061,"Ġgeleid":10062,"ĠAustralische":10063,"generaal":10064,"ĠGER":10065,"standers":10066,"Ġtoeristen":10067,"Ġ*^":10068,"Ġduurt":10069,"ental":10070,"Ġbol":10071,"SSEL":10072,"Ġkijkt":10073,"iegel":10074,"URS":10075,"Ġlift":10076,"Ġhaalde":10077,"01069199":10078,"ikte":10079,"vle":10080,"ĠIm":10081,"JO":10082,"ĠGLS":10083,"ĠZelfs":10084,"wijze":10085,"haal":10086,"Ġwerkloos":10087,"Ġenthousiaste":10088,"Ġabsol":10089,"eisen":10090,"Ġgemeenteraad":10091,"ĠHON":10092,"med":10093,"uer":10094,"0378":10095,"Ġhar":10096,"ĠZuida":10097,"spre":10098,"berts":10099,"erings":10100,"ĠER":10101,"ĠbeÃ«":10102,"Ġerf":10103,"OTEL":10104,"ĠSIERRA":10105,"BIED":10106,"rim":10107,"ĠRoda":10108,"ĠTorn":10109,"Ġcaravans":10110,"Ġep":10111,"Ġrondom":10112,"Ġhor":10113,"ĠOo":10114,"Bo":10115,"Ġvolop":10116,"ĠWas":10117,"ĠBec":10118,"Ġ365":10119,"Ġwijzen":10120,"Ġleeft":10121,"0371":10122,"ONA":10123,"995":10124,"ĠEcht":10125,"assa":10126,"malig":10127,"Ġnamens":10128,"Ġzand":10129,"Ġtegemoet":10130,"Ġdeden":10131,"IGE":10132,"Ġstoel":10133,"0383":10134,"ĠSing":10135,"juist":10136,"ĠÃĭ":10137,"ĠTussen":10138,"ineken":10139,"ĠEs":10140,"Ġatt":10141,"0382":10142,"Ġopslag":10143,"Ġtegenwoordig":10144,"ategorie":10145,"Ġfran":10146,"schaft":10147,"ĠMov":10148,"ĠJoop":10149,"ĠSele":10150,"0373":10151,"fabriek":10152,"voetbal":10153,"010645990":10154,"ĠMakelaardij":10155,"ĠDieren":10156,"Ġverplicht":10157,"Ġzover":10158,"Ġmaakten":10159,"maakte":10160,"gevraagd":10161,"diend":10162,"ĠHD":10163,"keuring":10164,"alem":10165,"Ġlijden":10166,"Ġhond":10167,"ĠLie":10168,"pension":10169,"Ġcur":10170,"ĠAntwoord":10171,"ĠRond":10172,"Ġtegenstander":10173,"ĠAanv":10174,"ĠGerrit":10175,"Ġhandels":10176,"Ġnadere":10177,"ĠDAM":10178,"Ġgepresenteerd":10179,"Ġdefinitief":10180,"414":10181,"Ġpakket":10182,"ĠWolv":10183,"Ġhaal":10184,"chem":10185,"Ġverslaggevers":10186,"Ġaardig":10187,"Ġ//":10188,"ĠSH":10189,"ĠTuin":10190,"Ġspr":10191,"hn":10192,"wift":10193,"296":10194,"ĠDisc":10195,"Ġ02155":10196,"Ġseconden":10197,"ĠDonderdag":10198,"athon":10199,"Ġfusie":10200,"ĠâĻ¦":10201,"Ma":10202,"Ġarts":10203,"don":10204,"Ġgestuurd":10205,"ĠRente":10206,"*âĸł":10207,"Ġkennisgeving":10208,"Ġoversch":10209,"Ġsoap":10210,"Ġstoppen":10211,"ĠSpr":10212,"Ġ183":10213,"0374":10214,"szins":10215,"Ġstarten":10216,"ĠVijf":10217,"ĠElk":10218,"aco":10219,"Ġforse":10220,"Ġslaan":10221,"Ġminstens":10222,"Ġregionale":10223,"Ġscp":10224,"fj":10225,"VS":10226,"ĠGarage":10227,"Ġramp":10228,"anne":10229,"ĠHeeft":10230,"geef":10231,"Ġbusiness":10232,"ĠKA":10233,"Ġroyale":10234,"Wil":10235,"ĠBes":10236,"Ġ013":10237,"ulling":10238,"wijd":10239,"EKER":10240,"0380":10241,"Ġechtgenote":10242,"los":10243,"Ġcrematieplechtigheid":10244,"Ġmevr":10245,"stijds":10246,"Ġspo":10247,"ĠIl":10248,"ĠRG":10249,"ĠGeert":10250,"Ġbaby":10251,"0388":10252,"Ġ'âĢ¢":10253,"Ġaang":10254,"MEN":10255,"hoeve":10256,"IDD":10257,"EMENT":10258,"metallic":10259,"vangel":10260,"ĠJL":10261,"ĠGalant":10262,"ĠWW":10263,"Ġkei":10264,"Ġdiens":10265,"-âĸł":10266,"ĠKoninklijke":10267,"Ġ05980":10268,"AULT":10269,"Noord":10270,"700":10271,"ĠLuxemburg":10272,"TON":10273,"sman":10274,"ĠLAND":10275,"Ġleiders":10276,"Ġschrijver":10277,"sraad":10278,"Deze":10279,"Ġ4000":10280,"Ġvertelde":10281,"ĠMOTOR":10282,"Spa":10283,"Ġdame":10284,"Ġvervangen":10285,"Ġrendement":10286,"ĠMic":10287,"Ġingezet":10288,"0396":10289,"ĠVide":10290,"Ġ911":10291,"ĠEnschede":10292,"Ġ9000":10293,"Ġsloop":10294,"ĠCiv":10295,"ĠWOON":10296,"Ġaanvankelijk":10297,"dex":10298,"Ġtand":10299,"ĠWagen":10300,"0433":10301,"Ġgene":10302,"ical":10303,"Radio":10304,"ĠMaat":10305,"Ġopbouw":10306,"Ġuniversiteit":10307,"ovens":10308,"uwer":10309,"Ġtol":10310,"ĠHaagse":10311,"Ġspeler":10312,"Ġvrijheid":10313,"UID":10314,"ĠAct":10315,"Ġ*\"\"":10316,"Ġtest":10317,"Ġdefensie":10318,"Ġstim":10319,"JESTAD":10320,"Ġrecep":10321,"Ġopzet":10322,"Ġreparatie":10323,"Ġinkl":10324,"Ġaula":10325,"ĠOF":10326,"ĠNor":10327,"ĠNaties":10328,"ĠIndia":10329,"Ġ337":10330,"Ġbeweging":10331,"eland":10332,"ĠMilieu":10333,"Ġeerlijk":10334,"ROTTERDAM":10335,"Ġsauna":10336,"igings":10337,"Ġbekendgemaakt":10338,"214":10339,"mensen":10340,"0381":10341,"cohol":10342,"Ġgedwongen":10343,"Ġbord":10344,"AKANTIE":10345,"ĠGroene":10346,"gezond":10347,"Ġhoewel":10348,"Ġomroep":10349,"Ġ163":10350,"Ġschitterende":10351,"Ġverdeeld":10352,"otheken":10353,"Ġinzicht":10354,"Ġoudere":10355,".*":10356,"Ġfir":10357,"Ġboekje":10358,"KO":10359,"feest":10360,"Ġbaas":10361,"ĠBlauw":10362,"rens":10363,"Ġ05910":10364,"ĠLada":10365,"Ġgod":10366,"1387":10367,"eppel":10368,"ĠNatuurlijk":10369,"ĠValkenburg":10370,"Ġ.'":10371,"ĠOnd":10372,"Un":10373,"Ġonzeker":10374,"Ġinbouw":10375,"rees":10376,"Ġsom":10377,"house":10378,"ukte":10379,"Ġcel":10380,"ĠKleine":10381,"ĠAth":10382,"gegeven":10383,"ĠBay":10384,"Ġlagere":10385,"star":10386,"IDS":10387,"Ġwal":10388,"ECIAL":10389,"Ġaantrekkelijke":10390,"cuit":10391,"ĠEst":10392,"INI":10393,"Ġdraai":10394,"allel":10395,"nod":10396,"ua":10397,"Ġsportv":10398,"625":10399,"Ġmit":10400,"Ġmassage":10401,"ĠTok":10402,"Ġuitz":10403,"ities":10404,"ĠSR":10405,"Ġparochiekerk":10406,"toernooi":10407,"volu":10408,"Ġmedeleven":10409,"ĠPanda":10410,"ĠVia":10411,"anderen":10412,"Ġachterstand":10413,"Ġtrailer":10414,"holieke":10415,"Ġstandaard":10416,"Ã¶n":10417,"genen":10418,"0416":10419,"mmmmmmmm":10420,"Ġ2950":10421,"gaven":10422,"0384":10423,"leen":10424,"Ġverbouw":10425,"GPD":10426,"kmaar":10427,"ĠGh":10428,"Ġstamboom":10429,"inders":10430,"ĠIK":10431,"ĠFL":10432,"ĠSO":10433,"ĠFonds":10434,"Ġfraai":10435,"WIJK":10436,"festival":10437,"Ġlam":10438,"Ġbeker":10439,"PLE":10440,"hui":10441,"ĠAlgemeen":10442,"ĠAUTOMAAT":10443,"Ġverdachte":10444,"Ġconflict":10445,"Ġexamen":10446,"Ġschaal":10447,"0387":10448,"ĠUUR":10449,"ĠHl":10450,"Ġnmb":10451,"ĠPER":10452,"Ġvormt":10453,"ĠVPRO":10454,"PAR":10455,"0391":10456,"ĠBerk":10457,"Ġversla":10458,"ĠChinese":10459,"ĠSpelen":10460,"Ġgeleverd":10461,"Ġevenals":10462,"Ġinvent":10463,"Ġ388":10464,"ĠAndrÃ©":10465,"Ġarg":10466,"Ġvervolg":10467,"elschap":10468,"Ben":10469,"Ġomst":10470,"dg":10471,"Ġgebleven":10472,"ĠÃĸ":10473,"Ġoverk":10474,"ologisch":10475,"Ġtarieven":10476,"dividend":10477,"opers":10478,"Ġhypotheek":10479,"Ġsteken":10480,"Ã¶r":10481,"212":10482,"ĠMooie":10483,"Ġaa":10484,"Ġcr":10485,"Ġspier":10486,"IZEN":10487,"ĠBureau":10488,"Ġgrenzen":10489,"ĠNederlander":10490,"425":10491,"arre":10492,"inten":10493,"ĠLeo":10494,"gesprek":10495,"Ġreserv":10496,"atoren":10497,"0393":10498,"0403":10499,"sele":10500,"structie":10501,"ĠSW":10502,"Ġontslag":10503,"423":10504,"Ġ339":10505,"Ġopzichte":10506,"udget":10507,"ureel":10508,"wedstrijden":10509,"ĠBrabant":10510,"Ġpredik":10511,"FA":10512,"sprogramma":10513,"529":10514,"ĠVerkoop":10515,"ĠOh":10516,"Ġpolitici":10517,"Ġrepresent":10518,"ellingen":10519,"Ġkleinkinderen":10520,"Ġeigenschappen":10521,"horst":10522,"ordeaux":10523,"Ġvanmorgen":10524,"^\\":10525,"ĠRi":10526,"ĠRonald":10527,"ĠTsj":10528,"itters":10529,"atic":10530,"0390":10531,"ĠTER":10532,"Ġkennelijk":10533,"rice":10534,"Ġcruis":10535,"0395":10536,"atisch":10537,"ĠMAK":10538,"426":10539,"ĠHH":10540,"zijds":10541,"Ġboerderij":10542,"Ġachterk":10543,"ĠKas":10544,"Ġgehandicap":10545,"Ġpaard":10546,"EGA":10547,"Ġwetenschap":10548,"ury":10549,"uma":10550,"ĠMadrid":10551,"Ġzeventig":10552,"Ġ9950":10553,"0397":10554,"Ġ343":10555,"Ġâĸłâĸłâĸł":10556,"stede":10557,"latie":10558,"imm":10559,"ĠNie":10560,"Ġ805":10561,"ĠBU":10562,"Ġopvang":10563,"ivisie":10564,"ili":10565,"213":10566,"ongres":10567,"*>":10568,"ĠIndien":10569,"436":10570,"Ġgear":10571,"';":10572,"schip":10573,"elli":10574,"Ġâĸ¡":10575,"ĠAntwerpen":10576,"ĠCOL":10577,"Ġ02207":10578,"Ġbemiddel":10579,"ZW":10580,"Ġ193":10581,"iller":10582,"EGEN":10583,"NN":10584,"Ġfilms":10585,"ĠSUP":10586,"%,":10587,"ĠSchrifte":10588,"ereen":10589,"0389":10590,"EX":10591,"Ġschol":10592,"Ġ277":10593,"dema":10594,"ĠSom":10595,"cours":10596,"ĠLar":10597,"Ġveroorzaakt":10598,"agers":10599,"Ġzenden":10600,"Ġschoonz":10601,"ĠSollicit":10602,"agn":10603,"Ġsym":10604,"Ġgebeurten":10605,"ĠAg":10606,"Ġchristen":10607,"cer":10608,"ĠRonde":10609,"loyd":10610,"Ġvestigingen":10611,"ĠSil":10612,"Ġchristelijke":10613,"Ġ.^":10614,"ĠAvond":10615,"RUIS":10616,"Ġvelen":10617,"0410":10618,"Ġring":10619,"alde":10620,"ĠANC":10621,"Ġ387":10622,"ĠTor":10623,"Ġkrediet":10624,"Ġsj":10625,"oudige":10626,"Ġaantrekkelijk":10627,"ĠLinks":10628,"Ġeilanden":10629,"0404":10630,"Ġcong":10631,"Ġverre":10632,"Ġcontant":10633,"inie":10634,"Ġvonden":10635,"ĠCanade":10636,"0394":10637,"ĠZeven":10638,"ĠPLO":10639,"_,":10640,"Ġplechtigheid":10641,"0401":10642,"ĠServiÃ«rs":10643,"ady":10644,"Ġtreden":10645,"Ġ1950":10646,"ĠSaddam":10647,"wisseling":10648,"nieuws":10649,"Ġverminder":10650,"Ġbezwaren":10651,"orea":10652,"010646010":10653,"0414":10654,"verkiez":10655,"Ġonvoldoende":10656,"ĠPL":10657,"Ġantiek":10658,"Ġ267":10659,"ĠEnkele":10660,"ĠMG":10661,"ĠDelfzijl":10662,"nav":10663,"ĠRijs":10664,"ĠTURBO":10665,"yr":10666,"Ġaanmerking":10667,"Ġmuur":10668,"ASH":10669,"Ġoccasions":10670,"ENK":10671,"ĠHoekstra":10672,"ĠCuragao":10673,"kst":10674,"legatie":10675,"Ġvoll":10676,"Ġfors":10677,"ronde":10678,"Ġzelfstandige":10679,"Ġreeks":10680,"Ġ152":10681,"ĠWEEK":10682,"Amerik":10683,"Ġeffect":10684,"ĠMEIS":10685,"achel":10686,"Ġoffer":10687,"so":10688,"ĠBreuk":10689,"Ġgeldig":10690,"Ti":10691,"Ġmw":10692,"IDEN":10693,"Ġmaak":10694,"Ġpositieve":10695,"ĠHor":10696,"Ġvet":10697,"Ġdikke":10698,"Ġlandelijk":10699,"ONS":10700,"roefd":10701,"ĠRENAULT":10702,"aires":10703,"Se":10704,"ĠAlb":10705,"vuldig":10706,"Ġfaill":10707,"Ġbewijs":10708,"ĠBem":10709,"lig":10710,"ĠCu":10711,"ĠElect":10712,"ĠSes":10713,"ĠCru":10714,"ĠAndre":10715,"ĠUniek":10716,"lon":10717,"Ġ313":10718,"Ġzus":10719,"rikant":10720,"ĠFer":10721,"ĠTeken":10722,"Ġ\"\"*":10723,"ĠRoe":10724,"Ġvoeten":10725,"0402":10726,"ĠTurkije":10727,"ĠDR":10728,"Ġlangere":10729,"dacteur":10730,"0106914":10731,"vige":10732,"ĠCenter":10733,"gevonden":10734,"Ġvaar":10735,"lim":10736,"Ġverkeert":10737,"ĠHoogezand":10738,"Ġgerest":10739,"Ġ7500":10740,"Ġverf":10741,"DO":10742,"plaat":10743,"ĠVeronica":10744,"0408":10745,"0399":10746,"Ġbeen":10747,"ĠPolitie":10748,"Ġlijf":10749,"UNG":10750,"422":10751,"ĠGeb":10752,"Ġinterview":10753,"ĠideeÃ«n":10754,"Ġopgel":10755,"osc":10756,"0415":10757,"Ġstrekt":10758,"koers":10759,"ĠGed":10760,"Ġoverheids":10761,"ĠZwitserland":10762,"STA":10763,"Ġhr":10764,"ieven":10765,"ĠSchoon":10766,"ĠCommissie":10767,"ĠMisschien":10768,"Ġchamp":10769,"Ġdestijds":10770,"Ġemo":10771,"ĠBot":10772,"0392":10773,"anny":10774,"flfl":10775,"Ġbezoeken":10776,"aster":10777,"leiders":10778,"Jl":10779,"Ġserieus":10780,"Ġpassag":10781,"ĠAlm":10782,"Ġetappe":10783,"Ġvoorn":10784,"0405":10785,"ĠAlkmaar":10786,"ĠPier":10787,"ĠDis":10788,"icus":10789,"Ġhangt":10790,"ĠHoorn":10791,"0419":10792,"Ġbetrekking":10793,"Ġ1978":10794,"odium":10795,"Ġverrass":10796,"onderwijs":10797,"Ġkast":10798,"ves":10799,"Ġ278":10800,"ĠPullman":10801,"DF":10802,"Ġ297":10803,"Ġpresen":10804,"Ġafd":10805,"ital":10806,"Ġonderzoeken":10807,"Ġlekkere":10808,"Ġoefen":10809,"ĠBag":10810,"Ġdiplom":10811,"Twee":10812,"gekeurd":10813,"Ġ257":10814,"Ġnieuwbouw":10815,"ĠTL":10816,"ĠNMB":10817,"Ġsmaak":10818,"Ġ389":10819,"Ġ1900":10820,"verkeer":10821,"ror":10822,"Ġvoorbereid":10823,"ĠWolvega":10824,"Ġdraagt":10825,"Ġzacht":10826,"ĠClinton":10827,"durend":10828,"ĠArabische":10829,"schappijen":10830,"schot":10831,"Ġgoedkoper":10832,"elingen":10833,"ĠÆĴB":10834,"Ġfrank":10835,"haald":10836,"ĠJur":10837,"ITT":10838,"unstige":10839,"any":10840,"0398":10841,"Ġhoeven":10842,"aseerd":10843,"vere":10844,"Ġsteen":10845,"irl":10846,"Ġgood":10847,"ĠDaardoor":10848,"ray":10849,"deratie":10850,"ĠAngel":10851,"ĠChrysler":10852,"boten":10853,"ĠTha":10854,"Ġgeslaagd":10855,"Ġ-.":10856,"ĠEÃ©n":10857,"ifte":10858,"oloog":10859,"ĠGods":10860,"0413":10861,"Ġbeslissen":10862,"ĠSara":10863,"Ġvolt":10864,"idl":10865,"ĠNAVO":10866,"VERTENTIE":10867,"Ġleidde":10868,"Ġjurid":10869,"werkings":10870,"vliet":10871,"Ġgeorganiseerd":10872,"0450":10873,"kanaal":10874,"ĠSpaar":10875,"Ġgreep":10876,"ĠNoorder":10877,"JS":10878,"0420":10879,"Ġcao":10880,"Ġaccessoires":10881,"Ġrace":10882,"Ġverover":10883,"Ġyen":10884,"Ġbungalows":10885,"ĠInj":10886,"ĠRock":10887,"anisatie":10888,"ĠRuime":10889,"Ġfol":10890,"igend":10891,"Ġba":10892,"Ġq":10893,"CA":10894,"Ġfav":10895,"ĠKre":10896,"zonden":10897,"Ġinteressante":10898,"NOS":10899,"volgende":10900,"Ġnon":10901,"asc":10902,"ankelijke":10903,"Ġovertuigd":10904,"Ġ3750":10905,"ooid":10906,"PL":10907,"Ġleverde":10908,"Ġ269":10909,"0422":10910,"ento":10911,"Ġ141":10912,"ĠAnders":10913,"Ġ194":10914,"Ġwethouder":10915,"Ġontwikkelen":10916,"Ġroest":10917,"ĠStel":10918,"pot":10919,"Ġsoldaten":10920,"Ġered":10921,"isatie":10922,"tz":10923,"622":10924,"010691903":10925,"ĠSanta":10926,"concern":10927,"IPS":10928,"Ġgeliefde":10929,"Ġperfect":10930,"Ġoproep":10931,"blok":10932,"ĠWaarom":10933,"Ġcoalitie":10934,"Ġschepen":10935,"ĠBul":10936,"ĠKOERS":10937,"Ġorgel":10938,"fondsen":10939,"ĠBANK":10940,"0409":10941,"Ġvice":10942,"ĠHUUR":10943,"fax":10944,"ĠcoÃ¶rdin":10945,"Ġ367":10946,"ĠMOO":10947,"ĠLeon":10948,"0411":10949,"letje":10950,"Unie":10951,"ĠHeil":10952,"ublic":10953,"rain":10954,"Ġdaarover":10955,"Ġ}":10956,"ĠVictor":10957,"Ġgemeld":10958,"0417":10959,"1000":10960,"ĠStations":10961,"gevo":10962,"INKEL":10963,"Ġconclusie":10964,"ĠCombi":10965,"kol":10966,"Ġexempl":10967,"Ġbese":10968,"-âĢĶ":10969,"0412":10970,"arken":10971,"jectie":10972,"ittann":10973,"Ġtwijfel":10974,"Nu":10975,"ffers":10976,"Ġfuncties":10977,"ĠHOOG":10978,"Ġsun":10979,"medewerker":10980,"ĠVervol":10981,"ĠBAR":10982,"ĠHas":10983,"radio":10984,"527":10985,"grote":10986,"Ġfouten":10987,"loo":10988,"ukt":10989,"ĠFra":10990,"ĠHeem":10991,"Ġ03200":10992,"DR":10993,"0436":10994,"tegra":10995,"Ġvru":10996,"sluiten":10997,"ISCHE":10998,"urk":10999,"azijn":11000,"Groningen":11001,"ĠUT":11002,"AREN":11003,"ATERDAG":11004,"NIE":11005,"Ġconst":11006,"ecu":11007,"BOX":11008,"ĠLeu":11009,"riessen":11010,"Ġrek":11011,"ierd":11012,"ĠâĢĶâĢĶ":11013,"ROEN":11014,"EDEWERK":11015,"standen":11016,"isa":11017,"ĠCambuur":11018,"ĠMichel":11019,"makers":11020,"Ġbenen":11021,"voorziening":11022,"ĠNeem":11023,"ĠSparta":11024,"Ġlood":11025,"ĠPRI":11026,"TC":11027,"Ġbrandweer":11028,"VW":11029,"Oost":11030,"Ġsymp":11031,"UG":11032,"ĠZuider":11033,"heersing":11034,"223":11035,"Ġaanzienlijk":11036,"ĠSub":11037,"0435":11038,"Ġstacaravans":11039,"bird":11040,"Ġkoe":11041,"0437":11042,"round":11043,"Ġroute":11044,"0406":11045,"IAN":11046,"Ġvuil":11047,"ĠKol":11048,"Ġspanning":11049,"Ġgestegen":11050,"Ġdez":11051,"Ġuitzend":11052,"Ġstemming":11053,"ĠTerwijl":11054,"Ġstandpunt":11055,"416":11056,"derde":11057,"Ġspoedig":11058,"furt":11059,"ingers":11060,"ĠFranc":11061,"Ġdroom":11062,"ILL":11063,"aria":11064,"Ġontdekt":11065,"ĠRijksweg":11066,"Ġdaart":11067,"Ġamer":11068,"ĠPalestijnen":11069,"Ġingrijpen":11070,"ĠRomeo":11071,"Ġergens":11072,"Ġwerkelijkheid":11073,"ĠVorig":11074,"Ġbox":11075,"Ġup":11076,"informatie":11077,"vatting":11078,"tro":11079,"ĠTar":11080,"0407":11081,"Ġtrots":11082,"Ġklap":11083,"ĠYen":11084,"AVAN":11085,"Ġvoorbereiding":11086,"ORAN":11087,"vesting":11088,"ulde":11089,"ĠSuriname":11090,"bon":11091,"ssure":11092,"Ġsloot":11093,"Ġhaast":11094,"Ġfisc":11095,"Ġ02977":11096,"buiten":11097,"Ġasielzoekers":11098,"uta":11099,"elijkse":11100,"Ġwerkte":11101,"Ġredenen":11102,"0425":11103,"Ġatle":11104,"456":11105,"Ġrelig":11106,"Or":11107,":âĸł":11108,"Ġ173":11109,"ĠPlan":11110,"PS":11111,"tende":11112,"icc":11113,"Ġ6000":11114,"immen":11115,"ĠAutomobiel":11116,"beker":11117,"oda":11118,"sthe":11119,"uleren":11120,"ĠWaal":11121,"wood":11122,"iiiiiiii":11123,"624":11124,"Ġdiscreet":11125,"Ġartsen":11126,"SPORT":11127,"ĠDirect":11128,"Ġ234":11129,"ĠSwift":11130,"Ġ396":11131,"Ġmini":11132,"Ġwarme":11133,"ĠMee":11134,"ĠZeeland":11135,"Ġruil":11136,"ĠKem":11137,"614":11138,"ĠEvt":11139,"elende":11140,"iÃ«rra":11141,"oerden":11142,"ĠGrieken":11143,"RUIM":11144,"Ġ1700":11145,"NVB":11146,"ross":11147,"Ġwaaraan":11148,"ĠOs":11149,"Ex":11150,"arische":11151,"Ġoptim":11152,"periode":11153,"ĠTW":11154,"Ġgezamenlijke":11155,"uiter":11156,"geest":11157,"onom":11158,"kunde":11159,"ani":11160,"Ġfantast":11161,"Ġflinke":11162,"kasten":11163,"Ġwerkgelegenheid":11164,"Ġ410":11165,"Jj":11166,"ĠBRE":11167,"ĠDerde":11168,"ĠCult":11169,"ĠAnn":11170,"Ġkal":11171,"banken":11172,"itor":11173,"Ġverbetering":11174,"Ġveranderd":11175,"ĠWoord":11176,"UNT":11177,"ĠAZ":11178,"antal":11179,"Ġexploit":11180,"Ġverzekerd":11181,"Ġtoeschouwers":11182,"ĠSiÃ«rra":11183,"Ġspre":11184,"cherche":11185,"zetting":11186,"werf":11187,"ĠFie":11188,"616":11189,"0427":11190,"JL":11191,"Ġgedacht":11192,"Ġtempo":11193,"Ġ259":11194,"Ġsnelheid":11195,"ĠGOED":11196,"museum":11197,"ronk":11198,"Ġbehoorlijk":11199,"ici":11200,"Ġram":11201,"ĠBET":11202,"Ġnummers":11203,"Ġkont":11204,"akkoord":11205,"Ġmix":11206,"Ġarrest":11207,"Ġoverledene":11208,"ĠAustraliÃ«":11209,"ĠROTTERDAM":11210,"Ġgids":11211,"0423":11212,"Ġcomputers":11213,"ĠOndanks":11214,"Ġwand":11215,"ĠTip":11216,"Ġaanslag":11217,"GER":11218,"gestelde":11219,"Ġ\".":11220,"Ġalu":11221,"Ġbier":11222,"217":11223,"CS":11224,"0442":11225,"Ġturbo":11226,"Ġwenst":11227,"Ġorganiseert":11228,"0440":11229,"itische":11230,"Ġontsn":11231,"ĠSEC":11232,"650":11233,"ĠZeker":11234,"Ġ420":11235,"Ġreportage":11236,"Waar":11237,"bedien":11238,"leraar":11239,"Ġdichter":11240,"ZDA":11241,"ĠKal":11242,"Ġui":11243,"PH":11244,"Ġbestemming":11245,"Ġbun":11246,"Ġ379":11247,"oets":11248,"Ġhangen":11249,"ĠDocument":11250,"ubileum":11251,"Ġonderling":11252,"Ġcrisis":11253,"gz":11254,"Ġ377":11255,"^âĢĶ":11256,"minister":11257,"schriften":11258,"Ġraken":11259,"yon":11260,"ĠHONDA":11261,"gene":11262,"Ġul":11263,"ĠBill":11264,"0429":11265,"ĠState":11266,"ĠRecht":11267,"AUTO":11268,"ands":11269,"ĠFle":11270,"ĠRuud":11271,"419":11272,"Ġsloeg":11273,"Ġdin":11274,"ĠLeg":11275,"erke":11276,"Ġtonen":11277,"Ġexcurs":11278,"utel":11279,"Ġaldaar":11280,"CHN":11281,"Ġvanzelf":11282,"ĠFOTO":11283,"zaamheden":11284,"allaties":11285,"Ġassist":11286,"Ġbezorgd":11287,"ĠTol":11288,"AMA":11289,"ĠKerken":11290,"Ġversterk":11291,"Ġ02290":11292,"Ġjl":11293,"Ġmeubelen":11294,"iÃ«nten":11295,"ĠLaatste":11296,"Ġdig":11297,"ely":11298,"Ġplanten":11299,"skanaal":11300,"Ġgezondheidszorg":11301,"Ġboom":11302,"Ġuitvoeren":11303,"Ġdegelijk":11304,"amma":11305,"seizoen":11306,"Ġia":11307,"Ġtab":11308,"Ġcongres":11309,"dad":11310,"Ġonth":11311,"ĠJl":11312,"beh":11313,"Ġafger":11314,"Tl":11315,"maar":11316,"slaan":11317,"Ġzult":11318,"Ġveiling":11319,"ĠWesten":11320,"achter":11321,"Ġbenader":11322,"Ġuitkering":11323,"Ġverzocht":11324,"0426":11325,"Ġalsof":11326,"commun":11327,"tiev":11328,"ĠSar":11329,"ĠHOR":11330,"levard":11331,"Ġtoonde":11332,"ĠGereformeerde":11333,"Ġein":11334,"Ġgebleken":11335,"perk":11336,"Ġzolang":11337,"Ġparticuliere":11338,"ĠSA":11339,"ĠFR":11340,"Ġsneller":11341,"Ġtoestemming":11342,"ĠSimon":11343,"gevuld":11344,"ĠGesch":11345,"heff":11346,"BOUW":11347,"0424":11348,"ĠGTI":11349,"utt":11350,"Ġbewijzen":11351,"ned":11352,"tuin":11353,"Ġ311":11354,"voorstel":11355,"ican":11356,"ĠOnderwijs":11357,"ĠHit":11358,"hode":11359,"Ġvoortdurend":11360,"Ġnormale":11361,"bran":11362,"oger":11363,"Ġmiddags":11364,"Ġovereenkomst":11365,"iÃ¨re":11366,"Ġverschijn":11367,"Ġdraait":11368,"0421":11369,"ĠBovag":11370,"Ġbonden":11371,"Ġproje":11372,"Ġgezag":11373,"leding":11374,"Ġjaarlijkse":11375,"Is":11376,"Ġintro":11377,"ilde":11378,"._":11379,"Ġdatum":11380,"ertijd":11381,"ĠBeat":11382,"Ġ053":11383,"Ġvastgesteld":11384,"ĠVaste":11385,"wijfeld":11386,"cijfers":11387,"Ġfebr":11388,"Ġero":11389,"ĠManagement":11390,"ĠLinden":11391,"0432":11392,"ĠWoning":11393,"0428":11394,"Ġleed":11395,"Ġenthousiast":11396,"/^":11397,"Ġvisie":11398,"tekening":11399,"ĠMensen":11400,"Ġkunststof":11401,"ĠHill":11402,"Ġklassieke":11403,"0446":11404,"ĠHUIS":11405,"ĠZwit":11406,"oring":11407,"Ġword":11408,"kings":11409,"igende":11410,"Ġverkeerde":11411,"ĠMTS":11412,"LOYD":11413,"Ġoperatie":11414,"ĠPostbank":11415,"Ġechtpaar":11416,"uns":11417,"iere":11418,"kat":11419,"ĠVak":11420,"0430":11421,"Ġmoeilijke":11422,"ĠRoyal":11423,"bliotheek":11424,"Ġploegen":11425,"cia":11426,"kenning":11427,"0438":11428,"AART":11429,"ĠNou":11430,"ĠIg":11431,"Ġjullie":11432,"Ġ05908":11433,"ddd":11434,"Ġhetgeen":11435,"ouders":11436,"Ġvaart":11437,"Ġzend":11438,"chtiging":11439,"tiviteit":11440,"ĠMannen":11441,"pas":11442,"bureaus":11443,"010643":11444,"OORN":11445,"Ġgevoerd":11446,"Ġwoonruimte":11447,"Ġboer":11448,"Ġbegele":11449,"ĠFar":11450,"werd":11451,"ICK":11452,"mpeg":11453,"didl":11454,"ĠPERS":11455,"0445":11456,"0444":11457,"ĠDU":11458,"ugal":11459,"Ġledereen":11460,"schen":11461,"kleding":11462,"Ġstaten":11463,"ĠgeÃ¯nteresseerd":11464,"ĠOlie":11465,"ĠCarib":11466,"ĠAals":11467,"orteur":11468,"0477":11469,"Ġrem":11470,"Ġbondscoach":11471,"Ġdaartoe":11472,"ĠPOST":11473,"ukken":11474,".-;":11475,"Ġhaalt":11476,"Ġbrons":11477,"gi":11478,"Ġwielen":11479,"ĠBarbar":11480,"Ġpm":11481,"ipper":11482,"Ġmes":11483,"ĠHus":11484,"inium":11485,"ingt":11486,"0443":11487,"655":11488,"YP":11489,"Ġzorgde":11490,"temp":11491,"Ġantw":11492,"ello":11493,"Ġunivers":11494,"ÃīÃī":11495,"Ġontmoeting":11496,"Ġdonkerblauw":11497,"0434":11498,"HOW":11499,"IAT":11500,"Ġlied":11501,"0441":11502,"ĠPb":11503,"Ġbesteed":11504,"ĠConcert":11505,"Ġgauw":11506,"ĠBlack":11507,"ĠRef":11508,"staanden":11509,"0447":11510,"ĠEll":11511,"iment":11512,"Ġcer":11513,"ĠHaas":11514,"Ġjarenlang":11515,"aguar":11516,"Ġgebaseerd":11517,"ĠANT":11518,"0488":11519,"Ġkanten":11520,"Ġhierbij":11521,"Ġagenda":11522,"ooft":11523,"Ġtu":11524,"Ġtoont":11525,"ĠHelder":11526,"Ġ243":11527,"Ġkoopt":11528,"ĠRandstad":11529,"ĠKinderen":11530,"orders":11531,"ĠAanb":11532,"jer":11533,"Ġdir":11534,"stoel":11535,"bladen":11536,"ĠMarco":11537,"vergadering":11538,"ĠCivic":11539,"irts":11540,"jaren":11541,"Ã¼s":11542,"Ġpresentatie":11543,"platen":11544,"genoemde":11545,"Ġoverw":11546,"Ġmelden":11547,"Ġment":11548,"ERST":11549,"Ġlegde":11550,"ICA":11551,"'*":11552,"0439":11553,"deputeerde":11554,"Ġlangzaam":11555,"ohl":11556,"vorming":11557,"Ġnoordelijke":11558,"Ġinzage":11559,"SI":11560,"Ġinkomsten":11561,"Ġverzorgd":11562,"Sport":11563,"ĠFortuna":11564,"Ġchale":11565,"Ġoosten":11566,"Â»,":11567,"ĠCollege":11568,"Ġmem":11569,"Ġgehoord":11570,"lik":11571,"Ġontslagen":11572,"cond":11573,"wars":11574,"ĠTravel":11575,"Ġcategorie":11576,"Ġproduc":11577,"ĠNight":11578,"Ġcal":11579,"boeken":11580,"Ġ6500":11581,"Ġbeoor":11582,"Ġgou":11583,"MH":11584,"Ġscoorde":11585,"Ġgo":11586,"Ġ4500":11587,"ĠRoemen":11588,"Ġeindigde":11589,"gangers":11590,"ĠCra":11591,"ĠZaan":11592,"Ġluchtvaart":11593,"lozen":11594,"ĠDEL":11595,"SW":11596,"Ġstort":11597,"Ġbeveil":11598,"Ġgespecialiseerd":11599,"namen":11600,"utters":11601,"ĠVrije":11602,"laten":11603,"ORANJESTAD":11604,"Ġlieten":11605,"ĠOO":11606,"0451":11607,"010691974":11608,"ĠOL":11609,"Ġ363":11610,"0431":11611,"fase":11612,"sal":11613,"Ġling":11614,"Ġabsolute":11615,"Ġgeru":11616,"Ġdirek":11617,"ariant":11618,"Ġbehouden":11619,"Ġlinker":11620,"oke":11621,"ĠHatch":11622,"ierde":11623,"efd":11624,"ĠRekord":11625,"Ġgeloven":11626,"ĠNico":11627,"besl":11628,"Ġgecom":11629,".-,":11630,"ĠCabriolet":11631,"Ġverandering":11632,"veling":11633,"Ġgewicht":11634,"ĠJazz":11635,"erne":11636,"0454":11637,"betaling":11638,"ĠHeel":11639,"ĠKop":11640,"aller":11641,"0455":11642,"Ġnei":11643,"ett":11644,"ĠQuick":11645,"Ġhat":11646,"uilen":11647,"ĠBA":11648,"ĠZwitsers":11649,"Ġappartement":11650,"Ġboeien":11651,"Ġsportieve":11652,"woordvoerder":11653,"holt":11654,"Ġovereenstemming":11655,"Ġ1750":11656,"ĠMAZDA":11657,"Ġkampioenschap":11658,"Ġseks":11659,"usen":11660,"ruiser":11661,"rui":11662,"stoelen":11663,"Ġspits":11664,"Ġgezelschap":11665,"0457":11666,"Tel":11667,"ĠBorg":11668,"rieterrein":11669,"ĠDeut":11670,"brengst":11671,"0461":11672,"alling":11673,"Ġtak":11674,"Ġanderhalf":11675,"Ġaus":11676,"Ġserieuze":11677,"ALER":11678,"Ġorganiseren":11679,"Â¥":11680,"houds":11681,"ĠEric":11682,"cha":11683,"Ġmorgens":11684,"SEX":11685,"ĠVeetra":11686,"sbe":11687,"Ġ--":11688,"ĠThomas":11689,"Ġbeiden":11690,"Ġtemperatuur":11691,"ĠTOT":11692,"cla":11693,"Ġindividuele":11694,"Ġduidelijke":11695,"Ġboodschap":11696,"ary":11697,"ĠJetta":11698,"216":11699,"Ġâĸł'":11700,"ĠÃ¼t":11701,"612":11702,"Ġenigszins":11703,"ĠJames":11704,"esten":11705,"Ġvoorstelling":11706,"Ġfijne":11707,"URE":11708,"Ur":11709,"ĠProvinc":11710,"ĠNach":11711,"ĠDUIT":11712,"ĠTA":11713,"Ġlengte":11714,"atieven":11715,"OUD":11716,"Ġopgericht":11717,"0466":11718,"623":11719,"Ġvlag":11720,"Ġhiervoor":11721,"velg":11722,"ĠLO":11723,"mac":11724,"Ġliber":11725,"RACHTEN":11726,"Ġ283":11727,"ĠgeÃ¯s":11728,"ÃıÃı":11729,"0458":11730,"Ġnen":11731,"bescherm":11732,"QQ":11733,"rekking":11734,"kingen":11735,"dels":11736,"ĠMaak":11737,"ĠZE":11738,"Ġrechten":11739,"617":11740,"Ġsocial":11741,"Ġbehulp":11742,"Ġneem":11743,"Ġverdieping":11744,"Ġpaarden":11745,"igden":11746,"Ġtl":11747,"Ġkaas":11748,"Ġriep":11749,"Ġbepalen":11750,"oers":11751,"boekje":11752,"ĠSesam":11753,"Ġhiervan":11754,"ĠMevr":11755,"ENTE":11756,"Ġmak":11757,"nummers":11758,"ĠTennis":11759,"Ġparket":11760,"pi":11761,"Ġlijnen":11762,"Ġschiet":11763,"nj":11764,"ĠKNVB":11765,"Ġ3250":11766,"Ġspont":11767,"ĠingeÃ«nt":11768,"ĠBy":11769,"ĠHAL":11770,"prov":11771,"waring":11772,"Ġingericht":11773,"Ġverschenen":11774,"ĠCost":11775,"ĠNot":11776,"ĠZowel":11777,"Niet":11778,"wind":11779,"tentie":11780,"ĠTurkse":11781,"uten":11782,"Ġdoorlock":11783,"411":11784,"KK":11785,"Ġstab":11786,"Ġkrachten":11787,"Ġ359":11788,"ĠPeters":11789,"ittanniÃ«":11790,"0452":11791,"Ġamateur":11792,"ĠAkzo":11793,"endelijke":11794,"schaf":11795,"ĠHerv":11796,"0500":11797,"uzalem":11798,"Ġtarief":11799,"gebroken":11800,"anningen":11801,"deb":11802,"Ġspecialist":11803,"Ġmakkelijk":11804,"RADE":11805,"Ġrabo":11806,"Wie":11807,"Ġeis":11808,"Ġ233":11809,"Ġsoe":11810,"Ġuitdag":11811,"Ġaanvaarden":11812,"Ġ524":11813,"Ġlaatst":11814,"ĠHoofdstraat":11815,"ossen":11816,"ĠBle":11817,"Ġopzicht":11818,"427":11819,"IH":11820,"ĠPET":11821,"Ġslip":11822,"ition":11823,"zeer":11824,"Ġverrichten":11825,"ĠSchol":11826,"Ġwild":11827,"TR":11828,"oeid":11829,"ĠWadden":11830,"Ġopleidingen":11831,"Ġ2750":11832,"assage":11833,"vrouwen":11834,"Ġpit":11835,"Ġtoepassing":11836,"irsch":11837,"ĠLeer":11838,"VERSUM":11839,"ĠDAG":11840,"gat":11841,"Ġ-'":11842,"Ġzaten":11843,"ĠBond":11844,"corp":11845,"pg":11846,"ĠCafÃ©":11847,"ĠMilan":11848,"ĠGemeente":11849,"ĠHyp":11850,"Ġvertrekken":11851,"cle":11852,"nst":11853,"Ġtijdig":11854,"Ġconserv":11855,"lust":11856,"iga":11857,"Ġblauwmet":11858,"BRO":11859,"itsma":11860,"Ġstenen":11861,"entegen":11862,"aciteit":11863,"ĠMoz":11864,"mas":11865,"ĠRS":11866,"ĠBok":11867,"Ġlaagste":11868,"0449":11869,"Ġfaxen":11870,"Ġverhoogd":11871,"ĠIncl":11872,"oman":11873,"Ġrac":11874,"IVE":11875,"Ġ357":11876,"ĠOPEN":11877,"Ġbejaarden":11878,"Ġonduidelijk":11879,"Ġkwaad":11880,"Ġalcohol":11881,"controle":11882,"0453":11883,".(":11884,"ĠVEEN":11885,"ĠZes":11886,"0456":11887,"Ġeconomisch":11888,"tievelijk":11889,"ĠDl":11890,"ĠHot":11891,"ĠCamping":11892,"ston":11893,"ĠMeppel":11894,"Ġontwikkeld":11895,"ĠCher":11896,"OTA":11897,"Ġ258":11898,"mh":11899,"moed":11900,"ĠSpeciale":11901,"mw":11902,"Ġuitgen":11903,"ios":11904,"reen":11905,"Ġdagelijkse":11906,"ĠMovie":11907,"rische":11908,"ĠdÃ©":11909,"ĠInternationale":11910,"ĠBob":11911,"Ġnee":11912,"ĠMl":11913,"Ġgroene":11914,"ĠDeel":11915,"Ġjeug":11916,"auze":11917,"Ġnergens":11918,"ĠLau":11919,"uip":11920,"Ġuitvaartdienst":11921,"Ġontbijt":11922,"gebieden":11923,"Ãªr":11924,"INGA":11925,"ags":11926,"kaarten":11927,"ĠAlmere":11928,"Ġ333":11929,"Ġtoenemende":11930,"Ġ425":11931,"Ġsterren":11932,"URANT":11933,"Ġkapitaal":11934,"Ġwan":11935,"ĠBosnische":11936,"arist":11937,"Ġconcent":11938,"Ġpostzegel":11939,"Ġagenten":11940,"PM":11941,"vervoer":11942,"ĠEelde":11943,"ather":11944,"rook":11945,"achte":11946,"Ġingediend":11947,"Ġbruto":11948,"Ġvreemd":11949,"HEM":11950,"ams":11951,"Ġplak":11952,"jev":11953,"0460":11954,"vergr":11955,"zilver":11956,"Ġcommentaar":11957,"ĠVoetbal":11958,"Ġuitdruk":11959,"ocratie":11960,"418":11961,"ĠWO":11962,"Ġberichten":11963,"ĠJaguar":11964,"ĠArbeids":11965,"Ġbleven":11966,"Ġcommissaris":11967,"Ġtan":11968,"sle":11969,"eper":11970,"Ġgedragen":11971,"ĠSlechts":11972,"Ġ2250":11973,"laren":11974,"Ġhierover":11975,"Â»,Â»":11976,"phm":11977,"Ġorkest":11978,"chi":11979,"Ġ01718":11980,"ĠPoel":11981,"Ġstuurbe":11982,"Ġlezers":11983,"ĠLeeuwen":11984,"Ġneus":11985,"gh":11986,"trekken":11987,"Ġwerking":11988,"Ġ.\"":11989,"ĠLinda":11990,"0448":11991,"RTL":11992,"ĠSpoor":11993,"Ġbescherming":11994,"Ġvoorspel":11995,"ĠWi":11996,"ĠÃ©n":11997,"ĠPD":11998,"2400":11999,"vermogen":12000,"Ġgunstig":12001,"ĠBron":12002,"Ġtraditionele":12003,"ĠBj":12004,"STR":12005,"ĠZoek":12006,"burger":12007,"ALE":12008,"HORST":12009,"Ġondernemingen":12010,"orven":12011,"ares":12012,"Ġinspec":12013,"Ġdure":12014,"ĠMexico":12015,"ĠNK":12016,"sleden":12017,"elijkheid":12018,"ĠSlo":12019,"Ġvieren":12020,"ĠUitzendbureau":12021,"kes":12022,"ĠCel":12023,"Ġevenwel":12024,"Ġgewenst":12025,"ĠGriekse":12026,"Ġvoetball":12027,"tenaar":12028,"ĠColt":12029,"rup":12030,"OLL":12031,"bora":12032,"staten":12033,"Ġmagn":12034,"'.\"":12035,"tive":12036,"Ġvliegen":12037,"lowak":12038,"Ġfre":12039,"ĠBonds":12040,"ĠPHI":12041,"ĠExtra":12042,"ĠWereldoorlog":12043,"Ġislam":12044,"Ġschoot":12045,"Ġvoordelig":12046,"Men":12047,"Ġ08385":12048,"ny":12049,"rolet":12050,"0465":12051,"ĠGisteren":12052,"ĠCARS":12053,"415":12054,"ijzel":12055,"ĠCBS":12056,"Ġbewinds":12057,"ues":12058,"ae":12059,"Ġverkregen":12060,"ĠBraziliÃ«":12061,"ografie":12062,"via":12063,"rubriek":12064,"Toen":12065,"Ġdertien":12066,"eigen":12067,"ĠMagazine":12068,"ĠBarbara":12069,"\\\\\\\\":12070,"Ġontstaat":12071,"ĠPlay":12072,"Ġveiligheids":12073,"Ġvertegenwoordigers":12074,"bours":12075,"ĠVri":12076,"ĠMTV":12077,"ĠDagelijks":12078,"Ġliving":12079,"ĠJAC":12080,"ĠExc":12081,"ĠErvaring":12082,"Ġschep":12083,"rant":12084,"Ġuitgesproken":12085,"Ġmeldt":12086,"urde":12087,"cap":12088,"Ġelektron":12089,"Ġ268":12090,"__.":12091,"trekt":12092,"EVEN":12093,"Ġwesten":12094,"ĠHEL":12095,"Ml":12096,"ijker":12097,"raktijk":12098,"ĠBenz":12099,"Ġverbeteren":12100,"Ġflexi":12101,"ĠHete":12102,"Ġvoorjaar":12103,"Ġstudio":12104,"Â±":12105,"Geen":12106,"Ġjap":12107,"Ġmisl":12108,"Ġklok":12109,"ĠMare":12110,"essie":12111,"Ġpassagiers":12112,"412":12113,"oerd":12114,"har":12115,"inus":12116,"Ġfront":12117,"0468":12118,"ĠAal":12119,"ĠTRAN":12120,"Ġ05987":12121,"0462":12122,"Ġvergunning":12123,"ĠVenlo":12124,"ĠbeÃ«ind":12125,"ĠVliet":12126,"Ġbloem":12127,"viezen":12128,"ĠBang":12129,"Ġassorti":12130,"LIJN":12131,"Ġbenoemd":12132,"0475":12133,"ĠServische":12134,"schijnlijk":12135,"ĠCast":12136,"0459":12137,"Ġvernie":12138,"Ġ02907":12139,"iforn":12140,"Ġvielen":12141,"ĠMeisjes":12142,"din":12143,"arije":12144,"ICH":12145,"Ġbetekenis":12146,"ĠNEDLLOYD":12147,"rj":12148,"ijns":12149,"âĢŀâĢŀ":12150,"Ġfrom":12151,"ĠNf":12152,"ĠFol":12153,"Ġsug":12154,"eet":12155,"ĠBijl":12156,"Ġ2200":12157,"Ġslagen":12158,"Ġgezondheid":12159,"Ġoorspron":12160,"ĠBrouwer":12161,"iene":12162,"Ġvermelding":12163,"Ġconferentie":12164,"ĠHei":12165,"Ġkiest":12166,"ZZ":12167,"ĠAalsmeer":12168,"utter":12169,"tings":12170,"0474":12171,"^\"\"":12172,"ĠBRO":12173,"errari":12174,"ĠTX":12175,"Ġstukje":12176,"bou":12177,"ĠJA":12178,"selen":12179,"gings":12180,"Ġ5500":12181,"Ġaanstaande":12182,"Ġbewolkt":12183,"Ġkunstenaars":12184,"Ġzuin":12185,"Ġ284":12186,"Ġrg":12187,"nest":12188,"aki":12189,"Min":12190,"ĠJeep":12191,"ductie":12192,"ĠFrance":12193,"ĠIf":12194,"uff":12195,"gehouden":12196,"Ġdeelname":12197,"rekening":12198,"424":12199,"ĠPon":12200,"Ji":12201,"Ġovergroot":12202,"aters":12203,"ĠINF":12204,"cs":12205,"Ġroepen":12206,"Ġtenslotte":12207,"Ġopvolger":12208,"Ġrustige":12209,"partijen":12210,"Ġmedic":12211,"0503":12212,"Ġdelegatie":12213,"ĠSau":12214,"Ġbok":12215,"Ġvoortent":12216,"Ġondersche":12217,"ĠFamil":12218,"Ġzil":12219,"Ġgeop":12220,"werkzaamheden":12221,"Ġaanvallen":12222,"Ġzanger":12223,"ĠAch":12224,"Ġpil":12225,"Ġinterne":12226,"ĠGLD":12227,"asteel":12228,"ends":12229,"bez":12230,"Ġcontin":12231,"Ġfase":12232,"ĠAmerikaan":12233,"astraat":12234,"Ġsedan":12235,"Ġchef":12236,"Ġprins":12237,"ĠVVV":12238,"Ġverzekering":12239,"Ġtalen":12240,"sson":12241,"ĠStads":12242,"Ġbot":12243,"Ġfact":12244,"brieken":12245,"Ġboete":12246,"0473":12247,"vraag":12248,"ĠFlorida":12249,"0471":12250,"head":12251,"deuren":12252,"leer":12253,"ĠKuw":12254,"Ġhistorische":12255,"ĠVon":12256,"ĠBEST":12257,"ĠGert":12258,"ĠDaarvoor":12259,"ommel":12260,"ĠVERKOOP":12261,"lowakije":12262,"aru":12263,"ĠInstituut":12264,"ĠZweedse":12265,"ĠGlas":12266,"Ġ294":12267,"Ġbedroeg":12268,"Ġstreven":12269,"HUIZEN":12270,"rijders":12271,"bord":12272,"Ġveranderingen":12273,"Ġcampagne":12274,"banden":12275,"STEL":12276,"Ġuitgenodigd":12277,"Â»*":12278,"ĠHOOF":12279,"ĠGast":12280,"Ġpostb":12281,"stop":12282,"Ġ9500":12283,"Leeuw":12284,"TEL":12285,"ĠLouis":12286,"Ġbewind":12287,"Ġ8000":12288,"Ġgedeputeerde":12289,"ĠVitesse":12290,"ĠAdri":12291,"ĠYork":12292,"Ġdienstverlening":12293,"Ġthans":12294,"0463":12295,"686":12296,"Ġsollicitaties":12297,"Ste":12298,"BBC":12299,"Ġplat":12300,"Ġsexkontakt":12301,"7199":12302,"Ġvervang":12303,"ificatie":12304,"ingse":12305,"ĠJacht":12306,"218":12307,"Ġuitzondering":12308,"ariteit":12309,"vloer":12310,"Ġdg":12311,"0470":12312,"UDI":12313,"rapt":12314,"Ġkoningin":12315,"Ġverzorgt":12316,"ĠStadskanaal":12317,"aid":12318,"aga":12319,"Ġlm":12320,"ĠMy":12321,"Ġ486":12322,"Ġpromotie":12323,"Ġvolgde":12324,"Ġmits":12325,"--'":12326,"ĠSchriftelijke":12327,"contact":12328,"Ġzitting":12329,"0486":12330,"ĠSX":12331,"ĠNadat":12332,"mil":12333,"Ġ036":12334,"Ġhuren":12335,"Ġrot":12336,"jor":12337,"Ġdanken":12338,"Ġlat":12339,"Ġprovincies":12340,"ĠJose":12341,"Ġaanwezigheid":12342,"ifest":12343,"essor":12344,"Ġlevering":12345,"Ġist":12346,"Ġaangenomen":12347,"ĠPick":12348,"Ġbijbel":12349,"ĠFunctie":12350,"ĠKantoor":12351,"acy":12352,"Ġvroe":12353,"0472":12354,"ĠVilla":12355,"0464":12356,"Ġprofessionele":12357,"ĠDG":12358,"Ġbekijken":12359,"Ġadministratieve":12360,"ĠPostma":12361,"Ġnota":12362,"edie":12363,"Ġwoe":12364,"Ġstadion":12365,"gericht":12366,"ĠRIJ":12367,"igan":12368,"Ġheerlijk":12369,"La":12370,"ĠKenn":12371,"Ġlease":12372,"Ġzang":12373,"ĠBuro":12374,"ĠGil":12375,"Ġaccount":12376,"ĠPraag":12377,"oyd":12378,"PO":12379,"Ġfinales":12380,"Ġrent":12381,"Ġgeboden":12382,"Ġche":12383,"ĠYv":12384,"Ġvakbonden":12385,"Ġzagen":12386,"627":12387,"Ġspieg":12388,"Ġdoelpunt":12389,"oney":12390,"matige":12391,"male":12392,"istra":12393,"OSK":12394,"ĠZuidaf":12395,"Ġstreek":12396,"ĠGebruik":12397,"ĠTU":12398,"project":12399,"Ġcas":12400,"ĠHein":12401,"board":12402,"dit":12403,"Ġingesteld":12404,"SLAND":12405,"\"\"\"":12406,"ichtigen":12407,"Ġdoelpunten":12408,"Ġzijde":12409,"Ġhoeveelheid":12410,"ĠBC":12411,"ĠPen":12412,"Ġ04406":12413,"ĠAutobedrijven":12414,"ĠGeheel":12415,"amelijk":12416,"Ġstelling":12417,"Ġdoelman":12418,"ĠAntilliaanse":12419,"Ġstrak":12420,"Ġparlementaire":12421,"Ġholl":12422,"ĠPortugal":12423,"Ġgewe":12424,"ĠFORD":12425,"Ġduo":12426,"ĠGebr":12427,"ĠSchiedam":12428,"ĠNl":12429,"assau":12430,"ĠPaulus":12431,"Ġblonde":12432,"eind":12433,"Ġtraditie":12434,"AGER":12435,"ĠCur":12436,"636":12437,"Ġtank":12438,"Ġleerling":12439,"Ġcommunistische":12440,"raden":12441,"ĠBolsward":12442,"Ĥ¬":12443,"lit":12444,"Ġtocht":12445,"Ġwerkloosheid":12446,"Ter":12447,"ĠAlf":12448,"uiven":12449,"kerij":12450,"Ġgeniet":12451,"uv":12452,"ĠHollandse":12453,"Ġnight":12454,"Ġkleinere":12455,"Ġverhouding":12456,"ĠAUTOBEDRIJF":12457,"ĠEin":12458,"Ġinvoering":12459,"ĠGoud":12460,"ĠUnilever":12461,"Ġpoten":12462,"ANTOOR":12463,"ouwe":12464,"ĠHeineken":12465,"Ġgeding":12466,"ARI":12467,"Ġduren":12468,"Ġdiamantzwart":12469,"ĠFris":12470,"Ġwerkgever":12471,"Ġzr":12472,"ĠBestel":12473,"Ŀĸ":12474,"Ġtoekomstige":12475,"wegingen":12476,"Ġvoortgezet":12477,"Ġrespect":12478,"ersma":12479,"KL":12480,"Ġ369":12481,"Ġ394":12482,"/Â»":12483,"ĠGas":12484,"Ġkring":12485,"0480":12486,"rage":12487,"ariaat":12488,"0467":12489,"meubelen":12490,"ices":12491,"Ġplast":12492,"ĠWinschoten":12493,"Kl":12494,"merken":12495,"Ġkoor":12496,"Ġ162":12497,"Ġaanvaard":12498,"aarse":12499,"0490":12500,"Ġeenheid":12501,"ĠÃ¨n":12502,"rete":12503,"Ġrespectievelijk":12504,"weten":12505,"pak":12506,"scholen":12507,"doet":12508,"aleis":12509,"Ġ'*":12510,"mettel":12511,"spelen":12512,"ĠOPEL":12513,"wonen":12514,"ĠZATERDAG":12515,"Ġagress":12516,"ĠRap":12517,"merkt":12518,"kte":12519,"Ġinsch":12520,"Sn":12521,"ĠLot":12522,"Ġdraag":12523,"Ġdaling":12524,"Ġkeuk":12525,"ĠUTRECHT":12526,"_*":12527,"Ġinteressant":12528,"Ġjongste":12529,"oa":12530,"idder":12531,"Ġbegeleid":12532,"Ġgebouwen":12533,"BelgiÃ«":12534,"ĠZijl":12535,"oogde":12536,"mg":12537,"Ġerger":12538,"Ġbell":12539,"0476":12540,"ĠCON":12541,"sector":12542,"Ġgedachte":12543,"ĠChristus":12544,"ĠChan":12545,"314":12546,"BAR":12547,"sec":12548,"essel":12549,"Ġmeubel":12550,"Ġ1975":12551,"Ġbinne":12552,"Ġmann":12553,"0479":12554,"ĠVin":12555,"Ġjier":12556,"ĠBX":12557,"ĠWeek":12558,"racten":12559,"ffet":12560,"EKE":12561,"ĠArt":12562,"ĠIndust":12563,"Ġhumor":12564,"mus":12565,"0469":12566,"TB":12567,"0481":12568,"legde":12569,"Ġperson":12570,"uu":12571,".!":12572,"ĠTransp":12573,"Ġgaven":12574,"Ġ182":12575,"TI":12576,"Ġ242":12577,"ĠAntwoordnummer":12578,"Ġ8500":12579,"Ġsup":12580,"ĠKuway":12581,"ĠWind":12582,"ocraten":12583,"ĠStreet":12584,"Ġflat":12585,"Ġtalent":12586,"ĠDutch":12587,"vaarding":12588,"ĠBernard":12589,"imaat":12590,"verkiezingen":12591,"Ġvelg":12592,"Ġerbij":12593,"Ġopgesteld":12594,"316":12595,"ĠFiesta":12596,"ĠIndonesiÃ«":12597,"Ġaspec":12598,"braak":12599,"Ġdoch":12600,"ingstijden":12601,"Ġpostbus":12602,"Ġ344":12603,"etjes":12604,"Â»-":12605,"ĠBrinkman":12606,"ĠCorr":12607,"ĠKORT":12608,"ĠPolo":12609,"Ġ181":12610,"ĠKampen":12611,"Ġredden":12612,"Pl":12613,"ĠHoop":12614,"imo":12615,"Ġautomobil":12616,"Ġgekeurd":12617,"kring":12618,"ness":12619,"010691596":12620,"ĠSimons":12621,"Ġreageerde":12622,"Ġnv":12623,"Oosten":12624,"Ġbesluiten":12625,"Ġminimum":12626,"Ġwkn":12627,"Ġban":12628,"ĠGA":12629,"Ġ079":12630,"Ġbomen":12631,"ĠChevrolet":12632,"treding":12633,"ĠDre":12634,"338":12635,"resteerd":12636,"Ġafm":12637,"ĠEast":12638,"intje":12639,"apore":12640,"gezondheid":12641,"Ġcruise":12642,"wor":12643,"ĠVle":12644,"agel":12645,"0485":12646,"ĠONG":12647,"ĠVastgoed":12648,"Ġzeilen":12649,"mr":12650,"ĠDirk":12651,"Ġgeneraal":12652,"toren":12653,"Ġverhoging":12654,"Ġtekeningen":12655,"Ġnn":12656,"ĠCAMP":12657,"ĠMeulen":12658,"ĠFel":12659,"ballen":12660,"Ġ1977":12661,"Ã³k":12662,"Ġuitslag":12663,"Ġreorganisatie":12664,"Ġaangekondigd":12665,"gst":12666,"ĠLOK":12667,"verne":12668,"ĠSchooltelevisie":12669,"neden":12670,"Ġerkend":12671,"Ġgemeentelijke":12672,"Ġinstallatie":12673,"zingen":12674,"gevoel":12675,"wan":12676,"straties":12677,"Ġhonden":12678,"dames":12679,"Ġraakt":12680,"ĠMÃ¼n":12681,"Ġradi":12682,"ĠBOUW":12683,"Ġplaten":12684,"plannen":12685,"ublieke":12686,"andela":12687,"Ġtevoren":12688,"ĠCharles":12689,"vrije":12690,"ervlakte":12691,"0483":12692,"ĠGet":12693,"Ġroept":12694,"eds":12695,"Ġwinnaars":12696,"Ġverzekerings":12697,"ĠAegon":12698,"Ġvlg":12699,"Ġ7000":12700,"ĠWilliam":12701,"Ġmotie":12702,"zake":12703,"ĠChris":12704,"inse":12705,"Ġbeton":12706,"Ġdata":12707,"kundig":12708,"Ġwao":12709,"pporters":12710,"Ġcursussen":12711,"Ġomstre":12712,"ĠLo":12713,"belang":12714,"hankelijke":12715,"utte":12716,"RIO":12717,"Ġstaf":12718,"Ġdiepe":12719,"ECT":12720,"jaardag":12721,"ĠComputer":12722,"ulpen":12723,"sub":12724,"Ġbevor":12725,"uste":12726,"Mijn":12727,"pos":12728,"Ġ/^":12729,"ĠTimmer":12730,"Ġdl":12731,"pn":12732,"Ġsteek":12733,"vallende":12734,"ĠRestaurant":12735,"ĠRijpe":12736,"Ġkabel":12737,"ĠHirsch":12738,"3500":12739,"__^":12740,"stem":12741,"Ġautomatisch":12742,"hom":12743,"610":12744,"ĠFen":12745,"ĠGeref":12746,"Ġeredivisie":12747,"0482":12748,"mode":12749,"0484":12750,"reedt":12751,"ĠOR":12752,"ORGEN":12753,"Ġ04490":12754,"Ġdomin":12755,"logen":12756,"iezers":12757,"ĠOverigens":12758,"ineke":12759,"ĠHongarije":12760,"Ġfondsen":12761,"Ġontvangst":12762,"OTEN":12763,"Ġachttien":12764,"!'":12765,"ugo":12766,"Ġwette":12767,"Ġaff":12768,"ĠGreen":12769,"Ġdief":12770,"anca":12771,"Ġif":12772,"Ġrestau":12773,"ĠRA":12774,"meisje":12775,"ITE":12776,"plicht":12777,"Ġhemel":12778,"Ġbor":12779,"Ġtegenstelling":12780,"Ġbescheiden":12781,"0489":12782,"Ġbijz":12783,"ĠRee":12784,"ISIE":12785,"Ġsimpel":12786,"0478":12787,"Ġstaande":12788,"Ġklinkt":12789,"quiz":12790,"laging":12791,"Ġplatte":12792,"udenten":12793,"Ġbra":12794,"specialist":12795,"Ġgemo":12796,"8030":12797,"0497":12798,",=":12799,"ĠBeach":12800,"ĠOrkest":12801,"0505":12802,"Ġvergelijking":12803,"ĠCITROEN":12804,"Vi":12805,"Ġuitker":12806,"ĠHoreca":12807,"berger":12808,"Ġvoelde":12809,"PT":12810,"lf":12811,"ĠGLE":12812,"unnel":12813,"0504":12814,"ĠLief":12815,"vestigde":12816,"riÃ«le":12817,"stroom":12818,"Ġsig":12819,"ĠWall":12820,"bers":12821,"Ġtoet":12822,"jun":12823,"fan":12824,"ĠWIN":12825,"ĠES":12826,"installatie":12827,"uiken":12828,"Ġjury":12829,"Ġerin":12830,"Ġgaten":12831,"0492":12832,"personeel":12833,"obl":12834,"ĠSant":12835,"ĠVROUW":12836,"Ġ03404":12837,"ĠTom":12838,"ller":12839,"ĠPf":12840,"ĠBom":12841,"DIJK":12842,"Ġavontuur":12843,"ĠPla":12844,"ĠSK":12845,"onderdelen":12846,"uzzel":12847,"AKT":12848,"ĠpatiÃ«nt":12849,"Ġ\\^":12850,"zus":12851,".'\"":12852,"Ġziin":12853,"Ġgunstige":12854,"Ġ*âĸł":12855,"otel":12856,"Ġklassiek":12857,"Ġmagazijn":12858,"ĠBehalve":12859,"Ġaardapp":12860,"Ġbestemd":12861,"Ġbehoeve":12862,"ĠPalm":12863,"ĠVerzeker":12864,"ĠLeid":12865,"Ġetage":12866,"verhoging":12867,"Ġgeslagen":12868,"ĠEerst":12869,"ĠWolters":12870,"Ġverhe":12871,"IW":12872,"ĠAnna":12873,"dap":12874,"Ġ368":12875,"HEERLEN":12876,"ĠWijk":12877,"ĠNorma":12878,"Ġbuitenlanders":12879,"719966":12880,"0491":12881,"0487":12882,"739":12883,"Ġterugkeer":12884,"ovatie":12885,"ĠKLASSE":12886,"wachte":12887,"Pa":12888,"nder":12889,"Ġverdacht":12890,"ĠMoet":12891,"Ġzond":12892,"ĠKru":12893,"olatie":12894,"Ġspot":12895,"rekers":12896,"Ġlokatie":12897,"ĠCre":12898,"ĠEM":12899,"Ġverdachten":12900,"Ġ293":12901,"ĠAdvies":12902,"Ġwets":12903,"ining":12904,"lecht":12905,"Ġstalen":12906,"ĠSLX":12907,"Ġdeelnemen":12908,"cor":12909,"Ãĵ":12910,"nson":12911,"Ġkoelkast":12912,"Ġtreffen":12913,"Ġcommercieel":12914,"ogh":12915,"ongen":12916,"ĠUNO":12917,"NG":12918,"PRIJS":12919,"Ġmetaal":12920,"ĠPOL":12921,"Ġmaximum":12922,"Tot":12923,"ĠGriekenland":12924,"Ġresp":12925,"Tr":12926,"ĠDaarin":12927,"formeerd":12928,"ĠAutobedr":12929,"slo":12930,"ĠSpeel":12931,"ADVERTENTIE":12932,"Ġwethouders":12933,"ĠMas":12934,"iteerd":12935,"isseur":12936,"Ġgegar":12937,"ĠDAT":12938,"bonds":12939,"jg":12940,"ĠTage":12941,"Ġbesprekingen":12942,"Ġlopende":12943,"Ġinventaris":12944,"Ġbeschouwd":12945,"ĠOrganisatie":12946,"ziek":12947,"uge":12948,"0496":12949,"ĠPetr":12950,"Ġ151":12951,"Ġchar":12952,"Ġfiet":12953,"Ġgezamenlijk":12954,"result":12955,"Ġmarketing":12956,"NER":12957,"Ġherinnering":12958,"Ġai":12959,"0495":12960,"Ġout":12961,"ĠAanvoer":12962,"615":12963,"ĠNov":12964,"ĠGold":12965,"mars":12966,"bs":12967,"ĠVlie":12968,"*âĢ¢":12969,"ĠSme":12970,"devolle":12971,"telliet":12972,"ĠJeruzalem":12973,"ĠIran":12974,"Ġhiermee":12975,"NEDERLAND":12976,"637":12977,"Ġidenti":12978,"verhuur":12979,"Ġstrateg":12980,"iteren":12981,"Ġtoday":12982,"ĠUiter":12983,"Ġ390":12984,"instru":12985,"undaire":12986,"iaans":12987,"ĠMech":12988,"ĠDro":12989,"issingen":12990,"ĠKERK":12991,"ĠSingapore":12992,"Ġgetuigen":12993,"Ġgerust":12994,"ĠLemmer":12995,"Fund":12996,"Ġâĸº":12997,"ĠVeiligheid":12998,"Ġantr":12999,"ĠBun":13000,"markten":13001,"uige":13002,"fil":13003,"Ġrenn":13004,"Ġassortiment":13005,"Ġteveel":13006,"Ġnegatieve":13007,"^\"":13008,"Ġmedewerking":13009,"denking":13010,"Ġhef":13011,"Ġuitspraken":13012,"Ġwisten":13013,"ĠJeroen":13014,"Ġbouwjaar":13015,"Ġbinnenlandse":13016,"ĠKAR":13017,"Ġvrouwelijke":13018,"Ġschrik":13019,"rassen":13020,"Ġ605":13021,"Ġontstond":13022,"tn":13023,"groeid":13024,"Ġgemeub":13025,"verslag":13026,"ĠNIEUWE":13027,"ĠSTATION":13028,"IENST":13029,"Ġcamera":13030,"Ġinforma":13031,"artikelen":13032,"speel":13033,"ĠFestival":13034,"205":13035,"Ġactieve":13036,"lichting":13037,"Ġvolg":13038,"Ġstijgen":13039,"ademie":13040,"Ġgepleeg":13041,"ĠWo":13042,"Ġ291":13043,"ĠLekker":13044,"ĠCarol":13045,"ĠGO":13046,"Ġtelefoonnummer":13047,"tev":13048,"Ġgereformeerde":13049,"Ġonbekende":13050,"319":13051,"Ġ358":13052,"0498":13053,"usters":13054,"HER":13055,"Ġ02240":13056,"Ġzetels":13057,"valler":13058,"ijke":13059,"Ġgroeiende":13060,"yske":13061,"sproces":13062,"Ġvoorzichtig":13063,"0494":13064,"OLLE":13065,"ĠWoerden":13066,"ighbours":13067,"Ġpag":13068,"ĠVAKANTIE":13069,"quÃª":13070,"Ġvreemde":13071,"Ġfunctioneren":13072,"Ġgezins":13073,"Ġaangesloten":13074,"Ġvoortaan":13075,"Ġluchthaven":13076,"Ġzingen":13077,"ĠBEDRIJF":13078,"ĠMach":13079,"ĠVolk":13080,"rap":13081,"asser":13082,"materiaal":13083,"ĠNap":13084,"ĠCE":13085,"autif":13086,"ĠKuwayt":13087,"Ġgehandicapten":13088,"ĠCB":13089,"Ġondersteuning":13090,"Ġdaaraan":13091,"fron":13092,"ĠLeek":13093,"ĠOosterp":13094,"llllllll":13095,"Ġcompon":13096,"ush":13097,"/.":13098,"su":13099,"ĠGouden":13100,"Ġperman":13101,"ĠSociale":13102,"Auto":13103,"snog":13104,"ruiming":13105,"ĠGLi":13106,"Ġtoestel":13107,"Ġsens":13108,"ĠWinter":13109,"ĠHome":13110,"Ġonde":13111,"Ġblok":13112,"ĠSCHIP":13113,"competitie":13114,"Ġnachts":13115,"ogus":13116,"Ġ03489":13117,"Ġfestival":13118,"aks":13119,"HB":13120,"Ġmmm":13121,"010859":13122,"Ġverspreid":13123,"Ġbtw":13124,"ĠKim":13125,"ĠHatchback":13126,"ochie":13127,"nodig":13128,"ontwikkeling":13129,"ĠReal":13130,"Ġ03402":13131,"dserie":13132,"bul":13133,"ĠBan":13134,"Ġzaterdagavond":13135,"0493":13136,"Ġkwartier":13137,"ĠBravo":13138,"Ġbenoem":13139,"0507":13140,"Ġmaatregel":13141,"Ġtijdelijke":13142,"ĠLicht":13143,"Ġschijn":13144,"roof":13145,"Ġafl":13146,"ĠLandbouw":13147,"Ġfort":13148,"icek":13149,"ĠVeenstra":13150,"Ġien":13151,"ĠLove":13152,"amens":13153,"Ġindex":13154,"Ġzesde":13155,"Ġoverdag":13156,"Ġ5750":13157,"ĠStan":13158,"sao":13159,"215":13160,"ĠVele":13161,"able":13162,"JI":13163,"Ġtoezicht":13164,"ĠDefensie":13165,"Ġscore":13166,"emarken":13167,"!)":13168,"ĠRud":13169,"Ġnws":13170,"kwam":13171,"Ġmoslims":13172,"ĠFir":13173,"bakken":13174,"AVANS":13175,"Sm":13176,">.":13177,"erdijk":13178,"magazin":13179,"Ġlad":13180,"Ġverwerken":13181,"Ġmeedoen":13182,"endam":13183,"Ġhei":13184,"melo":13185,"Ġvit":13186,"Ġverdriet":13187,"ĠSurina":13188,"produkten":13189,"redacteur":13190,"ĠOor":13191,"ada":13192,"ĠHIL":13193,"ague":13194,"ĠBRA":13195,"ubb":13196,"ĠDIJK":13197,"ĠBezoek":13198,"Ġrelatief":13199,"journal":13200,"ĠLog":13201,"ĠVRIES":13202,"Ġschil":13203,"Ġaktie":13204,"hage":13205,"oria":13206,"ĠTT":13207,"Ġspiegel":13208,"ĠBERG":13209,"Mm":13210,"ĠHOTEL":13211,"UDE":13212,"stan":13213,"ĠDIRE":13214,"republiek":13215,"olpen":13216,"dings":13217,"ieter":13218,"ĠTy":13219,"Ġdokter":13220,"ĠEgypte":13221,"kok":13222,"aft":13223,"Ġoe":13224,"Ġonjuist":13225,"AARD":13226,"ience":13227,"Hi":13228,"Ġfruit":13229,"bleem":13230,"Ġburo":13231,"Ġadem":13232,"ETTE":13233,"ĠAutomobielen":13234,"randen":13235,"Ġ373":13236,"Ġsek":13237,"verkl":13238,"cons":13239,"YS":13240,"Ġzulke":13241,"houdingen":13242,"Ġjournalist":13243,"boekjes":13244,"ĠKost":13245,"Ġ9750":13246,"Ġinvesteringen":13247,"Ġpad":13248,"Ġsemi":13249,"gangsp":13250,"Ġsoftware":13251,"immer":13252,"Ġzwemb":13253,"Tij":13254,"ĠEls":13255,"autiful":13256,"Ġaluminium":13257,"Ġopkn":13258,"quen":13259,"Ġbenz":13260,"wartet":13261,"RIK":13262,"Ġroe":13263,"ĠGalerie":13264,"0657":13265,"gelegen":13266,"laatste":13267,"Ġstrenge":13268,"ĠJones":13269,"Ġnationaal":13270,"kten":13271,"illes":13272,"krachtiging":13273,"ĠPoolse":13274,"lieden":13275,"BEURS":13276,"Ġvogel":13277,"butie":13278,"ĠEver":13279,"Ġstak":13280,"jevo":13281,"schijn":13282,"Ġvierk":13283,"riel":13284,"ĠGener":13285,"ĠCS":13286,"reren":13287,"maatschappijen":13288,"Ġlux":13289,"0511":13290,"erkerk":13291,"field":13292,"stellenden":13293,"Ġ944":13294,"ĠSel":13295,"Ġuitgever":13296,"Ġdom":13297,"ĠSoms":13298,"Ġoverzicht":13299,"Â«.":13300,"ĠCount":13301,"Ġontpl":13302,"gewoon":13303,"ĠZoet":13304,"Ġhect":13305,"lof":13306,"Ġbag":13307,"Ġroof":13308,"Ġ378":13309,"ĠNord":13310,"Ġautomatische":13311,"Ġregist":13312,"Ġzout":13313,"BERT":13314,"Ġ374":13315,"ETBAL":13316,"oung":13317,"ACAR":13318,"nieuwe":13319,"getwijfeld":13320,"Ġbevat":13321,"Ġpopulair":13322,"CD":13323,"voerde":13324,"Ġaab":13325,"wk":13326,"ĠSUN":13327,"Ġbehaalde":13328,"')":13329,"geschool":13330,"0510":13331,"LES":13332,"ĠEag":13333,"Ġgetrokken":13334,"Ġuitgaan":13335,"ĠThema":13336,"ĠBLA":13337,"imale":13338,"ches":13339,"schakeld":13340,"^^^^^^":13341,"Ġfit":13342,"Ġgevoelens":13343,"Ġhoorde":13344,"jt":13345,"ĠBallin":13346,"Ġslank":13347,"Ha":13348,"Ġjf":13349,"Ġdaarentegen":13350,"Ġfys":13351,"ĠTsjechos":13352,"ĠWeert":13353,"lief":13354,"zeil":13355,"219":13356,"---":13357,"NY":13358,"ĠZiekenhuis":13359,"uck":13360,"RIE":13361,"ĠGolden":13362,"ĠDoel":13363,"ÃĬÃĬÃĬÃĬ":13364,"Ġverjaardag":13365,"ĠSPEURDERS":13366,"elsior":13367,"Ġschoenen":13368,"verzekering":13369,"Ġineens":13370,"Ġgat":13371,"Ġexplos":13372,"Ġvoeg":13373,"1868":13374,"Ġgestoff":13375,"ĠOek":13376,"Ġtiend":13377,"Ġerkende":13378,"Ġhoogleraar":13379,"ĠTru":13380,"Ġwelk":13381,"ijfer":13382,"Ġverrassing":13383,"commissaris":13384,"0499":13385,"ĠCees":13386,"ĠEerder":13387,"676":13388,"ĠAcht":13389,"ĠPASS":13390,"abon":13391,"Ġconstate":13392,"maatregelen":13393,"ortering":13394,"Ġonderd":13395,"Hl":13396,"UREN":13397,"Ġpublieke":13398,"arieerd":13399,"Ġantieke":13400,"ume":13401,"erto":13402,"ementen":13403,"Ġ4750":13404,"Ġ*'":13405,":'":13406,"Ġbudget":13407,"Ġverlenen":13408,"Ġopgev":13409,"oosten":13410,"ĠMW":13411,"ww":13412,"Ġbossen":13413,"613":13414,"Ġwin":13415,"ĠAltijd":13416,"ijst":13417,"ouder":13418,"strasse":13419,"eesten":13420,"USE":13421,"Ġscheeps":13422,"entje":13423,"ĠÂ°Â°":13424,"Ġbegeleiden":13425,"Ġmeet":13426,"ĠWILLEM":13427,"Ġstatus":13428,"lect":13429,"ĠBoy":13430,"PB":13431,"Ġtekenfilmserie":13432,"OPEN":13433,"Ġ4250":13434,"Ġonderwerpen":13435,"koor":13436,"ades":13437,"atiÃ«":13438,"Ġgrij":13439,"ĠLater":13440,"ĠPART":13441,"Ġroll":13442,"Ġdebat":13443,"ANDEN":13444,"ĠUnited":13445,"clubs":13446,"horn":13447,"activiteiten":13448,"1250":13449,"ĠMusic":13450,"********":13451,"WER":13452,"ĠJf":13453,"ĠArch":13454,"ĠOb":13455,"ĠCaliforn":13456,"0501":13457,"ĠGri":13458,"ikke":13459,"ĠCR":13460,"Ġ1976":13461,"ermen":13462,"'m":13463,"ations":13464,"<*":13465,"ĠBlok":13466,"ĠArub":13467,"0509":13468,"ĠPink":13469,"Ġ05113":13470,"Ġfraude":13471,"structuur":13472,"ENVEEN":13473,"ĠHAVO":13474,"Ġwakker":13475,"Ġcla":13476,"Veel":13477,"Ġ05960":13478,"0502":13479,"MAR":13480,"0109488":13481,"ĠARD":13482,"ĠKW":13483,"Ġkies":13484,"Ġopgave":13485,"Ġaangeb":13486,"Ġ172":13487,"istan":13488,"ĠPlus":13489,"Ġbezocht":13490,"0512":13491,"deringen":13492,"0513":13493,"010691751":13494,"ĠHeden":13495,"splaatsen":13496,"steinde":13497,"OF":13498,"Ġproc":13499,"skerk":13500,"zorging":13501,"Ġopw":13502,"schapen":13503,"sdienst":13504,"Ġcade":13505,"ENEN":13506,"0506":13507,"Ġafdelingen":13508,"ieus":13509,"Ġwesterse":13510,"IJL":13511,"Ġdeskundigen":13512,"Ġplaatsgevonden":13513,"Ġdiner":13514,"tin":13515,"Ġprobeerde":13516,"Ġ495":13517,"ĠXX":13518,"ĠRoemeniÃ«":13519,"ĠPur":13520,"Ġes":13521,"ĠChi":13522,"Ġ05280":13523,"Ġuitzending":13524,"fast":13525,"icier":13526,"Ġinflatie":13527,"UKI":13528,"ĠSun":13529,"Ġculturele":13530,"Sex":13531,"Ġpeil":13532,"Ġslaat":13533,"Ġrelaxen":13534,"HEID":13535,"ĠMÃ¼nchen":13536,"ĠMandela":13537,"Ġtic":13538,"Ġsuccesvolle":13539,"0567":13540,"ĠToer":13541,"Ġvoorlichting":13542,"Ġreparaties":13543,"Ġfinish":13544,"Ġ~~":13545,"spelers":13546,"Ġur":13547,"roef":13548,"kunst":13549,"Ġzoiets":13550,"ĠVers":13551,"Ġverlichting":13552,"Ġaanvragen":13553,"echt":13554,"Ġ334":13555,"Ġprocedure":13556,"Ġonaan":13557,"Ġvervuil":13558,"ĠFA":13559,"YOTA":13560,"ĠRiet":13561,"Ġmeid":13562,"Ġmarathon":13563,"Ġ273":13564,"Ġbeleven":13565,"Ġ',":13566,"ĠAutos":13567,"ĠPle":13568,"Ġvrees":13569,"Ġstorm":13570,"ĠGEL":13571,"Ġsmettel":13572,"ĠCosta":13573,"ALOW":13574,"ĠRijksstraatweg":13575,"BrittanniÃ«":13576,"ali":13577,"0518":13578,"ĠCursus":13579,"kleur":13580,"0560":13581,"Ġ05138":13582,"Ġbewonder":13583,"AFP":13584,"anese":13585,"Ġontbreekt":13586,"Ġgebeurtenissen":13587,"ĠLaan":13588,"Ġvluchten":13589,"ĠBak":13590,"ĠSUZ":13591,"Ġhalfjaar":13592,"oping":13593,"wis":13594,"groei":13595,"ĠZeist":13596,"ĠGSi":13597,"455":13598,"adijs":13599,"leidings":13600,"TJE":13601,"ĠNi":13602,"obel":13603,"Ġeffic":13604,"iders":13605,"ford":13606,"ĠEnige":13607,"Ġspecif":13608,"AKEN":13609,"iliteiten":13610,"Ġonderhouds":13611,"Ġgevangenisstraf":13612,"0525":13613,"Ġ02550":13614,"Ġspierwit":13615,"iersma":13616,"Ġgelijke":13617,"besp":13618,"ertjes":13619,"ĠStart":13620,"ĠVolendam":13621,"RET":13622,"Ġbestond":13623,"ĠND":13624,"Ġ\"\"\"\"\"":13625,"endijk":13626,"Ġ05990":13627,"cir":13628,"Ġconsumenten":13629,"Ġsuccesvol":13630,"ĠBurgemeester":13631,"-__":13632,"ĠSpelprogramma":13633,"Ġnest":13634,"ĠMBO":13635,"ĠMei":13636,"tioneel":13637,"Ġvliegtuigen":13638,"afe":13639,"ĠBonn":13640,"Ġhu":13641,"stemd":13642,"675":13643,"Ġju":13644,"kwaliteit":13645,"Ġuitnod":13646,"Ġspring":13647,"plus":13648,"Ġvoormalig":13649,"Ġleert":13650,"Ġlessen":13651,"Ġopvallend":13652,"binnen":13653,"ville":13654,"Ġinternational":13655,"Ġsecretaresse":13656,"0508":13657,"aanb":13658,"Ġhuishou":13659,"Ġ08380":13660,"kar":13661,"Ġovergenomen":13662,"lor":13663,"Â«*":13664,"Ġbewezen":13665,"ĠZuidlaren":13666,"Ġprie":13667,"oops":13668,"ĠPhilip":13669,"ĠSollicitaties":13670,"ances":13671,"erendum":13672,"ochte":13673,"rig":13674,"waarder":13675,"Ġlit":13676,"ĠOri":13677,"ĠXR":13678,"ĠDuin":13679,"Ġmt":13680,"Ġnetto":13681,"Ġeeuwen":13682,"Ġpaus":13683,"ĠBEN":13684,"beerd":13685,"Ġverwen":13686,"Ġbezuinigingen":13687,"Ġ232":13688,"ĠMann":13689,"Ġbevoegd":13690,"Ġfeiten":13691,"ĠDC":13692,"ĠMun":13693,"Ġbetekenen":13694,"ĠMakelaars":13695,":.":13696,"Ġ02520":13697,"Ġvermoedelijk":13698,"Ġgu":13699,"verde":13700,"--------":13701,"Ġcil":13702,"Ġlett":13703,"Ġvaardig":13704,"erweg":13705,"Ġcombin":13706,"Ġopenen":13707,"Ġkiezers":13708,"ĠKeuze":13709,"vingen":13710,"Ġmel":13711,"lassen":13712,"Ġ370":13713,"Ġvliegveld":13714,"tiÃ«le":13715,"ĠThuis":13716,"tijn":13717,"Ġuitdaging":13718,"ĠNEC":13719,"ĠzÃ©Ã©r":13720,"0000":13721,"ĠCENTRE":13722,"Â°'":13723,"vÃ©":13724,"ĠCurasao":13725,"345":13726,"0515":13727,"ĠBOER":13728,"iccolo":13729,"Cl":13730,"Ġluister":13731,"ĠCNN":13732,"ĠFIAT":13733,"Ġfris":13734,"Ġideale":13735,"ĠLiber":13736,"Ġbijdragen":13737,"Ġopgeroepen":13738,"ĠEconomische":13739,"ĠGood":13740,"Ġsecundaire":13741,"ĠMEISJES":13742,"ĠMEDEWERK":13743,"stijd":13744,"Ġgedood":13745,"Ġachtereen":13746,"NEW":13747,"vaardigheid":13748,"ĠInmiddels":13749,"VA":13750,"Ġrang":13751,"Ġopenings":13752,"wijzing":13753,"^/":13754,"Ġgereden":13755,"ĠHigh":13756,"Ġtt":13757,"Ġpel":13758,"ĠSarajevo":13759,"ĠREK":13760,"Ġcamper":13761,"Ġverdient":13762,"-_-_":13763,"ĠGEM":13764,"Ġgekocht":13765,"01064156":13766,"ĠKohl":13767,"alers":13768,"wicht":13769,"iool":13770,"Ġmeegedeeld":13771,"ĠZX":13772,"Ġpracht":13773,"bui":13774,"ĠPel":13775,"Ġoverst":13776,"mmers":13777,"ĠHobby":13778,"Ġsterker":13779,"PERS":13780,"ĠTeg":13781,"ĠJr":13782,"Ġzevende":13783,"Ġgit":13784,"ĠCOMP":13785,"appy":13786,"ĠGROOT":13787,"Ġ'-":13788,"lj":13789,"Ġnul":13790,"346":13791,"wachting":13792,"lok":13793,"Ġgoedkop":13794,"Ġwaarden":13795,"Ġachterkle":13796,"ĠWEST":13797,"lessen":13798,"elaar":13799,"ĠSat":13800,"ĠPrima":13801,"Ġgewaar":13802,"ĠMu":13803,"Ġbroe":13804,"Ġmontage":13805,"ĠgeÃ«ist":13806,"Ġdoos":13807,"ĠPot":13808,"Ġ161":13809,"voerders":13810,"ĠMX":13811,"ĠPret":13812,"Ġprogramm":13813,"bouwde":13814,"Ġrepubliek":13815,"Ġdankzij":13816,"Ġtransp":13817,"ĠCaravans":13818,"Ġcommand":13819,"Ġparticulieren":13820,"ĠNationaal":13821,"ANVR":13822,"UNGALOW":13823,"Ġ399":13824,"Ġfd":13825,"211":13826,"ĠLely":13827,"Ġbetaalde":13828,"Ġaflevering":13829,"ĠJacques":13830,"record":13831,"Ġbewindsman":13832,"Ġ203":13833,"verw":13834,"Ġhinder":13835,"ĠRegel":13836,"Ġonroerend":13837,"Ġvouw":13838,"Ġtreedt":13839,"Ġaangewezen":13840,"312":13841,"erendaal":13842,"rah":13843,"Ġboos":13844,"Ġ1974":13845,"Ġzekere":13846,"Ġtweet":13847,"Ġformatie":13848,"Ġjazz":13849,"ĠSJ":13850,"ĠGeorg":13851,"Ġgevaarlijk":13852,"Ġ05170":13853,"Ġtypes":13854,"edy":13855,"Ġafsch":13856,"feu":13857,"Ġverwerkt":13858,"Ġverkiezings":13859,"________________________________":13860,"beurt":13861,":;":13862,"Ġ397":13863,"ĠBijzonder":13864,"0550":13865,"ĠGran":13866,"ador":13867,"cm":13868,"geheten":13869,"ĠDekker":13870,"Car":13871,"Ġstacaravan":13872,"ĠHeide":13873,"ĠAnder":13874,"ĠEC":13875,"Ġalweer":13876,"Ġeuro":13877,"ĠPatrick":13878,"WD":13879,"col":13880,"ĠJol":13881,"ĠValk":13882,"ĠOe":13883,"Ġuiterste":13884,"gerekend":13885,"ĠBez":13886,"ky":13887,"ĠWed":13888,"ĠWERK":13889,"ageerd":13890,"Ġaegon":13891,"ĠUnivers":13892,"ĠAutomobielbedrijf":13893,"ĠARU":13894,"Ġmarine":13895,"eloos":13896,"acula":13897,"ĠCitroÃ«n":13898,"Ġ.-":13899,"UITEN":13900,"Ġkende":13901,"ĠSPECIAL":13902,"Hel":13903,"Ġdemocratie":13904,"Ġelek":13905,"Ġgeheime":13906,"Ġkim":13907,"Ġ354":13908,"tiger":13909,"ĠAmerica":13910,"Ġjournalisten":13911,"fll":13912,"Ġbeschad":13913,"install":13914,"ĠTan":13915,"ĠIC":13916,"QU":13917,"ĠSandra":13918,"ĠWerken":13919,"Ġhoofdrol":13920,"_________":13921,"Ġprestaties":13922,"gingen":13923,"sf":13924,"Ġeraan":13925,"Ġlerland":13926,"Ġlasten":13927,"Ġlening":13928,"pper":13929,"mes":13930,"ĠWEER":13931,"ublieken":13932,"ondanks":13933,"ommigen":13934,"Ġ924":13935,"Ġaandeelhouders":13936,"Ġstuurbekrachtiging":13937,"ĠCou":13938,"ĠOpleiding":13939,"Ġverkeerd":13940,"teer":13941,"sprekend":13942,"ĠGedeputeerde":13943,"ĠRod":13944,"Ġbb":13945,"ĠWIJ":13946,"kert":13947,"Ġmunten":13948,"Ġtegenstanders":13949,"voerster":13950,"ĠWelt":13951,"Ġtelefonische":13952,"bungalow":13953,"erschelling":13954,"1455":13955,"bediening":13956,"bemiddel":13957,"Ġabonnement":13958,"Ġinkoop":13959,"borator":13960,"Ġideaal":13961,"417":13962,"ĠLoos":13963,"Ġhfd":13964,"ĠViet":13965,"Ġcphm":13966,"zum":13967,"wo":13968,"ĠRent":13969,"Ġgearresteerd":13970,"VOOR":13971,"0531":13972,"PF":13973,"geles":13974,"geet":13975,"ĠAmerican":13976,"apende":13977,"ĠIndeling":13978,"Ġuitgesloten":13979,"Ġkok":13980,"Ã¨l":13981,"Ġmalen":13982,"fn":13983,"Ġ1973":13984,"MANN":13985,"*!":13986,"Ġtekenen":13987,"Ġbevestigd":13988,"put":13989,"Ġvs":13990,"Ġonderste":13991,"526":13992,"heater":13993,"Ġprom":13994,"ĠDenemarken":13995,"ĠKramer":13996,"Ġpogingen":13997,"Ġgeholpen":13998,"inx":13999,"ĠVersch":14000,"Ġschieten":14001,"Ġ460":14002,"lloyd":14003,"011019260":14004,"Ġpal":14005,"ĠPatrol":14006,"set":14007,"Ġ384":14008,"ĠWINKEL":14009,"ATS":14010,"ĠLj":14011,"ĠBT":14012,"ĠJacobs":14013,"Ġalwaar":14014,"355":14015,"208":14016,"0516":14017,"valt":14018,"jacht":14019,"ennie":14020,"doel":14021,"Ġversl":14022,"Ġzogeheten":14023,"Ol":14024,"0517":14025,"Ġconse":14026,"_^_":14027,"ĠMAG":14028,"ĠDealer":14029,"ĠBuss":14030,"Ġoriginele":14031,"0527":14032,"Ġuitgezonden":14033,"ika":14034,"lich":14035,"ĠBON":14036,"OBI":14037,"telijk":14038,"ĠVeer":14039,"MARKT":14040,"reerde":14041,"erten":14042,"ĠEurosport":14043,"Ġvrijwilligers":14044,"0514":14045,"ĠCy":14046,"Ġwoonplaats":14047,"Ġschuldig":14048,"Ġervaringen":14049,"Ġrollen":14050,"Ġ\"\"âĸł":14051,"Ġ201":14052,"ĠAndere":14053,"ĠBog":14054,"Ġjubileum":14055,"ijssel":14056,"ĠLiss":14057,"UTRECHT":14058,"ĠKarel":14059,"ĠGTL":14060,"Ġsortering":14061,"ĠZUID":14062,"Ġafgev":14063,"ĠSTACAR":14064,"Ġ364":14065,"Ġbroek":14066,"Ġgal":14067,"ugde":14068,"ĠAlexander":14069,"ĠâĢ¢\"\"":14070,"bellen":14071,"0519":14072,"ricia":14073,"ĠLloyd":14074,"tendeels":14075,"AKKER":14076,"0532":14077,"0521":14078,"Ġinj":14079,"ORPIO":14080,"315":14081,"Ġbeautiful":14082,"ulip":14083,"ymn":14084,"01064155":14085,"ĠMaij":14086,"haus":14087,"ela":14088,"0526":14089,"ĠBoon":14090,"Ġmensenrechten":14091,"Ġverstel":14092,"Ġzwee":14093,"uder":14094,"Ġaank":14095,"houdend":14096,"ĠBod":14097,"Ġbetreffende":14098,"Dan":14099,"ĠStraat":14100,"ĠBluebird":14101,"Ġmachine":14102,"ossingen":14103,"ĠKroatiÃ«":14104,"010691578":14105,"Ġsleutel":14106,"ĠWint":14107,"ĠJezus":14108,"sr":14109,"Ġkasten":14110,"vragen":14111,"ĠRES":14112,"OOG":14113,"0533":14114,"ĠMarian":14115,"0520":14116,"Ġeist":14117,"ĠMededelingen":14118,"ther":14119,"Ġpersconferentie":14120,"restaurant":14121,"inrichting":14122,"onderneming":14123,"0530":14124,"ĠBW":14125,"derij":14126,"Ġnaakt":14127,"Ġwerkdagen":14128,"Ġ_,":14129,"ĠIde":14130,"313":14131,"onisch":14132,"ĠCorrespondentieadres":14133,"Ġaust":14134,"sprijs":14135,"Vl":14136,"Ġadviseren":14137,"Ġdetail":14138,"0524":14139,"ĠTHEATER":14140,"Ġ6750":14141,"010691913":14142,"ĠPOR":14143,"MC":14144,"Ġzilvergrijs":14145,"udo":14146,"Ġmulti":14147,"OOS":14148,"Sov":14149,"can":14150,"ĠPERSON":14151,"ĠMEER":14152,"ĠHum":14153,"Ġregelen":14154,"ĠMusik":14155,"ĠAccord":14156,"Ġhoof":14157,"ĠSurinaamse":14158,"Ġvaren":14159,"Ġtoegestaan":14160,"Ġretour":14161,"Ġongetwijfeld":14162,"Ġ1996":14163,"ĠAPP":14164,"EO":14165,"KR":14166,"ommen":14167,"ĠVAL":14168,"Ġgetrouwd":14169,"OSKOU":14170,"318":14171,"ĠPetra":14172,"ĠNOORD":14173,"Ġspect":14174,"ĠALFA":14175,"ĠSpan":14176,"Ġbeleggers":14177,"Ġ8750":14178,"Ber":14179,"Ġopleveren":14180,"Ġrapp":14181,"Ġcen":14182,"ĠRAD":14183,"zaamheid":14184,"rif":14185,"ĠSoest":14186,"meyer":14187,"Ġlees":14188,"Ġontwikkelings":14189,"0555":14190,"ĠLUX":14191,"ĠSU":14192,"alarm":14193,"ĠCIN":14194,"Ġpacific":14195,"ĠAUDI":14196,"Ġpasfoto":14197,"Ġmuzikale":14198,"manager":14199,"ĠPersoneels":14200,"matiek":14201,"Ġabonn":14202,"ĠKaya":14203,"ĠJON":14204,"Ġgehoor":14205,"iff":14206,"Ġdraad":14207,"redijk":14208,"311":14209,"Ġkonink":14210,"ipt":14211,"Ġuitb":14212,"attingen":14213,"advertenties":14214,"mn":14215,"gerichte":14216,"Ġbeschermen":14217,"ĠGTX":14218,"ted":14219,"EUB":14220,"lle":14221,"ĠRein":14222,"Ġzichtbaar":14223,"ĠKINDER":14224,"Ġbereikte":14225,"Ġholding":14226,"Ġjammer":14227,"ĠElekt":14228,"ĠVenez":14229,"bron":14230,"Ġaanschaf":14231,"ĠKoningin":14232,"NC":14233,"Ġbeper":14234,"Ġgewend":14235,"0522":14236,"Toch":14237,"ĠHaarle":14238,"ĠDennis":14239,"alys":14240,"Ġfj":14241,"Ġgedeeltelijk":14242,"Ġwk":14243,"deloos":14244,"kennis":14245,"ĠBlij":14246,"âĢĶâĢĶâĢĶ":14247,"Ġ391":14248,"ĠExpress":14249,"oernooi":14250,"Ġengel":14251,"Ġherfst":14252,"adow":14253,"ĠTOYOTA":14254,"ijver":14255,"Ġ475":14256,"complex":14257,"Ġbegrijpen":14258,"ĠGemeenschap":14259,"ĠLOKHORST":14260,"ĠKuipers":14261,"Ġdegra":14262,"Ġlosse":14263,"INDHOVEN":14264,"Ġschot":14265,"neemt":14266,"ĠKlass":14267,"Ġboten":14268,"shirts":14269,"Ġ\"\"âĢ¢":14270,"ĠBeatrix":14271,"ĠHon":14272,"ĠCURA":14273,"Ġ03240":14274,"ĠSUZUKI":14275,"ĠASC":14276,"206":14277,"0523":14278,"0557":14279,"Ġ05178":14280,"0540":14281,"ĠKoll":14282,"deelde":14283,"LU":14284,"jin":14285,"Ġvrijstaande":14286,"Ġaansluitend":14287,"krachten":14288,"ĠROOD":14289,"Ġhoogtepunt":14290,"Ġluidt":14291,"ĠMeub":14292,"~^":14293,"Ġconsument":14294,"Ġpodium":14295,"plic":14296,"Ġ393":14297,"tent":14298,"âĸłâĸłâĸłâĸłâĸłâĸłâĸłâĸł":14299,"ĠVolkswagen":14300,"ĠIne":14301,"ĠJohnson":14302,"verdien":14303,"Jf":14304,"Ġslpk":14305,"Ġambitie":14306,"abeth":14307,"Ġhoofdkantoor":14308,"ĠJord":14309,"bn":14310,"holm":14311,"ĠRh":14312,"Ġziekenhuizen":14313,"Ġtf":14314,"ĠMoe":14315,"orkest":14316,"Ġwijken":14317,"ĠOekra":14318,"Ġverstrekt":14319,"010691733":14320,"ĠJU":14321,"Ġafwissel":14322,"Ġhoud":14323,"Ġreu":14324,"Ġporte":14325,"Ġleningen":14326,"Ġ383":14327,"Ġdess":14328,"ĠDun":14329,"Ġnoodzaak":14330,"wone":14331,"ĠMonique":14332,"Ġreceptie":14333,"ĠfinanciÃ«n":14334,"oofde":14335,"0534":14336,"Ġwaaruit":14337,"ISSAN":14338,"ido":14339,"Ġzonw":14340,"Ġwarmte":14341,"Ġbui":14342,"stichting":14343,"bescherming":14344,"645":14345,"0536":14346,"ĠKlerk":14347,"spannen":14348,"Ġdaalde":14349,"Ġdividend":14350,"ĠAanvaarding":14351,"ila":14352,"yf":14353,"ĠInn":14354,"ortus":14355,"Ġgepublic":14356,".âĸł":14357,"ĠMooi":14358,"Ġ1970":14359,"010567192":14360,"ĠDol":14361,"Nee":14362,"Ġzelden":14363,"rikt":14364,"Ġgre":14365,"Ġdun":14366,"Ġbijstand":14367,"gelo":14368,"Ġopbrengst":14369,"Ġverhuis":14370,"Ġtoev":14371,"Ġcoca":14372,"ĠAma":14373,"riesland":14374,"ĠKoopsom":14375,"Graven":14376,"010646057":14377,"ĠPrix":14378,"Ġcommunicatie":14379,"OREN":14380,"haar":14381,"cal":14382,"ĠMiddag":14383,"orgd":14384,"veer":14385,"0535":14386,"klin":14387,"?!":14388,"Ġfiguur":14389,"fronteerd":14390,"ĠTELEFOON":14391,"Ġluisteren":14392,"0528":14393,"Zw":14394,"datum":14395,"ĠNO":14396,"Ġaangetroffen":14397,"ĠIL":14398,"icro":14399,"Ġteksten":14400,"Ġronden":14401,"Ġ03410":14402,"TH":14403,"overleg":14404,"function":14405,"ĠIND":14406,"Ġverscheen":14407,"ĠTam":14408,"Ġyour":14409,"BBBB":14410,"010645997":14411,"Ġslipje":14412,"Ġraakten":14413,"638":14414,"ĠWoensdag":14415,"Ġtall":14416,"Ġrivier":14417,"ĠFab":14418,"naast":14419,"Ġduurder":14420,"communicatie":14421,"ĠHandels":14422,"winst":14423,"Ġzomaar":14424,"BANK":14425,"Ġsportvlg":14426,"Ġ__âĸł":14427,"zinnige":14428,"IDA":14429,",âĢĶ":14430,"Ġfen":14431,"ĠNEW":14432,"oni":14433,"Ġjuridische":14434,"Ġkook":14435,"ĠEde":14436,"ĠHuize":14437,"ĠSpaans":14438,"ĠAmerikaans":14439,"Ġtom":14440,"ANDEL":14441,"ĠSubaru":14442,"Â»^":14443,"724":14444,"quÃªte":14445,"Ġ04750":14446,"Ġopstellen":14447,"Ġ05110":14448,"waai":14449,"0529":14450,"Ġmaatschappelijke":14451,"ĠgeÃ¯sole":14452,"0547":14453,"Ġ2300":14454,"Ġovergang":14455,"jp":14456,"Ġvertoon":14457,"Ġuitgaven":14458,"Ġboter":14459,"Ġtoestand":14460,"Ġaardige":14461,"Ġ192":14462,"ĠVE":14463,"ĠVA":14464,"ĠYvonne":14465,"Ġcontactuele":14466,"Ġstok":14467,"ĠRabobank":14468,"Ġverded":14469,"ĠDIV":14470,"bun":14471,"ask":14472,"Ġbloot":14473,"Ġreferendum":14474,"SSUM":14475,"Of":14476,"ĠScher":14477,"Ġtoeg":14478,"Centrum":14479,"Ġhold":14480,"Ġrealiseren":14481,"FOORT":14482,"510":14483,"Ġcomplex":14484,"Ġvergro":14485,"caravans":14486,"Ġdistrict":14487,"route":14488,"Ġkoud":14489,"ĠCanadese":14490,"Ġvogels":14491,"Ġrock":14492,"Ġburen":14493,"Ġinzake":14494,"0552":14495,"Ġopgezet":14496,"Ġdemonstratie":14497,"alveren":14498,"611":14499,"Ġbekeken":14500,"Ġorder":14501,"iÃ«ren":14502,"gedragen":14503,"Ġuitgegeven":14504,"beelden":14505,"ĠWÃĬ":14506,"lette":14507,"ĠTotaal":14508,"Ġidentiteit":14509,"Ġregionaal":14510,"ĠJak":14511,"ĠGouda":14512,"asje":14513,"Ġstude":14514,"ICHTING":14515,"ĠVit":14516,"Ġkunstenaar":14517,"Ġbesteden":14518,"PC":14519,"abij":14520,"onnis":14521,"temperatuur":14522,"Ġkoersen":14523,"Ġgroeit":14524,"telier":14525,"Ġogenblik":14526,"vocaat":14527,"issement":14528,"\\^":14529,"anon":14530,"ĠNassau":14531,"Ġvermoord":14532,"for":14533,"ĠWout":14534,"mev":14535,"Ġgras":14536,"ĠLeuke":14537,"Ġdegenen":14538,"andin":14539,"Ġverrassend":14540,"sevier":14541,"aturen":14542,"Ġplaatshebben":14543,"CENTRUM":14544,"zwaag":14545,"Ġhouse":14546,"ĠIH":14547,"Ġprop":14548,"cursus":14549,"347":14550,"Ġbeloning":14551,"oterij":14552,"ĠNieuwen":14553,"overs":14554,"ĠMm":14555,"0551":14556,"Ġ04492":14557,"Ġ05945":14558,"ĠDj":14559,"0537":14560,"ĠPi":14561,"428":14562,"Ġafkomst":14563,"ASSEN":14564,"Leeuwarden":14565,"DS":14566,"bor":14567,"ĠNeighbours":14568,"0578":14569,"inair":14570,"Ġproducent":14571,"ĠDak":14572,"trent":14573,"1853":14574,"Ġmest":14575,"ĠDur":14576,"onken":14577,"ĠCA":14578,"ĠMozart":14579,"ĠChannel":14580,"ĠHop":14581,"ĠHold":14582,"Ġ202":14583,"Ġmeda":14584,"ĠWassen":14585,"Ġprestatie":14586,"rapport":14587,"ĠMS":14588,"ĠAppel":14589,"Ġtrend":14590,"speur":14591,"Ġevenmin":14592,"Ġschatting":14593,"Ġ353":14594,"Ġgeneratie":14595,"ĠAer":14596,"Ġnotaris":14597,"Ġgrijsmet":14598,"riciteit":14599,"Ġontbreken":14600,"ĠWagon":14601,"Ġgoedkoopste":14602,"nex":14603,"ĠVeluwe":14604,"ganger":14605,"irus":14606,"ĠFrankfurt":14607,"Ġdierbare":14608,"links":14609,"010646071":14610,"317":14611,"Ġgeprobeerd":14612,"finale":14613,"ĠKarin":14614,"Ġtoegenomen":14615,"0542":14616,"010567291":14617,"iliteit":14618,"Ġkas":14619,"Ġjar":14620,"010691992":14621,"Bs":14622,"ĠGeel":14623,"iÃ¯":14624,"2500":14625,"ACE":14626,"twee":14627,"alingen":14628,"ĠVeg":14629,"Ġscheidsrechter":14630,"Nieuwe":14631,"Ġgepleegd":14632,"uropese":14633,"Ġplastic":14634,"ĠTijd":14635,"ronken":14636,"OPER":14637,"Ġbou":14638,"ĠAlto":14639,"ĠBruin":14640,"skunde":14641,"ĠDA":14642,"ĠForm":14643,"ĠChin":14644,"647":14645,"Ġbng":14646,"Ġbranche":14647,"0553":14648,"uwel":14649,"0538":14650,"Ġtalkshow":14651,"IQ":14652,"pstra":14653,"ason":14654,"hele":14655,"ĠCroes":14656,"klaar":14657,"Ġpjan":14658,"Ġgezorgd":14659,"schoppen":14660,"Ġhectare":14661,"ĠcliÃ«nten":14662,"Ġere":14663,"Ġbenoeming":14664,"336":14665,"reeuw":14666,"ĠAngeles":14667,"ĠPARK":14668,"331":14669,"0558":14670,"Ġlagen":14671,"problemen":14672,"ĠNoorwegen":14673,"vre":14674,"osh":14675,"It":14676,"ĠHenri":14677,"Ġnegatief":14678,"Ġbold":14679,"Ġvertrokken":14680,"ĠSchitt":14681,"Ġmilie":14682,"erssen":14683,"atiÃ«nten":14684,"Ġvertal":14685,"Ġoudste":14686,"inema":14687,"udie":14688,"Ġ074":14689,"Ġdeurvergr":14690,"Ġbezette":14691,"Ġ1972":14692,"Ġalternatief":14693,"neveld":14694,"ĠÆĴll":14695,"Â»'":14696,"ĠPASSAT":14697,"0539":14698,"ĠLok":14699,"iami":14700,"orkum":14701,"Ġprivacy":14702,"ĠMAASTRICHT":14703,"ĠAus":14704,"Ġ015":14705,"ĠKUN":14706,"BROEK":14707,"ĠPek":14708,"Ġ02152":14709,"Ġmal":14710,"Ġ05116":14711,"DELEN":14712,"trainer":14713,"Ġpaas":14714,"ollektie":14715,"Ġinrichting":14716,"010646103":14717,"Ġtweetal":14718,"ĠNel":14719,"ĠKun":14720,"ĠFri":14721,"Ul":14722,"word":14723,"Ġconcl":14724,"Ġhandelaren":14725,"010646080":14726,"Ġduurste":14727,"hoed":14728,"1414":14729,"osof":14730,"ĠMath":14731,"010691951":14732,"ĠSlot":14733,"Ġgemak":14734,"Ġveelal":14735,"Bed":14736,"Ġtelkens":14737,"0600":14738,"Ġbedreigd":14739,"Ġjo":14740,"ĠZuidafrikaanse":14741,"temin":14742,"ĠVEN":14743,"Ġgelopen":14744,"0544":14745,"Ġwast":14746,"undai":14747,"209":14748,"ĠDinsdag":14749,"-;":14750,"Ġverantwoord":14751,"volging":14752,"Ġarmen":14753,"wielen":14754,"weit":14755,"ĠZOM":14756,"Ġambassadeur":14757,"behoren":14758,"vallig":14759,"mannen":14760,"ĠindustriÃ«le":14761,"Ġverdiensten":14762,"Ġlust":14763,"ori":14764,"Ġkin":14765,"ĠMarokk":14766,"Ġmisbruik":14767,"Uw":14768,"Ġ01803":14769,"ormaat":14770,"ĠMicra":14771,"ĠZn":14772,"Ġkennismaking":14773,"frank":14774,"ĠVandaar":14775,"ĠKERST":14776,"Ġcoup":14777,"Ġbewerkt":14778,"ĠStat":14779,"Ġmoorden":14780,"Ġsoortgelijke":14781,"ĠÂ»,Â»":14782,"Ġmeren":14783,"Ã¨ve":14784,"717":14785,"ĠAkk":14786,"Ġrestauratie":14787,"elly":14788,"ĠLissabon":14789,"zoeken":14790,"uls":14791,"ĠEllen":14792,"__________":14793,"Ġopstelling":14794,"Ġski":14795,",^":14796,"dadig":14797,"ĠPloeg":14798,"pad":14799,"ĠRussen":14800,"ĠHEHL":14801,"opleidingen":14802,"indingen":14803,"ĠCongres":14804,"igranten":14805,"buren":14806,"Ġstudent":14807,"Ġcriminaliteit":14808,"ĠNAAR":14809,"ĠCornel":14810,"atalogus":14811,"aats":14812,"BIEDING":14813,"429":14814,"0545":14815,"0549":14816,"696":14817,"acks":14818,"kenden":14819,"NHEM":14820,"Ġopdrachten":14821,"Ġvaardigheden":14822,"VERZ":14823,"ymf":14824,"Ġmonument":14825,"Ġsoapserie":14826,"wig":14827,"acles":14828,"Ġgrotendeels":14829,"Ġprettige":14830,"Ġcorre":14831,"ĠSI":14832,"Ġomlaag":14833,"hoorn":14834,"Ġverho":14835,"\"\"âĸł":14836,"azin":14837,"646":14838,"toom":14839,"Ġgereageerd":14840,"Ġchemische":14841,"SMA":14842,"ĠROM":14843,"weegt":14844,"ĠmÃ©Ã©r":14845,"uy":14846,"irs":14847,"ĠGolfoorlog":14848,"0541":14849,"thans":14850,"Ġchauffeur":14851,"Ġtrainings":14852,"NIEUW":14853,"Ġeenvoudige":14854,"010646028":14855,"ĠHaven":14856,"Ġinval":14857,"ĠParallel":14858,"vor":14859,"aliseerd":14860,"rof":14861,"ĠRia":14862,"dingen":14863,"mat":14864,"Ġ01804":14865,"ĠRidder":14866,"Ġvoornaam":14867,"Ġuitgangsp":14868,"Ġberoemde":14869,"0565":14870,"0105592":14871,
[...]
